{
  "version": "1.0",
  "truncation": null,
  "padding": null,
  "added_tokens": [
    {
      "id": 0,
      "content": "<|pad|>",
      "single_word": false,
      "lstrip": false,
      "rstrip": false,
      "normalized": false,
      "special": true
    },
    {
      "id": 1,
      "content": "<|im_start|>",
      "single_word": false,
      "lstrip": false,
      "rstrip": false,
      "normalized": false,
      "special": true
    },
    {
      "id": 2,
      "content": "<|im_end|>",
      "single_word": false,
      "lstrip": false,
      "rstrip": false,
      "normalized": false,
      "special": true
    }
  ],
  "normalizer": null,
  "pre_tokenizer": {
    "type": "Sequence",
    "pretokenizers": [
      {
        "type": "Digits",
        "individual_digits": true
      },
      {
        "type": "ByteLevel",
        "add_prefix_space": false,
        "trim_offsets": true,
        "use_regex": true
      }
    ]
  },
  "post_processor": null,
  "decoder": {
    "type": "ByteLevel",
    "add_prefix_space": true,
    "trim_offsets": true,
    "use_regex": true
  },
  "model": {
    "type": "BPE",
    "dropout": null,
    "unk_token": null,
    "continuing_subword_prefix": null,
    "end_of_word_suffix": null,
    "fuse_unk": false,
    "byte_fallback": false,
    "ignore_merges": false,
    "vocab": {
      "<|pad|>": 0,
      "<|im_start|>": 1,
      "<|im_end|>": 2,
      "!": 3,
      "\"": 4,
      "#": 5,
      "$": 6,
      "%": 7,
      "&": 8,
      "'": 9,
      "(": 10,
      ")": 11,
      "*": 12,
      "+": 13,
      ",": 14,
      "-": 15,
      ".": 16,
      "/": 17,
      "0": 18,
      "1": 19,
      "2": 20,
      "3": 21,
      "4": 22,
      "5": 23,
      "6": 24,
      "7": 25,
      "8": 26,
      "9": 27,
      ":": 28,
      ";": 29,
      "<": 30,
      "=": 31,
      ">": 32,
      "?": 33,
      "@": 34,
      "A": 35,
      "B": 36,
      "C": 37,
      "D": 38,
      "E": 39,
      "F": 40,
      "G": 41,
      "H": 42,
      "I": 43,
      "J": 44,
      "K": 45,
      "L": 46,
      "M": 47,
      "N": 48,
      "O": 49,
      "P": 50,
      "Q": 51,
      "R": 52,
      "S": 53,
      "T": 54,
      "U": 55,
      "V": 56,
      "W": 57,
      "X": 58,
      "Y": 59,
      "Z": 60,
      "[": 61,
      "\\": 62,
      "]": 63,
      "^": 64,
      "_": 65,
      "`": 66,
      "a": 67,
      "b": 68,
      "c": 69,
      "d": 70,
      "e": 71,
      "f": 72,
      "g": 73,
      "h": 74,
      "i": 75,
      "j": 76,
      "k": 77,
      "l": 78,
      "m": 79,
      "n": 80,
      "o": 81,
      "p": 82,
      "q": 83,
      "r": 84,
      "s": 85,
      "t": 86,
      "u": 87,
      "v": 88,
      "w": 89,
      "x": 90,
      "y": 91,
      "z": 92,
      "{": 93,
      "|": 94,
      "}": 95,
      "~": 96,
      "¡": 97,
      "¢": 98,
      "£": 99,
      "¤": 100,
      "¥": 101,
      "¦": 102,
      "§": 103,
      "¨": 104,
      "©": 105,
      "ª": 106,
      "«": 107,
      "¬": 108,
      "®": 109,
      "¯": 110,
      "°": 111,
      "±": 112,
      "²": 113,
      "³": 114,
      "´": 115,
      "µ": 116,
      "¶": 117,
      "·": 118,
      "¸": 119,
      "¹": 120,
      "º": 121,
      "»": 122,
      "¼": 123,
      "½": 124,
      "¾": 125,
      "¿": 126,
      "À": 127,
      "Á": 128,
      "Â": 129,
      "Ã": 130,
      "Ä": 131,
      "Å": 132,
      "Æ": 133,
      "Ç": 134,
      "È": 135,
      "É": 136,
      "Ê": 137,
      "Ë": 138,
      "Ì": 139,
      "Í": 140,
      "Î": 141,
      "Ï": 142,
      "Ð": 143,
      "Ñ": 144,
      "Ò": 145,
      "Ó": 146,
      "Ô": 147,
      "Õ": 148,
      "Ö": 149,
      "×": 150,
      "Ø": 151,
      "Ù": 152,
      "Ú": 153,
      "Û": 154,
      "Ü": 155,
      "Ý": 156,
      "Þ": 157,
      "ß": 158,
      "à": 159,
      "á": 160,
      "â": 161,
      "ã": 162,
      "ä": 163,
      "å": 164,
      "æ": 165,
      "ç": 166,
      "è": 167,
      "é": 168,
      "ê": 169,
      "ë": 170,
      "ì": 171,
      "í": 172,
      "î": 173,
      "ï": 174,
      "ð": 175,
      "ñ": 176,
      "ò": 177,
      "ó": 178,
      "ô": 179,
      "õ": 180,
      "ö": 181,
      "÷": 182,
      "ø": 183,
      "ù": 184,
      "ú": 185,
      "û": 186,
      "ü": 187,
      "ý": 188,
      "þ": 189,
      "ÿ": 190,
      "Ā": 191,
      "ā": 192,
      "Ă": 193,
      "ă": 194,
      "Ą": 195,
      "ą": 196,
      "Ć": 197,
      "ć": 198,
      "Ĉ": 199,
      "ĉ": 200,
      "Ċ": 201,
      "ċ": 202,
      "Č": 203,
      "č": 204,
      "Ď": 205,
      "ď": 206,
      "Đ": 207,
      "đ": 208,
      "Ē": 209,
      "ē": 210,
      "Ĕ": 211,
      "ĕ": 212,
      "Ė": 213,
      "ė": 214,
      "Ę": 215,
      "ę": 216,
      "Ě": 217,
      "ě": 218,
      "Ĝ": 219,
      "ĝ": 220,
      "Ğ": 221,
      "ğ": 222,
      "Ġ": 223,
      "ġ": 224,
      "Ģ": 225,
      "ģ": 226,
      "Ĥ": 227,
      "ĥ": 228,
      "Ħ": 229,
      "ħ": 230,
      "Ĩ": 231,
      "ĩ": 232,
      "Ī": 233,
      "ī": 234,
      "Ĭ": 235,
      "ĭ": 236,
      "Į": 237,
      "į": 238,
      "İ": 239,
      "ı": 240,
      "Ĳ": 241,
      "ĳ": 242,
      "Ĵ": 243,
      "ĵ": 244,
      "Ķ": 245,
      "ķ": 246,
      "ĸ": 247,
      "Ĺ": 248,
      "ĺ": 249,
      "Ļ": 250,
      "ļ": 251,
      "Ľ": 252,
      "ľ": 253,
      "Ŀ": 254,
      "ŀ": 255,
      "Ł": 256,
      "ł": 257,
      "Ń": 258,
      "--": 259,
      "ï¼": 260,
      "Ġ|": 261,
      "ãĢ": 262,
      "**": 263,
      "ãĢģ": 264,
      "ä¸": 265,
      "----": 266,
      "%ãĢģ": 267,
      "ï¼ļ": 268,
      "åı": 269,
      "åĪ": 270,
      "ï¼Į": 271,
      "çĶ": 272,
      "æľ": 273,
      "ãĢĤ": 274,
      "åĲ": 275,
      "åħ": 276,
      "æ°": 277,
      "æĢ": 278,
      "æĸ": 279,
      "##": 280,
      "äº": 281,
      "ä½": 282,
      "Ġå": 283,
      "çļ": 284,
      "Ġæ": 285,
      "å®": 286,
      "ï¼Ī": 287,
      "ï¼ī": 288,
      "Ġ**": 289,
      "Ġç": 290,
      "æĢ§": 291,
      "éħ": 292,
      "åĮ": 293,
      "åº": 294,
      "çļĦ": 295,
      "æĪ": 296,
      "çĶ¨": 297,
      "å¤": 298,
      "---": 299,
      "éĢ": 300,
      "çĥ": 301,
      "çī": 302,
      "åĵ": 303,
      "æİ": 304,
      "éĺ": 305,
      "è§": 306,
      "è¯": 307,
      "åŃ": 308,
      "éĻ": 309,
      "åĪĨ": 310,
      "éĩ": 311,
      "|----": 312,
      "åį": 313,
      "åĵģ": 314,
      "æł": 315,
      "æ¶": 316,
      "éĺ²": 317,
      "çģ": 318,
      "æĬ": 319,
      "åĮĸ": 320,
      "ä»": 321,
      "åĴ": 322,
      "æľī": 323,
      "ä½ĵ": 324,
      "**ï¼ļ": 325,
      "è¿": 326,
      "éĨ": 327,
      "çī©": 328,
      "±»": 329,
      "æĺ": 330,
      "ï¼ļ**": 331,
      "æķ": 332,
      "åĲ¸": 333,
      "èĥ": 334,
      "äº§": 335,
      "ç»": 336,
      "Ġé": 337,
      "æ°´": 338,
      "åĴĮ": 339,
      "åı¯": 340,
      "ä¿": 341,
      "åī": 342,
      "å°": 343,
      "è¡": 344,
      "åĳ": 345,
      "æĹ": 346,
      "RF": 347,
      "åĬ": 348,
      "æĸĻ": 349,
      "æ³": 350,
      "|------": 351,
      "åĲĪ": 352,
      "åľ": 353,
      "æ°§": 354,
      "åīĤ": 355,
      "ï¼Ľ": 356,
      "å¼": 357,
      "èĤ": 358,
      "ä¼": 359,
      "çĽ": 360,
      "çľ": 361,
      "åĽ": 362,
      "æº": 363,
      "çģ«": 364,
      "ç±»": 365,
      "æĬ¤": 366,
      "æĪĸ": 367,
      "æĸ¹": 368,
      "åºĶ": 369,
      "èĥ½": 370,
      "###": 371,
      "çİ": 372,
      "ä¸į": 373,
      "äº§åĵģ": 374,
      "æ°Ķ": 375,
      "éĩı": 376,
      "æİ¥": 377,
      "åħ¥": 378,
      "ĠĠ": 379,
      "åį±": 380,
      "è§¦": 381,
      "çĶŁ": 382,
      "å®¹": 383,
      "Â°": 384,
      "Ġâ": 385,
      "æµ": 386,
      "åº¦": 387,
      "å¯": 388,
      "ç³": 389,
      "èĦ": 390,
      "è´": 391,
      "in": 392,
      "ç§": 393,
      "åŃ¦": 394,
      "ä¸Ń": 395,
      "ç³»": 396,
      "å·": 397,
      "æ¶²": 398,
      "çļ®": 399,
      "æĪĲ": 400,
      "éħ¸": 401,
      "¡æ": 402,
      "ºæ": 403,
      "å½": 404,
      "åĨ": 405,
      "æľ¬": 406,
      "æŃ": 407,
      "éĻ©": 408,
      "å¹": 409,
      "éĺ²æĬ¤": 410,
      "å¤Ħ": 411,
      "æĢ¥": 412,
      "çľ¼": 413,
      "èĩ": 414,
      "çİ¯": 415,
      "å®³": 416,
      "æİ¥è§¦": 417,
      "æ·": 418,
      "åĪ«": 419,
      "æĺİ": 420,
      "¦Ĥ": 421,
      "è®": 422,
      "çĿ": 423,
      "èĤ¤": 424,
      "çļ®èĤ¤": 425,
      "æ¸": 426,
      "ä¹": 427,
      "æĿ": 428,
      "---|": 429,
      "æį": 430,
      "åĻ": 431,
      "åĻ¨": 432,
      "æ¯": 433,
      "äºİ": 434,
      "èģ": 435,
      "éħį": 436,
      "èī": 437,
      "åĳ¼": 438,
      "¡¹": 439,
      "IR": 440,
      "ç²": 441,
      "åŃĺ": 442,
      "çĩ": 443,
      "çĽ®": 444,
      "æĮ": 445,
      "æ´": 446,
      "åĩ": 447,
      "çĤ": 448,
      "ä¿Ŀ": 449,
      "åŁ": 450,
      "è´¨": 451,
      "é£": 452,
      "éĿ": 453,
      "ä½¿": 454,
      "DS": 455,
      "åħ¨": 456,
      "æĸ½": 457,
      "åĬł": 458,
      "åı¯èĥ½": 459,
      "éĥ": 460,
      "ĲĨ": 461,
      "èĦĤ": 462,
      "æī": 463,
      "éĨĩ": 464,
      "æº¶": 465,
      "¦ģ": 466,
      "çĶµ": 467,
      "å·¥": 468,
      "¿Ģ": 469,
      "åĪºæ": 470,
      "åĳ¼åĲ¸": 471,
      "åĪºæ¿Ģ": 472,
      "éĥ¨": 473,
      "éģ": 474,
      "¡¹çĽ®": 475,
      "ä¸ģ": 476,
      "|------|": 477,
      "æ··": 478,
      "ªæĸ½": 479,
      "ä½¿çĶ¨": 480,
      "åĮ»": 481,
      "éĻĲ": 482,
      "èµ": 483,
      "ĳèĦĤ": 484,
      "äºĮ": 485,
      "éĨĽ": 486,
      "å¾": 487,
      "ä½ľ": 488,
      "çĲĨ": 489,
      "åį±éĻ©": 490,
      "ä¸İ": 491,
      "|--------": 492,
      "ä½ĵç³»": 493,
      "ç½": 494,
      "¬¬": 495,
      "Ġé¡¹çĽ®": 496,
      "æ±": 497,
      "åĲį": 498,
      "ä¸ļ": 499,
      "åĢ": 500,
      "æ´Ĺ": 501,
      "æ··åĲĪ": 502,
      "æİªæĸ½": 503,
      "èĢ": 504,
      "åĤ": 505,
      "ŀĭ": 506,
      "éħļ": 507,
      "åıĬ": 508,
      "çİ¯æ°§": 509,
      "çĩĥ": 510,
      "æĶ": 511,
      "æ¶Ĥ": 512,
      "ä¾": 513,
      "åı·": 514,
      "%ï¼Į": 515,
      "éĢĤ": 516,
      "éħįæĸ¹": 517,
      "ĠC": 518,
      "ĠP": 519,
      "min": 520,
      "èĭ": 521,
      "ĺçĥ": 522,
      "æłĳèĦĤ": 523,
      "åľ¨": 524,
      "åĪ¶": 525,
      "ĢĶ": 526,
      "īåħ¨": 527,
      "åĮĸåŃ¦": 528,
      "æ²": 529,
      "åŀĭ": 530,
      "ģ¯": 531,
      "éĢļ": 532,
      "èģļ": 533,
      "æ¼": 534,
      "æľŁ": 535,
      "æķ°": 536,
      "AZ": 537,
      "ä¸Ģ": 538,
      "æĹ¶": 539,
      "æį®": 540,
      "åİ": 541,
      "ĺçĥ¤": 542,
      "Ġç¬¬": 543,
      "æłĩ": 544,
      "åĢ¼": 545,
      "ÃĹ": 546,
      "å¥": 547,
      "åħ¬": 548,
      "çĥĺçĥ¤": 549,
      "åĲ¸åħ¥": 550,
      "ç©": 551,
      "æ¯Ĵ": 552,
      "äºº": 553,
      "æł·": 554,
      "Ġåį": 555,
      "ä¿¡æ": 556,
      "ä¿¡æģ¯": 557,
      "æ¸ħ": 558,
      "çĶ²": 559,
      "¨åŃĺ": 560,
      "èī²": 561,
      "è£": 562,
      "æľ¯": 563,
      "éħļéĨĽ": 564,
      "å¦Ĥ": 565,
      "è¦ģ": 566,
      "åı¸": 567,
      "è¡¨": 568,
      "åħ¬åı¸": 569,
      "åŁº": 570,
      "ä½ĵç³»æł·": 571,
      "ä½ĵç³»æł·æľ¬": 572,
      "Ģæľ¯": 573,
      "éĢł": 574,
      "ç§°": 575,
      "åĲįç§°": 576,
      "|------|------|": 577,
      "å±": 578,
      "åĲ«": 579,
      "éĩį": 580,
      "---|---|": 581,
      "çī¹": 582,
      "çĿĽ": 583,
      "ĠH": 584,
      "ħå®¹": 585,
      "éĥ¨åĪĨ": 586,
      "å¤§": 587,
      "éħ¯": 588,
      "å®īåħ¨": 589,
      "è¯´": 590,
      "è¯´æĺİ": 591,
      "ĠâĢĶ": 592,
      "å¸": 593,
      "æŃ£": 594,
      "SDS": 595,
      "æĸĩ": 596,
      "åľ°": 597,
      "æ¶²ä½ĵ": 598,
      "ä¸ģéĨĩ": 599,
      "å¢": 600,
      "«ĺ": 601,
      "æ°§åĮĸ": 602,
      "è£ħ": 603,
      "æ³ķ": 604,
      "èľ": 605,
      "Ġ(": 606,
      "æĮģ": 607,
      "èĴ": 608,
      "èľ¡": 609,
      "èĴ¸": 610,
      "æĸ°": 611,
      "æºĲ": 612,
      "ĠåĨ": 613,
      "ĠåĮ": 614,
      "Ńçģ«": 615,
      "ç²ī": 616,
      "çĤ¹": 617,
      "AS": 618,
      "æĹ¥": 619,
      "åĿ": 620,
      "ķĨ": 621,
      "éĹ": 622,
      "å°±": 623,
      "éķ": 624,
      "ä¸ĭ": 625,
      "ĠåĨħå®¹": 626,
      "åķĨ": 627,
      "å¿": 628,
      "å®ļ": 629,
      "åĤ¨åŃĺ": 630,
      "åĨ²": 631,
      "åį±å®³": 632,
      "åıĳ": 633,
      "è§Ħ": 634,
      "è¡¥": 635,
      "Ġäº§åĵģ": 636,
      "¿åħ": 637,
      "é¢": 638,
      "çģŃçģ«": 639,
      "æľīéĻĲ": 640,
      "æŀ": 641,
      "å¯¹": 642,
      "å¯Ĩ": 643,
      "ç©º": 644,
      "é£İ": 645,
      "åĽ½": 646,
      "çľ¼çĿĽ": 647,
      "ç£": 648,
      "æ¶ĤæĸĻ": 649,
      "çº": 650,
      "Ġç±»": 651,
      "éĢĶ": 652,
      "ä¾Ľ": 653,
      "è¯Ŀ": 654,
      "æľīéĻĲåħ¬åı¸": 655,
      "åħ·": 656,
      "«ĭ": 657,
      "åĬłæ··åĲĪ": 658,
      "è¡¥åĬłæ··åĲĪ": 659,
      "è¡¥åĬłæ··åĲĪæ¶²": 660,
      "Ġä¸": 661,
      "å®¹åĻ¨": 662,
      "çĶµè¯Ŀ": 663,
      "çİ¯æ°§éħļéĨĽ": 664,
      "åĨ²æ´Ĺ": 665,
      "çİ¯æ°§éħļéĨĽä½ĵç³»æł·æľ¬": 666,
      "an": 667,
      "Ġç±»åĪ«": 668,
      "ĠĠĠĠ": 669,
      "é«ĺ": 670,
      "ç¨": 671,
      "æŃ¢": 672,
      "è¾": 673,
      "ç½®": 674,
      "å°±åĮ»": 675,
      "èĴ¸æ°Ķ": 676,
      "çŃ": 677,
      "åį³": 678,
      "éĿ¢": 679,
      "éĢłæĪĲ": 680,
      "Ġåį±": 681,
      "èĩ´": 682,
      "æĿĲ": 683,
      "ä»¶": 684,
      "Ġçī": 685,
      "Ġm": 686,
      "ä¹Ļ": 687,
      "ĠS": 688,
      "è¿ĩ": 689,
      "æķ°æį®": 690,
      "æ¡": 691,
      "èµ·": 692,
      "ä¼ļ": 693,
      "æŃ£ä¸ģéĨĩ": 694,
      "ç±»åĪ«": 695,
      "æĹł": 696,
      "åĽº": 697,
      "ç¡": 698,
      "«ĭåį³": 699,
      "ç¦": 700,
      "æķĳ": 701,
      "è½": 702,
      "æº¶åīĤ": 703,
      "å¹¶": 704,
      "ĠåĮĸ": 705,
      "åħ¶": 706,
      "ĠåĮĸåŃ¦": 707,
      "ä¸º": 708,
      "æĬĢæľ¯": 709,
      "éľ": 710,
      "ç©ºæ°Ķ": 711,
      "çĥŃ": 712,
      "å¤ĩ": 713,
      "ç¦»": 714,
      "ç¼": 715,
      "åıį": 716,
      "¿åħį": 717,
      "èĩ³": 718,
      "è¿Ľ": 719,
      "å¹²": 720,
      "é£Ł": 721,
      "éĢļé£İ": 722,
      "èĬ": 723,
      "âĦ": 724,
      "å¥½": 725,
      "ĵçĩĥ": 726,
      "çĻ": 727,
      "|---|---|": 728,
      "·éħ¸": 729,
      "èĢĲ": 730,
      "ĵį": 731,
      "çĬ": 732,
      "Ġ-": 733,
      "ç£·éħ¸": 734,
      "ĵįä½ľ": 735,
      "åŃĲ": 736,
      "ä»¥": 737,
      "ol": 738,
      "Łĵ": 739,
      "è¿°": 740,
      "at": 741,
      "çĹ": 742,
      "ĠæĢ¥": 743,
      "çī©è´¨": 744,
      "æľį": 745,
      "ç»Ħ": 746,
      "æ¼ı": 747,
      "åĮº": 748,
      "æ¯ĴæĢ§": 749,
      "es": 750,
      "æĪ´": 751,
      "å½¢": 752,
      "çĬ¶": 753,
      "è¯Ĩ": 754,
      "ĠG": 755,
      "çĪ": 756,
      "en": 757,
      "er": 758,
      "éĴ": 759,
      "å¼ķ": 760,
      "è§£": 761,
      "éģĵ": 762,
      "æĦ": 763,
      "on": 764,
      "ä¸Ĭ": 765,
      "Ġæĺ": 766,
      "æĹ¥æľŁ": 767,
      "Ħæ¼ı": 768,
      "å¤ĦçĲĨ": 769,
      "ç¢": 770,
      "ĠN": 771,
      "Īéĺ²": 772,
      "âĦĥ": 773,
      "æĿĲæĸĻ": 774,
      "Ġæİ": 775,
      "éĽ": 776,
      "æı": 777,
      "ıåı": 778,
      "Ġåį±éĻ©": 779,
      "æīĢ": 780,
      "ĠB": 781,
      "ä¿ĿæĮģ": 782,
      "å¼Ĥ": 783,
      "å¤Ħç½®": 784,
      "æĶ¾": 785,
      "å¢ĥ": 786,
      "çĪĨ": 787,
      "å¼ķèµ·": 788,
      "èĭ¯": 789,
      "RJ": 790,
      "çŁ": 791,
      "--------": 792,
      "èī¯": 793,
      "èµĦ": 794,
      "æľīå®³": 795,
      "ĠM": 796,
      "å¼ı": 797,
      "ĠæĪ": 798,
      "çĶ¨äºİ": 799,
      "æ²¹": 800,
      "Ġâī": 801,
      "åĸ": 802,
      "é»": 803,
      "åĪ°": 804,
      "|---------": 805,
      "èµĦæĸĻ": 806,
      "RH": 807,
      "ĠD": 808,
      "åĪĨç±»": 809,
      "æ¸©": 810,
      "åĩº": 811,
      "çĥ¯": 812,
      "ĠT": 813,
      "åĵį": 814,
      "æĸ¹æ³ķ": 815,
      "ä¸ª": 816,
      "æ¯Ķ": 817,
      "ä¼¤": 818,
      "ç±»åŀĭ": 819,
      "åıįåºĶ": 820,
      "èī¯å¥½": 821,
      "ç´": 822,
      "ĠE": 823,
      "Ġä¸į": 824,
      "æīĭ": 825,
      "è®¾": 826,
      "æĺ¯": 827,
      "åĲ«éĩı": 828,
      "è¡£": 829,
      "å¤§éĩı": 830,
      "»º": 831,
      "æ¦Ĥ": 832,
      "ĵçĩĥæ¶²ä½ĵ": 833,
      "Ġæ¶": 834,
      "çĶ¨éĢĶ": 835,
      "¡æŁĵ": 836,
      "çİ¯å¢ĥ": 837,
      "ç¢³": 838,
      "æ¦Ĥè¿°": 839,
      "Ġ+": 840,
      "éģ¿åħį": 841,
      "æĵįä½ľ": 842,
      "æįŁ": 843,
      "åĳĺ": 844,
      "çĿĢ": 845,
      "ĠåĮĸåŃ¦åĵģ": 846,
      "ç¼ĸ": 847,
      "al": 848,
      "ĠI": 849,
      "ä¾ĽåºĶ": 850,
      "Â®": 851,
      "çŃī": 852,
      "è¿ľ": 853,
      "çł": 854,
      "æ±¡æŁĵ": 855,
      "åĿĢ": 856,
      "åĬĽ": 857,
      "å¾Ħ": 858,
      "æµģ": 859,
      "æķĳæİªæĸ½": 860,
      "æıĲ": 861,
      "ĠæĹ": 862,
      "è¡Į": 863,
      "è®®": 864,
      "Ġmg": 865,
      "æķ°æį®è¡¨": 866,
      "ç«ĭåį³": 867,
      "ĠA": 868,
      "åĲİ": 869,
      "ä¼ģ": 870,
      "åºĶæĢ¥": 871,
      "»ºè®®": 872,
      "ä½İ": 873,
      "ä¼ģä¸ļ": 874,
      "çļ®èĤ¤æİ¥è§¦": 875,
      "çĤ¸": 876,
      "åĮħ": 877,
      "å°ĺ": 878,
      "æ³Ħæ¼ı": 879,
      "HS": 880,
      "ar": 881,
      "èĮ": 882,
      "èį": 883,
      "éĵ": 884,
      "çĽ¸": 885,
      "æ®": 886,
      "éļ": 887,
      "è¿Ĳ": 888,
      "è®¾å¤ĩ": 889,
      "ç»Ł": 890,
      "èĮĥ": 891,
      "èĦ±": 892,
      "âĤ": 893,
      "ĠR": 894,
      "æĿ¡": 895,
      "äººåĳĺ": 896,
      "æ³¨": 897,
      "ä½ıåı": 898,
      "Ġå¯": 899,
      "åį±éĻ©æĢ§": 900,
      "æĶ¶": 901,
      "åĮĸåŃ¦åĵģ": 902,
      "ä½ıåıĭ": 903,
      "¥éĩį": 904,
      "åģ": 905,
      "æ°§åĮĸç¢³": 906,
      "å¿ĥ": 907,
      "æĦı": 908,
      "ç³»ç»Ł": 909,
      "éĴŁ": 910,
      "±åĵį": 911,
      "è·": 912,
      "å½ĵ": 913,
      "æŀľ": 914,
      "Ġ<": 915,
      "æ¼Ĩ": 916,
      "èĩª": 917,
      "ä¹¦": 918,
      "ĠæĹł": 919,
      "å·¥ä¸ļ": 920,
      "çĸ": 921,
      "ĠäºĮ": 922,
      "åıĸ": 923,
      "åĪĨéĴŁ": 924,
      "ä¾ĽåºĶåķĨ": 925,
      "df": 926,
      "pdf": 927,
      "æ±Ĥ": 928,
      "Ġæº": 929,
      "TDS": 930,
      "æĥ": 931,
      "åħī": 932,
      "æķı": 933,
      "èĥ¶": 934,
      "å½±åĵį": 935,
      "æ··åĲĪçī©": 936,
      "éĹŃ": 937,
      "æĿ¡ä»¶": 938,
      "Â³": 939,
      "ä»ĸ": 940,
      "èģĶ": 941,
      "æľª": 942,
      "æµ·": 943,
      "ĠCAS": 944,
      "é¡": 945,
      "å®ĺ": 946,
      "ç§»": 947,
      "ç²ĺ": 948,
      "è¯´æĺİä¹¦": 949,
      "å¥Ĺ": 950,
      ":|": 951,
      "or": 952,
      "Ġå¤": 953,
      "Ġæµ": 954,
      "è¿ľç¦»": 955,
      "è¢": 956,
      "Ġ/": 957,
      "|----------": 958,
      "ĠæĪĲ": 959,
      "he": 960,
      "äºĭ": 961,
      "åħ¶ä»ĸ": 962,
      "TE": 963,
      "ç»Ń": 964,
      "çī¹æĢ§": 965,
      "Ġåį±éĻ©æĢ§": 966,
      "Ġå®": 967,
      "Ġåº": 968,
      "è§Ĥ": 969,
      "ç»ĦæĪĲ": 970,
      "çĪĨçĤ¸": 971,
      "TM": 972,
      "åĪĨåŃĲ": 973,
      "ç»Ļ": 974,
      "»åĬł": 975,
      "Ģĵ": 976,
      "éĩĳ": 977,
      "èĢħ": 978,
      "éķ¿": 979,
      "Ġæº¶": 980,
      "ĠæĪĲåĪĨ": 981,
      "¨èį": 982,
      "ç¤": 983,
      "ç»ı": 984,
      "åĩĨ": 985,
      "¨èįĲ": 986,
      "³å®ļ": 987,
      "çĥŁ": 988,
      "æ°´åĨ²æ´Ĺ": 989,
      "æ¬": 990,
      "ĠæĬ": 991,
      "Ġæķ": 992,
      "è¾ĵ": 993,
      "è·¯": 994,
      "åı£": 995,
      "æľĢ": 996,
      "å±Ĥ": 997,
      "Ġp": 998,
      "ä¸Ļ": 999,
      "ä¿ĿæĬ¤": 1000,
      "éķľ": 1001,
      "çİ¯æ°§éħļéĨĽä½ĵç³»æł·æľ¬R": 1002,
      "st": 1003,
      "åĻ¨å®ĺ": 1004,
      "é²": 1005,
      "Ġåľ": 1006,
      "æĢ§èĥ½": 1007,
      "æīĢæľī": 1008,
      "YK": 1009,
      "et": 1010,
      "çĥ§": 1011,
      "çīĪ": 1012,
      "æ¶Īéĺ²": 1013,
      "ĠĠĠĠĠĠĠĠ": 1014,
      "æīĭå¥Ĺ": 1015,
      "ç®": 1016,
      "ĸè§Ĥ": 1017,
      "æµĨ": 1018,
      "æĬĢæľ¯è¯´æĺİä¹¦": 1019,
      "éľĢ": 1020,
      "çĹĩ": 1021,
      "it": 1022,
      "æĭ": 1023,
      "ç¾": 1024,
      "ĠåĽ": 1025,
      "æł¼": 1026,
      "æłĩè¯Ĩ": 1027,
      "åºķ": 1028,
      "æĮĩ": 1029,
      "co": 1030,
      "éĻĦ": 1031,
      "å¯¼": 1032,
      "éĽ¾": 1033,
      "èħ": 1034,
      "Ġåħ": 1035,
      "åĳ³": 1036,
      "æ¸ħæ´Ĺ": 1037,
      "èĬ±": 1038,
      "§åĪ¶": 1039,
      "ĠK": 1040,
      "ĠL": 1041,
      "éĺ²æŃ¢": 1042,
      "ä»»": 1043,
      "åĮ»çĶŁ": 1044,
      "IN": 1045,
      "äº§çĶŁ": 1046,
      "å°ģ": 1047,
      "å°ı": 1048,
      "åŁŁ": 1049,
      "Ġçī©": 1050,
      "ä»½": 1051,
      "åĳ¼åĲ¸éģĵ": 1052,
      "éĹ´": 1053,
      "ç¤º": 1054,
      "Ġæķ°": 1055,
      "ĵåº¦": 1056,
      "é¢Ħ": 1057,
      "¥åº": 1058,
      "éĢı": 1059,
      "åİŁ": 1060,
      "ĠæĢ¥æķĳæİªæĸ½": 1061,
      "çİ°": 1062,
      "Ġæĺĵçĩĥæ¶²ä½ĵ": 1063,
      "ä¸¥éĩį": 1064,
      "åıĹ": 1065,
      "Ġçī¹": 1066,
      "è½¬": 1067,
      "Ġæķ°åĢ¼": 1068,
      "¥åº·": 1069,
      "ic": 1070,
      "å»ºè®®": 1071,
      "å°ĳ": 1072,
      "åĨħ": 1073,
      "ro": 1074,
      "é²ľ": 1075,
      "%ï¼ī": 1076,
      "åĲĲ": 1077,
      "Ġæ³": 1078,
      "Ġæł": 1079,
      "æİ§åĪ¶": 1080,
      "çģ«èĬ±": 1081,
      "ä¸ŃåĽ½": 1082,
      "TZ": 1083,
      "æĸ°é²ľ": 1084,
      "çİ¯æ°§éħļéĨĽä½ĵç³»æł·æľ¬D": 1085,
      "éľ²": 1086,
      "è¯·": 1087,
      "å±ŀ": 1088,
      "Ġâī¤": 1089,
      "æľº": 1090,
      "åºĶçĶ¨": 1091,
      "åĨµ": 1092,
      "çļ®èĤ¤åĪºæ¿Ģ": 1093,
      "å¸Ĥ": 1094,
      "æ¡£": 1095,
      "è¯ķ": 1096,
      "çĩ¥": 1097,
      "çŁ¥": 1098,
      "é»Ħ": 1099,
      "ĠåºĶ": 1100,
      "ĠæĬĢæľ¯": 1101,
      "GHS": 1102,
      "ç¦ģ": 1103,
      "çģ«æºĲ": 1104,
      "ç§į": 1105,
      "¡æ²": 1106,
      "ç²īå°ĺ": 1107,
      "IA": 1108,
      "ħ§": 1109,
      "ä¸ī": 1110,
      "å¸¸": 1111,
      "åľ°åĿĢ": 1112,
      "Ġç²": 1113,
      "éĻ¤": 1114,
      "ä¼ĺ": 1115,
      "çĶ²èĭ¯": 1116,
      "æĸĩæ¡£": 1117,
      "çĻ½": 1118,
      "åĪĨåŃĲéĩı": 1119,
      "¡æ²«": 1120,
      "el": 1121,
      "éĩĬ": 1122,
      "ä¼ł": 1123,
      "çĶŁäº§": 1124,
      "Ġæİ¥": 1125,
      "TF": 1126,
      "åĲŀ": 1127,
      "å¹²çĩ¥": 1128,
      "çĹĩçĬ¶": 1129,
      "ĠçĶ¨": 1130,
      "æĢģ": 1131,
      "èĤ¥": 1132,
      "åħ·æľī": 1133,
      "ç»ĦæĪĲä¿¡æģ¯": 1134,
      "ļ´": 1135,
      "åĿĩ": 1136,
      "éĢĶå¾Ħ": 1137,
      "æĥħ": 1138,
      "Ġæİ¥è§¦": 1139,
      "ç½©": 1140,
      "ç¨ĭ": 1141,
      "æįŁä¼¤": 1142,
      "åĽ´": 1143,
      "åĤ¬": 1144,
      "è¿Ĳè¾ĵ": 1145,
      "kg": 1146,
      "Ġç»": 1147,
      "çļĤ": 1148,
      "åĬ¨": 1149,
      "å¯Ĩåº¦": 1150,
      "§æĢ¥": 1151,
      "èĨ": 1152,
      "æ³¡æ²«": 1153,
      "æ·»åĬł": 1154,
      "éĢĤçĶ¨": 1155,
      "èĭı": 1156,
      "ç¡ħ": 1157,
      "èĤ¥çļĤ": 1158,
      "åıĤ": 1159,
      "æ°°": 1160,
      "åĲĪçī©": 1161,
      "æĪĲåĪĨ": 1162,
      "äºĮæ°§åĮĸç¢³": 1163,
      "Ġ>": 1164,
      "Ń¦": 1165,
      "å¤į": 1166,
      "æķĪ": 1167,
      "å¼Ģ": 1168,
      "ç¨³å®ļ": 1169,
      "æĽ": 1170,
      "åĮĸå·¥": 1171,
      "ļ´éľ²": 1172,
      "èĨľ": 1173,
      "è¶": 1174,
      "èŃ¦": 1175,
      "æĺı": 1176,
      "æ³¡": 1177,
      "æĮģç»Ń": 1178,
      "çº§": 1179,
      "åĽºåĮĸ": 1180,
      "RY": 1181,
      "Ġåı¯": 1182,
      "æķ£": 1183,
      "æ°Ķåĳ³": 1184,
      "çľ¼éķľ": 1185,
      "æ³¨æĦı": 1186,
      "æĥħåĨµ": 1187,
      "»åºķ": 1188,
      "éĶ": 1189,
      "ä½į": 1190,
      "ä¿®": 1191,
      "ç©¿": 1192,
      "å¿ħ": 1193,
      "ç¡®": 1194,
      "éĢļé£İèī¯å¥½": 1195,
      "æĻ": 1196,
      "å½»åºķ": 1197,
      "è¡¨éĿ¢": 1198,
      "é£Łåħ¥": 1199,
      "åĸ·": 1200,
      "ĠåĲ¸åħ¥": 1201,
      "Ġå¦Ĥ": 1202,
      "çĶ²éĨĽ": 1203,
      "åģ¥åº·": 1204,
      "ä½ķ": 1205,
      "Ġç«ĭåį³": 1206,
      "ä»£": 1207,
      "éħ¸éħ¯": 1208,
      "æ¶Ĥå±Ĥ": 1209,
      "ä»»ä½ķ": 1210,
      "Ġä¸Ģ": 1211,
      "Ġçľ": 1212,
      "è¿Ľè¡Į": 1213,
      "EN": 1214,
      "Ġåı¯èĥ½": 1215,
      "å½¢æĪĲ": 1216,
      "çłģ": 1217,
      "è¢«": 1218,
      "å£": 1219,
      "å¼º": 1220,
      "çģŃçģ«åīĤ": 1221,
      "æ¸©åº¦": 1222,
      "TER": 1223,
      "Ġçľ¼": 1224,
      "AC": 1225,
      "ï¼īï¼Į": 1226,
      "åįĹ": 1227,
      "éĨļ": 1228,
      "å¾Ĺ": 1229,
      "å®īåħ¨æĬĢæľ¯è¯´æĺİä¹¦": 1230,
      "åıĳçĶŁ": 1231,
      "è§Ħæł¼": 1232,
      "è¿Ľåħ¥": 1233,
      "å¯¼èĩ´": 1234,
      "éĤ": 1235,
      "åĪĩ": 1236,
      "æľĪ": 1237,
      "çļĦè¡£": 1238,
      "åİ»": 1239,
      "çľ¼çĿĽæİ¥è§¦": 1240,
      "Ġg": 1241,
      "Ġæ¯": 1242,
      "æ°´çĶŁ": 1243,
      "èĩ³å°ĳ": 1244,
      "Ġå¤ĸè§Ĥ": 1245,
      "ĠF": 1246,
      "åīį": 1247,
      "çľŁ": 1248,
      "åºĶæĢ¥å¤ĦçĲĨ": 1249,
      "å¤´": 1250,
      "ä½ĵéĺ²æĬ¤": 1251,
      "åĴĮèĴ¸æ°Ķ": 1252,
      "éĿĻ": 1253,
      "çĩĥçĥ§": 1254,
      "åĪ¶éĢł": 1255,
      "èģļéħ¯": 1256,
      "é¢ľ": 1257,
      "ä¼ģä¸ļæłĩè¯Ĩ": 1258,
      "æ®Ĭ": 1259,
      "éķ¿æľŁ": 1260,
      "çīĪæľ¬": 1261,
      "ĠÂ": 1262,
      "Ĺı": 1263,
      "åĩī": 1264,
      "è¦ģæ±Ĥ": 1265,
      "è¿ĩæķı": 1266,
      "ĠNo": 1267,
      "ä¸ªäºº": 1268,
      "GB": 1269,
      "çķ": 1270,
      "èĪ": 1271,
      "ä½©": 1272,
      "Ġå·": 1273,
      "ä¸Ńå¿ĥ": 1274,
      "æĺİçģ«": 1275,
      "åıĬä¼ģä¸ļæłĩè¯Ĩ": 1276,
      "å¯ĨéĹŃ": 1277,
      "ç¦ģæŃ¢": 1278,
      "èº": 1279,
      "åĪĹ": 1280,
      "ç²Ĵ": 1281,
      "åİĭ": 1282,
      "¬¦": 1283,
      "çĥĥ": 1284,
      "åĬ©": 1285,
      "äº§åĵģåĲįç§°": 1286,
      "æĸĩä»¶": 1287,
      "ä¹Ļçĥ¯": 1288,
      "åĮħè£ħ": 1289,
      "éĩĳå±ŀ": 1290,
      "ç¾Ł": 1291,
      "éĢıæĺİ": 1292,
      "éĩĩ": 1293,
      "åĳ¼åĲ¸åĻ¨": 1294,
      "å¹²ç²ī": 1295,
      "éĿĻçĶµ": 1296,
      "èļ": 1297,
      "ĠéĹ": 1298,
      "æµĭ": 1299,
      "ing": 1300,
      "çĻĮ": 1301,
      "|---------|": 1302,
      "é¡»": 1303,
      "èº«": 1304,
      "çħ§": 1305,
      "åĴ½": 1306,
      "è®¢": 1307,
      "éĿŀ": 1308,
      "å¢¨": 1309,
      "èĩ´çĻĮ": 1310,
      "çĥŃæºĲ": 1311,
      "Ġæ¶Īéĺ²": 1312,
      "Ġå¯¹": 1313,
      "æ»": 1314,
      "åħ³": 1315,
      "ä¸įéĢĤ": 1316,
      "ä¼łçľŁ": 1317,
      "èļĢ": 1318,
      "å¡": 1319,
      "Ġçº": 1320,
      "çĥ·": 1321,
      "å¹´": 1322,
      "ĠPR": 1323,
      "com": 1324,
      ":----": 1325,
      "FL": 1326,
      "çĦ": 1327,
      "ĠåĤ": 1328,
      "è¯¥": 1329,
      "æľīæľº": 1330,
      "ä¹ĭ": 1331,
      "âĤĤ": 1332,
      "Ġåį±éĻ©æĢ§æ¦Ĥè¿°": 1333,
      "âĢĶ": 1334,
      "éĺ´": 1335,
      "è¯į": 1336,
      "èĭ¥": 1337,
      "æ¡Ī": 1338,
      "æıĲä¾Ľ": 1339,
      "ä¿®è®¢": 1340,
      "æĤ": 1341,
      "åįķ": 1342,
      "åĳĬ": 1343,
      "çī¹æ®Ĭ": 1344,
      "éĺ´åĩī": 1345,
      "yl": 1346,
      "é¡¹": 1347,
      "ï¼īãĢĤ": 1348,
      "éħ®": 1349,
      "çĶ¨å¤§éĩı": 1350,
      "è¯ģ": 1351,
      "Ġéģ": 1352,
      "æłĩåĩĨ": 1353,
      "ĠæĢ¥æĢ§": 1354,
      "èħĲ": 1355,
      "åĲŀåĴ½": 1356,
      "CO": 1357,
      "PR": 1358,
      "ªçĤ¹": 1359,
      "âĢĵ": 1360,
      "Ġ[": 1361,
      "Ġc": 1362,
      "æ°¯": 1363,
      "å¤ļ": 1364,
      "çľģ": 1365,
      "æĿ¥": 1366,
      "æĹ¶éĹ´": 1367,
      "Ġâī¥": 1368,
      "ac": 1369,
      "um": 1370,
      "çĶ±": 1371,
      "åĲ¸çĥŁ": 1372,
      "éħįæ¯Ķ": 1373,
      "éħļéĨĽæłĳèĦĤ": 1374,
      "ent": 1375,
      ":--------": 1376,
      "Ġçļ®èĤ¤": 1377,
      "Ġå°": 1378,
      "å¤ĸ": 1379,
      "æĸ¹æ¡Ī": 1380,
      "æ³ķè§Ħ": 1381,
      "¬¦åĲĪ": 1382,
      "é¥": 1383,
      "Ġæ°´": 1384,
      "Ġçİ": 1385,
      "æĢ§åĴĮ": 1386,
      "æİ¨èįĲ": 1387,
      "äº§çī©": 1388,
      "Ġé¢": 1389,
      "åĲĪéĢĤ": 1390,
      "çľ¼æįŁä¼¤": 1391,
      "ä¸İåĤ¨åŃĺ": 1392,
      "çİ¯æ°§éħįæ¯Ķ": 1393,
      "äºĭé¡¹": 1394,
      "éĻĦçĿĢ": 1395,
      "é¢Ħéĺ²": 1396,
      "ĠåĤ¨åŃĺ": 1397,
      "æĸ¹æ¡Īä½ĵç³»æł·æľ¬": 1398,
      "çİ¯æ°§éħįæ¯Ķæĸ¹æ¡Īä½ĵç³»æł·æľ¬": 1399,
      "il": 1400,
      "ĠV": 1401,
      "Ġä½¿çĶ¨": 1402,
      "åı«": 1403,
      "æľ«": 1404,
      "ĠæĮ": 1405,
      "ĠçĽ": 1406,
      "åĪĨè§£": 1407,
      "åľº": 1408,
      "çľ¼åĪºæ¿Ģ": 1409,
      "æĪ´éĺ²æĬ¤": 1410,
      "èĮĥåĽ´": 1411,
      "Ġå®īåħ¨": 1412,
      "ç®¡": 1413,
      "æĻķ": 1414,
      "èħĲèļĢ": 1415,
      "åıĮ": 1416,
      "çĶ¨æ°´": 1417,
      "ç»ĵ": 1418,
      "å·ŀ": 1419,
      "åĳ¼åı«": 1420,
      "èĬ³": 1421,
      "ĠGB": 1422,
      "çĸĹ": 1423,
      "hem": 1424,
      "Ġçľ¼çĿĽ": 1425,
      "Ġéģ¿åħį": 1426,
      "Ĩåº¦": 1427,
      "éĺ²èĮĥ": 1428,
      "å¾®": 1429,
      "ä¾Ŀ": 1430,
      "å¦Ĥæŀľ": 1431,
      "ç¼ĸåı·": 1432,
      "é¢ľæĸĻ": 1433,
      "MSDS": 1434,
      "ĠæŃ": 1435,
      "æĢ§è´¨": 1436,
      "è§ī": 1437,
      "å°Ĩ": 1438,
      "åĽ°": 1439,
      "å¯Ĩå°ģ": 1440,
      "ed": 1441,
      "ur": 1442,
      "æļ´éľ²": 1443,
      "éŁ": 1444,
      "ä¸ľ": 1445,
      "åºŁ": 1446,
      "çģ¾": 1447,
      "æµĵåº¦": 1448,
      "éħ¸åĢ¼": 1449,
      "å¹³": 1450,
      "é£Łåĵģ": 1451,
      "æ²¹å¢¨": 1452,
      "éļ¾": 1453,
      "Ġåľ¨": 1454,
      "éĤ®": 1455,
      "ion": 1456,
      "æŁ": 1457,
      "ç©ºæ°Ķæĸ°é²ľ": 1458,
      "Ġæº¶åīĤ": 1459,
      "AN": 1460,
      "¶åĻ¨å®ĺ": 1461,
      "¹æį®": 1462,
      "èĥº": 1463,
      "æº¶æ¶²": 1464,
      "æ¸ħæ°´": 1465,
      "ĠåĽº": 1466,
      "æ³¨æĦıäºĭé¡¹": 1467,
      "ç©ºæ°Ķæĸ°é²ľå¤Ħ": 1468,
      "Tg": 1469,
      "VC": 1470,
      "pm": 1471,
      "æ¹": 1472,
      "é¼": 1473,
      "ĊĊ": 1474,
      "ç½Ĳ": 1475,
      "æĶ¹": 1476,
      "éĢĤçĶ¨äºİ": 1477,
      "è½»": 1478,
      "ä¿ĿæĮģå®¹åĻ¨": 1479,
      "æ¬¡": 1480,
      "æĽ´": 1481,
      "ä¸ªäººéĺ²æĬ¤": 1482,
      "ĠéĹªçĤ¹": 1483,
      "id": 1484,
      "éĢŁ": 1485,
      "åĽºä½ĵ": 1486,
      "æĦŁ": 1487,
      "éĽĨ": 1488,
      "ĠåĮĸåŃ¦åĵģåıĬä¼ģä¸ļæłĩè¯Ĩ": 1489,
      "Ġç²ĺ": 1490,
      "åĤ¬åĲĲ": 1491,
      "åĮĸå·¥æľīéĻĲåħ¬åı¸": 1492,
      "åĪ¶éĢłåķĨ": 1493,
      "å¡ĳ": 1494,
      "SO": 1495,
      "åĭ": 1496,
      "éª": 1497,
      "Łèĭı": 1498,
      "å±±": 1499,
      "çŃ¾": 1500,
      "å¤Ħç½®ä¸İåĤ¨åŃĺ": 1501,
      "ç¬¬": 1502,
      "æİĴ": 1503,
      "éĿ¶åĻ¨å®ĺ": 1504,
      "å·¥ä½ľ": 1505,
      "çĶ²åŁº": 1506,
      "ĠBYK": 1507,
      "éĻĦçĿĢåĬĽ": 1508,
      "åĽ°éļ¾": 1509,
      "ĠåĬ": 1510,
      "åĳ¼åĲ¸åĽ°éļ¾": 1511,
      "æ°§åĮĸåīĤ": 1512,
      "æĮĩæłĩ": 1513,
      "ä¾Ŀæį®": 1514,
      "ĠU": 1515,
      "å®¤": 1516,
      "ï¼Ī%ï¼ī": 1517,
      "æ°´éģĵ": 1518,
      "çľ©": 1519,
      "è®¤": 1520,
      "åĮºåŁŁ": 1521,
      "ç´§æĢ¥": 1522,
      "ĠåºĶçĶ¨": 1523,
      "ä½©æĪ´": 1524,
      "Ġæ¶Īéĺ²æİªæĸ½": 1525,
      "åĲĪéĢĤçļĦ": 1526,
      "åĭ¿": 1527,
      "éªĮ": 1528,
      "BYK": 1529,
      "YD": 1530,
      "¡èĥ¶": 1531,
      "©¡èĥ¶": 1532,
      "Ġ~": 1533,
      "Ġä¹Ļ": 1534,
      "ĢéĩĬ": 1535,
      "åĪĨæķ£": 1536,
      "å·²": 1537,
      "Ġä¸ī": 1538,
      "ç»ĦåĪĨ": 1539,
      "çĽ¸å®¹": 1540,
      "èģĶç³»": 1541,
      "Ġæİ¥è§¦éĢĶå¾Ħ": 1542,
      "is": 1543,
      "½ľ": 1544,
      "Ġå¼": 1545,
      "Ġæĵįä½ľ": 1546,
      "æĢ§éĿ¶åĻ¨å®ĺ": 1547,
      "æĪ·": 1548,
      "å¼ĥ": 1549,
      "ĠâĹı": 1550,
      "ç§ĳ": 1551,
      "éĢĤå½ĵ": 1552,
      "å¸¦": 1553,
      "åľ°æĸ¹": 1554,
      "Ġåį±å®³": 1555,
      "åĽºåĲ«": 1556,
      "ä¸Ĭæµ·": 1557,
      "å¼ĤæĢ§éĿ¶åĻ¨å®ĺ": 1558,
      "æ±¡æŁĵçļĦè¡£": 1559,
      "èĪ¬": 1560,
      "ä¿®è®¢æĹ¥æľŁ": 1561,
      "ow": 1562,
      "æĲ": 1563,
      "ĊĠ": 1564,
      "ĠSDS": 1565,
      "ĠéĢłæĪĲ": 1566,
      "ĠåĲ«éĩı": 1567,
      "æ¶Ī": 1568,
      "åı¯èĥ½ä¼ļ": 1569,
      "æ±½": 1570,
      "Ġå¯Ĩåº¦": 1571,
      "ĠCASåı·": 1572,
      "æĤ£": 1573,
      "ĠW": 1574,
      "Ġs": 1575,
      "ĦåĪĨ": 1576,
      "åıĺ": 1577,
      "Ġå¹": 1578,
      "å°Ħ": 1579,
      "è´®": 1580,
      "çĿ¡": 1581,
      "åı¯èĥ½å¼ķèµ·": 1582,
      "Ġäº§åĵģåĲįç§°": 1583,
      "ç´ł": 1584,
      "æµģåĬ¨": 1585,
      "è½¬ç§»": 1586,
      "åĬ©åīĤ": 1587,
      "æĤ£èĢħ": 1588,
      "MI": 1589,
      "Pa": 1590,
      "ĠÂ°": 1591,
      "äºĶ": 1592,
      "ä»ĭ": 1593,
      "éĨĭ": 1594,
      "çģ«çģ¾": 1595,
      "æĮī": 1596,
      "ĠCo": 1597,
      "Ġæİ¨èįĲ": 1598,
      "Ġçī©è´¨": 1599,
      "ç¨³å®ļæĢ§": 1600,
      "é¢Ħéĺ²æİªæĸ½": 1601,
      ".,": 1602,
      "ES": 1603,
      "PVC": 1604,
      "ec": 1605,
      "¸åŀĭ": 1606,
      "æŁĵ": 1607,
      "æ°¨": 1608,
      "æĺĵçĩĥæ¶²ä½ĵ": 1609,
      "Ġé£": 1610,
      "çĶŁçī©": 1611,
      "éĺ²æĬ¤æľį": 1612,
      "åŃĺæĶ¾": 1613,
      "ĠĠĠĠĠĠĠĠĠĠĠĠĠĠĠĠ": 1614,
      "ç¾ŁåĢ¼": 1615,
      "ist": 1616,
      "Ġä¸ŃåĽ½": 1617,
      "éĺ²çĪĨ": 1618,
      "æķ´": 1619,
      "ĠâĢĵ": 1620,
      "æĢ¥æĢ§": 1621,
      "çİ¯æ°§æłĳèĦĤ": 1622,
      "å¼Ĥæ°°": 1623,
      "ç«ĭåį³å°±åĮ»": 1624,
      "éĵĿ": 1625,
      "Ġåľ°": 1626,
      "ĠÂ±": 1627,
      "CA": 1628,
      "UR": 1629,
      "é¦": 1630,
      "è¯¢": 1631,
      "Ġä¸Ĭ": 1632,
      "åıįå¤į": 1633,
      "Ġæĺ¯": 1634,
      "å¿ħé¡»": 1635,
      "å£°": 1636,
      "é¥®": 1637,
      "Ġçİ¯": 1638,
      "Ġé£Ł": 1639,
      "EC": 1640,
      "çĽ´": 1641,
      "è´£": 1642,
      "æ²»": 1643,
      "çī¹åĪ«": 1644,
      "çŁ³": 1645,
      "Ġæ³Ħæ¼ı": 1646,
      "cm": 1647,
      "£Ģ": 1648,
      "Ġr": 1649,
      "Ġæ²": 1650,
      "å®¶": 1651,
      "ä¿Ŀè¯ģ": 1652,
      "æ²¾": 1653,
      "ä¸ªä½ĵéĺ²æĬ¤": 1654,
      "ĠæŃ£": 1655,
      "ĭè¯ķ": 1656,
      "ä½³": 1657,
      "åĲ¸æĶ¶": 1658,
      "Ġéķ": 1659,
      "ä¿¡": 1660,
      "æŃ¤": 1661,
      "è¾¾": 1662,
      "é»ĳ": 1663,
      "Ġæµĭè¯ķ": 1664,
      "HEN": 1665,
      "¥åıĳ": 1666,
      "Â·": 1667,
      "ç¬¦åĲĪ": 1668,
      "Ġw": 1669,
      "ħè£ħ": 1670,
      "ĨĶ": 1671,
      "Ĳå½¢": 1672,
      "ä¸ĵ": 1673,
      "åħĭ": 1674,
      "Ġæ·": 1675,
      "Ġé«ĺ": 1676,
      "esin": 1677,
      "éļĲå½¢": 1678,
      "ĠäºĮçĶ²èĭ¯": 1679,
      "Ġç²ĺåº¦": 1680,
      "éļĲå½¢çľ¼éķľ": 1681,
      "¨è¯¢": 1682,
      "æħ": 1683,
      "çĶ¨éĩı": 1684,
      "æĬĹ": 1685,
      "åİĤ": 1686,
      "ĠåĮħè£ħ": 1687,
      "æ¡¶": 1688,
      "ıåı£": 1689,
      "çĥ¯éħ¸": 1690,
      "|----------|": 1691,
      "éĺ²èĮĥè¯´æĺİ": 1692,
      "Ġä¸Ĭæµ·": 1693,
      "çļĦåľ°æĸ¹": 1694,
      "æİī": 1695,
      "åľŁ": 1696,
      "éĻĲåĢ¼": 1697,
      "ä½ľä¸º": 1698,
      "èģļåĲĪçī©": 1699,
      "æŀģ": 1700,
      "çĹĽ": 1701,
      "ĠDIN": 1702,
      "ĠISO": 1703,
      "èĦ±åİ»": 1704,
      "è¿ľç¦»çĥŃæºĲ": 1705,
      "Ġæº¶è§£": 1706,
      "ä»£çłģ": 1707,
      "éŁ§": 1708,
      "å¼Ĥæ°°éħ¸éħ¯": 1709,
      "å£°æĺİ": 1710,
      "æ²¾æŁĵ": 1711,
      "RA": 1712,
      "ut": 1713,
      "ĨåŁŁ": 1714,
      "åį°": 1715,
      "åĴ¨è¯¢": 1716,
      "æķħ": 1717,
      "ç»Ĩ": 1718,
      "åĤ¨": 1719,
      "å®īåħ¨æķ°æį®è¡¨": 1720,
      "ä¸ĭæ°´éģĵ": 1721,
      "åıįåºĶæĢ§": 1722,
      "èĩªç»Ļ": 1723,
      "ell": 1724,
      "Ġçº¦": 1725,
      "ä»ĭè´¨": 1726,
      "Ġæ³Ħæ¼ıåºĶæĢ¥å¤ĦçĲĨ": 1727,
      "OD": 1728,
      "æĢ»": 1729,
      "ä»ħ": 1730,
      "å½ķ": 1731,
      "è´¨éĩı": 1732,
      "|------------": 1733,
      "|---|---|---|": 1734,
      "âĦĥï¼ī": 1735,
      "å¼ıåĳ¼åĲ¸åĻ¨": 1736,
      "Ġç»ĦåĪĨ": 1737,
      "è´®åŃĺ": 1738,
      "Ġ%": 1739,
      "åĮĸçī¹æĢ§": 1740,
      "ç²īæľ«": 1741,
      "å®¹åĻ¨ä¸Ń": 1742,
      "éĿ¢åħ·": 1743,
      "æįŁå®³": 1744,
      "Ġæµĵåº¦": 1745,
      "ä¼ĺå¼Ĥ": 1746,
      "èŃ¦ç¤º": 1747,
      "æ°´çĶŁçĶŁçī©": 1748,
      "æ¬¡æİ¥è§¦": 1749,
      "çĿ¡æĪĸ": 1750,
      "Ġåľ°åĿĢ": 1751,
      "IO": 1752,
      "æ©¡èĥ¶": 1753,
      "æĪĳ": 1754,
      "ä¸Ńæĸĩ": 1755,
      "çĤŃ": 1756,
      "æº¶æĢ§": 1757,
      "åĪºæ¿ĢæĢ§": 1758,
      "èĢĮ": 1759,
      "ç¨ĢéĩĬ": 1760,
      "ĠæłĳèĦĤ": 1761,
      "th": 1762,
      "»è¦ģ": 1763,
      "èİ": 1764,
      "äº¤": 1765,
      "ĠåŃ": 1766,
      "åı¯çĩĥ": 1767,
      "å¾·": 1768,
      "èĭ±": 1769,
      "é¢ĨåŁŁ": 1770,
      "olv": 1771,
      "æĶ¶éĽĨ": 1772,
      "äºĭæķħ": 1773,
      "Ġçī¹å¼ĤæĢ§éĿ¶åĻ¨å®ĺ": 1774,
      "é»Ħèī²": 1775,
      "å½»åºķåĨ²æ´Ĺ": 1776,
      "Ġå·¥": 1777,
      "è¯¥äº§åĵģ": 1778,
      "Ġé¢ľ": 1779,
      "åħħ": 1780,
      "éĺ³": 1781,
      "æł¹æį®": 1782,
      "æľīæ¯Ĵ": 1783,
      "çī©çĲĨ": 1784,
      "ç»ıåı£": 1785,
      "ä¸ŃçļĦ": 1786,
      "åĨ·": 1787,
      "çļ®èĤ¤è¿ĩæķı": 1788,
      "æį¢": 1789,
      "éĻĲåĪ¶": 1790,
      "ĠIn": 1791,
      "åį±éĻ©æĢ§ç±»åĪ«": 1792,
      "æµĨæĸĻ": 1793,
      "ĠæĬĢæľ¯æķ°æį®è¡¨": 1794,
      "åıĤæķ°": 1795,
      "ĠåŃĺ": 1796,
      "ç«": 1797,
      "ï½ľ": 1798,
      "Ġèī²": 1799,
      "īĢ": 1800,
      "ãĢĬ": 1801,
      "ãĢĭ": 1802,
      "è¯Ĭ": 1803,
      "æĺĵçĩĥ": 1804,
      "æ³½": 1805,
      "æ°Ķä½ĵ": 1806,
      "åı·è¯į": 1807,
      "åį±éĻ©æĢ§è¯´æĺİ": 1808,
      "æ±ĤåĮ»": 1809,
      "ç²ĺåº¦": 1810,
      "ä¿¡åı·è¯į": 1811,
      "çĤŃé»ĳ": 1812,
      "%)": 1813,
      "EL": 1814,
      "Ġçļ®èĤ¤æİ¥è§¦": 1815,
      "æľºæ": 1816,
      "ï¼īãĢģ": 1817,
      "ĠçĲĨ": 1818,
      "ç§¯": 1819,
      "æ¸Ĺ": 1820,
      "äºĮéĨĩ": 1821,
      "ä¸Ģéĥ¨åĪĨ": 1822,
      "Ġåįģ": 1823,
      "éĩįéĩı": 1824,
      "è½¦": 1825,
      "çĪĨçĤ¸æĢ§": 1826,
      "åĳ¼åĲ¸éģĵåĪºæ¿Ģ": 1827,
      "çĻ½æµĨ": 1828,
      "è¶³": 1829,
      "Ġçľ¼çĿĽæİ¥è§¦": 1830,
      "é¼ł": 1831,
      "ä¿ĿæĮģå®¹åĻ¨å¯ĨéĹŃ": 1832,
      "éŁ§æĢ§": 1833,
      "ĠçĶµè¯Ŀ": 1834,
      "Ġå»ºè®®": 1835,
      "åºĵ": 1836,
      "èĤ¡": 1837,
      "æĢ¥æķĳæİªæĸ½": 1838,
      "ation": 1839,
      "ĠGHS": 1840,
      "èĦ±æİī": 1841,
      "ĠåĽĽ": 1842,
      "æĸ°é²ľç©ºæ°Ķ": 1843,
      "ç²Ĵå¾Ħ": 1844,
      "éĩĩåıĸ": 1845,
      "ĠæĮĩ": 1846,
      "åıįå¤įæİ¥è§¦": 1847,
      "ww": 1848,
      "Ġä¸İ": 1849,
      "ĠèĴ¸æ°Ķ": 1850,
      "Ġæ±": 1851,
      "å®ĥ": 1852,
      "Ġç´": 1853,
      "åľºæ": 1854,
      "æ°§åŁº": 1855,
      "å·±": 1856,
      "åĳ¼åĲ¸ç³»ç»Ł": 1857,
      "ä¸ģåŁº": 1858,
      "äºĮéĥ¨åĪĨ": 1859,
      "å¢ŀ": 1860,
      "çĤ¹çģ«æºĲ": 1861,
      "èĬĤ": 1862,
      "åĮħæĭ": 1863,
      ":|:--------": 1864,
      "eth": 1865,
      "å°ıæĹ¶": 1866,
      "æĿ¥æºĲ": 1867,
      "ĠçĽ¸": 1868,
      "çľ©æĻķ": 1869,
      "çĤŃé»ĳæµĨæĸĻ": 1870,
      "åĮħæĭ¬": 1871,
      "MA": 1872,
      "WA": 1873,
      "ľħ": 1874,
      "å®ŀ": 1875,
      "Ġâľħ": 1876,
      "æłĩçŃ¾": 1877,
      "è£ħå¤ĩ": 1878,
      "åĩºçİ°": 1879,
      "èī¯å¥½çļĦ": 1880,
      "æĿ¡ä»¶ä¸ĭ": 1881,
      "è¢ĭ": 1882,
      "Ġppm": 1883,
      "ä»½æľīéĻĲåħ¬åı¸": 1884,
      "ä¸¥éĩįçľ¼æįŁä¼¤": 1885,
      "Ġæłĩ": 1886,
      "åĪĩåĭ¿": 1887,
      "æŁĶ": 1888,
      "Łèĭıçľģ": 1889,
      "èĤ¡ä»½æľīéĻĲåħ¬åı¸": 1890,
      "¢°": 1891,
      "ä¸Ķ": 1892,
      "æľ¨": 1893,
      "Ġç¨": 1894,
      "å¤±": 1895,
      "éĻį": 1896,
      "ĠéĿ": 1897,
      "çĽĲ": 1898,
      "ä¸įå¾Ĺ": 1899,
      "çľ¼çĿ": 1900,
      "è®¡": 1901,
      "åı¯èĥ½éĢłæĪĲ": 1902,
      "çĶµåŃĲ": 1903,
      "éģĩ": 1904,
      "ä¸ĢèĪ¬": 1905,
      "Ġç¬¬äºĮéĥ¨åĪĨ": 1906,
      "åŁºäºİ": 1907,
      "éĿ¢ç½©": 1908,
      "åºĶæĢ¥çĶµè¯Ŀ": 1909,
      "éĩĬæĶ¾": 1910,
      "Ġå°Ĩ": 1911,
      "ĠçĲĨåĮĸçī¹æĢ§": 1912,
      "ĠæĮĩæłĩ": 1913,
      "çľ¼çĿĳ": 1914,
      "¸çĤ¹": 1915,
      "İåĽ½": 1916,
      "Ġéĵ": 1917,
      "æĹı": 1918,
      "ä¸įè¦ģ": 1919,
      "Ġç¬¬ä¸Ģéĥ¨åĪĨ": 1920,
      "Ġåįķ": 1921,
      "Ġåħ¸åŀĭ": 1922,
      "Ġçī©çĲĨ": 1923,
      "å½¢æĪĲçĪĨçĤ¸æĢ§": 1924,
      "çķħ": 1925,
      "Ġæĵįä½ľå¤Ħç½®ä¸İåĤ¨åŃĺ": 1926,
      "èĩªç»Ļå¼ıåĳ¼åĲ¸åĻ¨": 1927,
      "èİ·": 1928,
      "¬åº¦": 1929,
      "»æĢ§": 1930,
      "Ġt": 1931,
      "Įä¸ļ": 1932,
      "ĠæĿ": 1933,
      "ä»İ": 1934,
      "çĽĸ": 1935,
      "æİ¥è§¦éĻĲåĢ¼": 1936,
      "èģĮä¸ļ": 1937,
      "æĹ¥æľ¬": 1938,
      "ĠETER": 1939,
      "|----------|------|": 1940,
      "é¦Ļ": 1941,
      "åľºæīĢ": 1942,
      "OH": 1943,
      "¡æľī": 1944,
      "Ġè¿Ĳè¾ĵ": 1945,
      "ķåĲĲ": 1946,
      "Ġçģ": 1947,
      "å¤©": 1948,
      "æ°´æĪĸ": 1949,
      "æº¢": 1950,
      "æĮ¥åıĳ": 1951,
      "ä¸İç©ºæ°Ķ": 1952,
      "ä¸Ģç§į": 1953,
      "æ¸ħæ°´åĨ²æ´Ĺ": 1954,
      "å¤§é¼ł": 1955,
      "çģŃçģ«ä»ĭè´¨": 1956,
      "æĬĢæľ¯æķ°æį®è¡¨": 1957,
      "çĬ¶æĢģ": 1958,
      "ĠæĪ´": 1959,
      "ard": 1960,
      "åıĸåĩº": 1961,
      "åħīæ³½": 1962,
      "æ¶Īéĺ²äººåĳĺ": 1963,
      "åİŁæĸĩ": 1964,
      "Ġæĺĵçĩĥæ¶²ä½ĵåĴĮèĴ¸æ°Ķ": 1965,
      "åºŁå¼ĥ": 1966,
      "æ²»çĸĹ": 1967,
      "¢æĢ§": 1968,
      "ĠäºĶ": 1969,
      "çĶ¨èĤ¥çļĤ": 1970,
      "ä»¬": 1971,
      "åĳķåĲĲ": 1972,
      "åŁºæ": 1973,
      "èĴ¸æ±½": 1974,
      "ç¼©": 1975,
      "ĠæĹłèī²": 1976,
      "ä¸Ļçĥ¯éħ¸": 1977,
      "è½¬æį¢": 1978,
      "è¶ħ": 1979,
      "æ³¡åīĤ": 1980,
      "ĠæĢ¥æĢ§æ¯ĴæĢ§": 1981,
      "åıĮéħļ": 1982,
      "éĨĭéħ¸": 1983,
      "æķ´çĲĨ": 1984,
      "CS": 1985,
      "ad": 1986,
      "ex": 1987,
      "æģ": 1988,
      "æĳ": 1989,
      "æģ¯": 1990,
      "Ġd": 1991,
      "Ġæľª": 1992,
      "Ġæ°Ķåĳ³": 1993,
      "ıè¿°": 1994,
      "æ°¢": 1995,
      "Ġæī": 1996,
      "ï¼īï¼Ľ": 1997,
      "ĠçĻ": 1998,
      "æĺĵ": 1999,
      "æ°´åĴĮ": 2000,
      "å¹¿": 2001,
      "å·¥åĳ¼åĲ¸": 2002,
      "å·¥åħ·": 2003,
      "åĳ¼åĲ¸éĺ²æĬ¤": 2004,
      "ä¸Ģæ¬¡æİ¥è§¦": 2005,
      "äººå·¥åĳ¼åĲ¸": 2006,
      "ate": 2007,
      "çĩĥçĥ§äº§çī©": 2008,
      "ODUR": 2009,
      "çĿ¡æĪĸçľ©æĻķ": 2010,
      "Ġç´§æĢ¥": 2011,
      "OL": 2012,
      "SH": 2013,
      "as": 2014,
      "±åı£": 2015,
      "¾åĪĨ": 2016,
      "Ġèģļ": 2017,
      "ķåħĭ": 2018,
      "åĪĻ": 2019,
      "å®Į": 2020,
      "æĬ¥": 2021,
      "è¦ģç´ł": 2022,
      "çº¢": 2023,
      "èĩ´æķı": 2024,
      "çĹħ": 2025,
      "éĴĽ": 2026,
      "åĪ°ç©ºæ°Ķæĸ°é²ľå¤Ħ": 2027,
      "è¡£çī©": 2028,
      "ç¼ĸåĪ¶": 2029,
      "éĵģ": 2030,
      "çĽ¸åħ³": 2031,
      "æĭħ": 2032,
      "ç¦ģæŃ¢åĲ¸çĥŁ": 2033,
      "éĩĩçĶ¨": 2034,
      "æ¹¿": 2035,
      "æ°¨éħ¯": 2036,
      "ĠåŃĺæĶ¾": 2037,
      "æľºæ¢°": 2038,
      "ĠéĿŀ": 2039,
      "AL": 2040,
      "am": 2041,
      "ax": 2042,
      "du": 2043,
      "æ£Ģ": 2044,
      "ĠåĪĨç±»": 2045,
      "Ġä¾ĽåºĶåķĨ": 2046,
      "**ï¼Į": 2047,
      "**ãĢĤ": 2048,
      "åĪ©": 2049,
      "åĲĮ": 2050,
      "Ġç¦ģ": 2051,
      "å¤ĸè§Ĥ": 2052,
      "åĮĸåīĤ": 2053,
      "åĬ¿": 2054,
      "æľ¬äº§åĵģ": 2055,
      "est": 2056,
      "å½¢å¼ı": 2057,
      "åĸĦ": 2058,
      "ĠEN": 2059,
      "Ġæİ¥è§¦æİ§åĪ¶": 2060,
      "æĥħåĨµæ¦Ĥè¿°": 2061,
      "åģ¥åº·åį±å®³": 2062,
      "è§īä¸įéĢĤ": 2063,
      "åıĮéħļA": 2064,
      "KYD": 2065,
      "RX": 2066,
      "os": 2067,
      "±³": 2068,
      "ç¥": 2069,
      "è±": 2070,
      "ĠåĪ¶éĢłåķĨ": 2071,
      "äºĨ": 2072,
      "Ġæ¸": 2073,
      "Ġç½": 2074,
      "Ġçĥ": 2075,
      "äº§åĵģç±»åŀĭ": 2076,
      "åĨį": 2077,
      "æ·ĭ": 2078,
      "æº¶äºİ": 2079,
      "ĠCO": 2080,
      "å°±è¯Ĭ": 2081,
      "ç£¨": 2082,
      "and": 2083,
      "ä»¥åıĬ": 2084,
      "ä»¥ä¸ĭ": 2085,
      "æııè¿°": 2086,
      "éľĢè¦ģ": 2087,
      "ĠåºĶæĢ¥": 2088,
      "æĦŁè§īä¸įéĢĤ": 2089,
      "Ġé¢ľèī²": 2090,
      "èģĮä¸ļæİ¥è§¦éĻĲåĢ¼": 2091,
      "LI": 2092,
      "PHEN": 2093,
      "åĶ": 2094,
      "æĴ": 2095,
      "Ġ=": 2096,
      "ĠX": 2097,
      "è§ģ": 2098,
      "æĺ¾": 2099,
      "äºİéĺ´åĩī": 2100,
      "åĩĢ": 2101,
      "åı¯èĥ½å¯¼èĩ´": 2102,
      "å¦Ĥæľī": 2103,
      "å¸ĥ": 2104,
      "ç¢±": 2105,
      "|---------|------|": 2106,
      "èŃ¦åĳĬ": 2107,
      "åĽºåĮĸåīĤ": 2108,
      "åĸ·éĽ¾": 2109,
      "çĦ°": 2110,
      "èĬ³é¦Ļ": 2111,
      "ĠåĬł": 2112,
      "æµģåĬ¨æ¸ħæ°´": 2113,
      "ĠæŃ£ä¸ģéĨĩ": 2114,
      "å½¢æĪĲçĪĨçĤ¸æĢ§æ··åĲĪçī©": 2115,
      "ç¥ŀ": 2116,
      "le": 2117,
      "ĠO": 2118,
      "Ġmin": 2119,
      "ĠAS": 2120,
      "ĠèĢĲ": 2121,
      "åıª": 2122,
      "åħĪ": 2123,
      "åį´": 2124,
      "çī©åĵģ": 2125,
      "çī©æĸĻ": 2126,
      "åĬ¡": 2127,
      "åĽŀ": 2128,
      "æĸ¹å¼ı": 2129,
      "æ°Ķç¡ħ": 2130,
      "çĶŁæ®": 2131,
      "Ġæİªæĸ½": 2132,
      "åĵįåºĶ": 2133,
      "ĠåĮĸåŃ¦åĵģåĲįç§°": 2134,
      "çĸĳ": 2135,
      "ĠåħŃ": 2136,
      "çİ°åľº": 2137,
      "æİ¨èįĲçĶ¨éĢĶ": 2138,
      "æĺĵçĩĥæ¶²ä½ĵåĴĮèĴ¸æ°Ķ": 2139,
      "æĪĳä»¬": 2140,
      "åĨ·åį´": 2141,
      "çļ®èĤ¤è¿ĩæķıåıįåºĶ": 2142,
      "çĶŁæ®ĸ": 2143,
      "CN": 2144,
      "mg": 2145,
      "ri": 2146,
      "¢æĪ·": 2147,
      "è°": 2148,
      "èĸ": 2149,
      "Ġh": 2150,
      "Ġin": 2151,
      "Ġç§": 2152,
      "Ġç¾": 2153,
      "æĬĢ": 2154,
      "åı¯çĶ¨": 2155,
      "åĽł": 2156,
      "ä¸įä¼ļ": 2157,
      "æİ¥åľ°": 2158,
      "ä¸Ńæ¯Ĵ": 2159,
      "ä½ľä¸ļ": 2160,
      "ä¾ĭ": 2161,
      "åľ¨éĢļé£İèī¯å¥½": 2162,
      "çĶ²æ°§åŁº": 2163,
      "æº¶åīĤåŀĭ": 2164,
      "ä»¥ä¸Ĭ": 2165,
      "ene": 2166,
      "ity": 2167,
      "æ·»åĬłåīĤ": 2168,
      "ç§ĳæĬĢ": 2169,
      "ä¼ĺå¼ĤçļĦ": 2170,
      "æ¸ĹéĢı": 2171,
      "èĸĦ": 2172,
      "MP": 2173,
      "TIO": 2174,
      "é¡¹çĽ®": 2175,
      "åĲĦ": 2176,
      "åħ±": 2177,
      "ç»Ī": 2178,
      "æĢ¥æķĳ": 2179,
      "ä¹Ł": 2180,
      "ä¿Ŀè´¨": 2181,
      "æº¶è§£": 2182,
      "ä¸ģéħ¯": 2183,
      "èģļçī©": 2184,
      "éķĩ": 2185,
      "Ġä¸¥éĩį": 2186,
      "ang": 2187,
      "ç¡¬åº¦": 2188,
      "çłĤ": 2189,
      "ark": 2190,
      "ç»ŃåĨ²æ´Ĺ": 2191,
      "å¿ħè¦ģ": 2192,
      "æ»ĳ": 2193,
      "âĢĶâĢĶ": 2194,
      "éĤ®ç¼ĸ": 2195,
      "æŁĶéŁ§æĢ§": 2196,
      "Ġåįķä½į": 2197,
      "ä¿Ŀè´¨æľŁ": 2198,
      "LD": 2199,
      "ĠéħļéĨĽæłĳèĦĤ": 2200,
      "Ĺç²Ĵ": 2201,
      "ľæŃ¢": 2202,
      "åĪ·": 2203,
      "ä½Ĩ": 2204,
      "å®ī": 2205,
      "åįİ": 2206,
      "èĤª": 2207,
      "çİĩ": 2208,
      "è®¸": 2209,
      "çļ®èĤ¤åĴĮ": 2210,
      "åĬłåħ¥": 2211,
      "èĦĤèĤª": 2212,
      "æ±Ł": 2213,
      "èģļæ°°": 2214,
      "æ°§åĮĸçī©": 2215,
      "æŀĦ": 2216,
      "åħ·ä½ĵ": 2217,
      "çİ¯æ°§éħļéĨĽä½ĵç³»æł·æľ¬C": 2218,
      "è¿ĩç¨ĭ": 2219,
      "çĥŃè¡¨éĿ¢": 2220,
      "ong": 2221,
      "Ġæ¶Ĥ": 2222,
      "ĠåĮĸåŃ¦åĵģå®īåħ¨æĬĢæľ¯è¯´æĺİä¹¦": 2223,
      "åģľæŃ¢": 2224,
      "ç§»èĩ³": 2225,
      "æ¬²": 2226,
      "èģļéħ¯æłĳèĦĤ": 2227,
      "éĢıæĺİæ¶²ä½ĵ": 2228,
      "çĦ¶": 2229,
      "èĬ³çĥĥ": 2230,
      "Ġæº¶è§£æĢ§": 2231,
      "èĭ±æĸĩ": 2232,
      "éĻįä½İ": 2233,
      "ĠASTM": 2234,
      "TO": 2235,
      "mm": 2236,
      "td": 2237,
      "ç±³": 2238,
      "Ġo": 2239,
      "Ġä¼ģä¸ļ": 2240,
      "Ġä¼łçľŁ": 2241,
      "ĠåĲŀåĴ½": 2242,
      "Ġåĳ": 2243,
      "æ¶¦": 2244,
      "|------|--------": 2245,
      "æ°§çĥ·": 2246,
      "ä¼ĳ": 2247,
      "åºĶéģ¿åħį": 2248,
      "æµİ": 2249,
      "çľ¼ç½©": 2250,
      "çĲĨåŃ¦": 2251,
      "è£ħç½®": 2252,
      "æºĲæĸĩä»¶": 2253,
      "çľ¼çĿĽåĪºæ¿Ģ": 2254,
      "çº¸": 2255,
      "çŃīçº§": 2256,
      "æ³Ħæ¼ıçī©": 2257,
      "æ³Ħæ¼ıåºĶæĢ¥å¤ĦçĲĨ": 2258,
      "çĥŁéĽ¾": 2259,
      "æ¶Īéĺ²æİªæĸ½": 2260,
      "ĠLtd": 2261,
      "äº§çĶŁçģ«èĬ±": 2262,
      "ç¡ħæ°§çĥ·": 2263,
      "éĶĢ": 2264,
      "å½»åºķæ¸ħæ´Ĺ": 2265,
      "éķ¿æľŁæĮģç»Ń": 2266,
      "æ»¤": 2267,
      "ĠåĽºä½ĵ": 2268,
      "éĢĤå½ĵçļĦ": 2269,
      "Ġé£Łåħ¥": 2270,
      "¾åĪĨæ¯Ķ": 2271,
      "DI": 2272,
      "ch": 2273,
      "ner": 2274,
      "¼åĲ¸": 2275,
      "Ġb": 2276,
      "Ġå¸": 2277,
      "Ġç¼": 2278,
      "éĺħ": 2279,
      "æ°´æĢ§": 2280,
      "ä¸įåĲ«": 2281,
      "¿åħ´": 2282,
      "åĽ½å®¶": 2283,
      "è¾ĥ": 2284,
      "ç±»åŀĭåħ¶ä»ĸ": 2285,
      "ĠResin": 2286,
      "èĥ¶ç²ĺ": 2287,
      "ä¸īèģļæ°°": 2288,
      "Ġæ¯Ķ": 2289,
      "åĪĹåħ¥": 2290,
      "æ°¯ä¹Ļçĥ¯": 2291,
      "åĲĪéĢĤçļĦçģŃçģ«åīĤ": 2292,
      "own": 2293,
      "äºĭæķħåĵįåºĶ": 2294,
      "æĸ°é²ľç©ºæ°Ķå¤Ħ": 2295,
      "ç¥ŀç»ı": 2296,
      "Ġåĳ¼åĲ¸": 2297,
      "éķ¿æľŁæĮģç»Ńå½±åĵį": 2298,
      "èĥ¶ç²ĺåīĤ": 2299,
      "if": 2300,
      "ml": 2301,
      "«ĺçĥ": 2302,
      "ĠçļĦ": 2303,
      "Ġéĺ²æĬ¤": 2304,
      "ĠçĶ²éĨĽ": 2305,
      "ħéĢŁ": 2306,
      "**ï¼Ī": 2307,
      "ä¸»è¦ģ": 2308,
      "åĲĳ": 2309,
      "ï¼ī**": 2310,
      "ï¼īï¼ļ": 2311,
      "è¿ħéĢŁ": 2312,
      "ç»§": 2313,
      "äº§åĵģçļĦ": 2314,
      "çĽ®éķľ": 2315,
      "ä½¿çĶ¨åīį": 2316,
      "åĲįå½ķ": 2317,
      "one": 2318,
      "ä¿ĿæĮģåĳ¼åĲ¸éģĵ": 2319,
      "çİ¯å¢ĥåį±å®³": 2320,
      "ç«ĭåį³åĳ¼åı«": 2321,
      "ç»ıçļ®": 2322,
      "rop": 2323,
      "Ġæ³¨": 2324,
      "æĺıæĺı": 2325,
      "æĥħåĨµä¸ĭ": 2326,
      "ç¡®ä¿Ŀ": 2327,
      "Ġåı¯èĥ½éĢłæĪĲ": 2328,
      "Ġæ¯ķåħĭ": 2329,
      "umist": 2330,
      "æĶ¹æĢ§": 2331,
      "å¡ĳæĸĻ": 2332,
      "éĺ³åħī": 2333,
      "æº¢åĩº": 2334,
      "åĶ®": 2335,
      "TION": 2336,
      "Ġç¼ĸ": 2337,
      "æĺıæĺıæ¬²": 2338,
      "CH": 2339,
      "ID": 2340,
      "PA": 2341,
      "hen": 2342,
      "mo": 2343,
      "æļ": 2344,
      "èı": 2345,
      "é«ĺçĥ": 2346,
      "Ġåħ¶ä»ĸ": 2347,
      "ĠçĪ": 2348,
      "ĠçŃ": 2349,
      "ĠçĨĶ": 2350,
      "è¯¯": 2351,
      "æ°´éĽ¾": 2352,
      "åĽĽ": 2353,
      "è´§": 2354,
      "åĨħå®¹": 2355,
      "åĮĸåŃ¦å¹²ç²ī": 2356,
      "éĢļè¿ĩ": 2357,
      "èģļæ°¨éħ¯": 2358,
      "è§Ħå®ļ": 2359,
      "çº¦": 2360,
      "è¾¨": 2361,
      "ä¹Ļéħ¸": 2362,
      "|---|---|---|---|": 2363,
      "ĠMSDS": 2364,
      "Ġæ¶Ī": 2365,
      "ä¸ĻéĨĩ": 2366,
      "éĺ²æŃ¢éĿĻçĶµ": 2367,
      "Ġç²ī": 2368,
      "æĸĩæ¡£æĿ¥æºĲ": 2369,
      "çĶ²éĨĽæłĳèĦĤ": 2370,
      "Ġå·²": 2371,
      "ä¸Ńå¿ĥæĪĸ": 2372,
      "Ġçļ®èĤ¤èħĲèļĢ": 2373,
      "é£Łåĵģæİ¥è§¦": 2374,
      "ç´§æĢ¥æĥħåĨµæ¦Ĥè¿°": 2375,
      "æ±¡æŁĵçļĦè¡£æľį": 2376,
      "èŃ¦ç¤ºè¯į": 2377,
      "åħħåĪĨ": 2378,
      "Ġç¨³å®ļ": 2379,
      "ardner": 2380,
      "ä¼ĳæģ¯": 2381,
      "äº§çĶŁçģ«èĬ±çļĦ": 2382,
      "é«ĺçĥŃ": 2383,
      "EK": 2384,
      "mp": 2385,
      "¦Ĩ": 2386,
      "»¶": 2387,
      "å§": 2388,
      "å»¶": 2389,
      "éŀĭ": 2390,
      "Ġè§Ħæł¼": 2391,
      "åħĥ": 2392,
      "å®¢æĪ·": 2393,
      "Ġç©": 2394,
      "éĢģ": 2395,
      "åĽŃ": 2396,
      "çģ«çĦ°": 2397,
      "æµ®": 2398,
      "æµ´": 2399,
      "åĩł": 2400,
      "é¢Ĺç²Ĵ": 2401,
      "ĠmPa": 2402,
      "âĦ¢": 2403,
      "è§£æ¯Ĵ": 2404,
      "ä¼¤å®³": 2405,
      "Ġæ¶²": 2406,
      "ç³»ç»Łæ¯ĴæĢ§": 2407,
      "ical": 2408,
      "çŁ¥è¯Ĩ": 2409,
      "åĤ¬åĮĸåīĤ": 2410,
      "æķĪåºĶ": 2411,
      ":----:|": 2412,
      "è½¬ç§»åĪ°ç©ºæ°Ķæĸ°é²ľå¤Ħ": 2413,
      "ESIN": 2414,
      "è´£ä»»": 2415,
      "Ġæµĭè¯ķæĸ¹æ³ķ": 2416,
      "æħ¢æĢ§": 2417,
      "åĴ¨è¯¢çĶµè¯Ŀ": 2418,
      "çĶµåŃĲéĤ®": 2419,
      "Ġæīĭ": 2420,
      "åıªèĥ½": 2421,
      "Ġæ¶ĤæĸĻ": 2422,
      "ç¥ŀç»ıç³»ç»Ł": 2423,
      "ç»§ç»ŃåĨ²æ´Ĺ": 2424,
      "CAS": 2425,
      "DA": 2426,
      "ox": 2427,
      "©¬": 2428,
      "æħ§": 2429,
      "Ġè¿ľç¦»": 2430,
      "Ġac": 2431,
      "Ġæļ´éľ²": 2432,
      "çĶ¨æµģåĬ¨æ¸ħæ°´": 2433,
      "éĺ²éĿĻçĶµ": 2434,
      "å°½": 2435,
      "åĽ¾": 2436,
      "çģ«åľº": 2437,
      "åŃĺåľ¨": 2438,
      "åŃĺåĤ¨": 2439,
      "äºĮçĶ²èĭ¯": 2440,
      "æŃ£åİĭ": 2441,
      "Ġä¸Ļ": 2442,
      "æıĲé«ĺ": 2443,
      "å½ĵåľ°": 2444,
      "çļĦè¡£æľį": 2445,
      "æµĭè¯ķ": 2446,
      "èĩ´çĻĮæĢ§": 2447,
      "åĪĨè§£äº§çī©": 2448,
      "ĠåºĶçĶ¨é¢ĨåŁŁ": 2449,
      "æĢ¥æĢ§æ¯ĴæĢ§": 2450,
      "ä¸īèģļæ°°èĥº": 2451,
      "æħ§æĸ°": 2452,
      "Co": 2453,
      "for": 2454,
      "re": 2455,
      "Ġä¸Ń": 2456,
      "Łº": 2457,
      "ä¸¥": 2458,
      "æĸ¯": 2459,
      "Ġåİ": 2460,
      "ĠåŁº": 2461,
      "æĬ¤çĽ®éķľ": 2462,
      "èĥ½åĬĽ": 2463,
      "æľ¬åĵģ": 2464,
      "éĺ²æĬ¤æīĭå¥Ĺ": 2465,
      "åĬłå·¥": 2466,
      "éĥ¨éĺ²æĬ¤": 2467,
      "åĢĻ": 2468,
      "æ²¡æľī": 2469,
      "ä¸Ģæ°§åĮĸç¢³": 2470,
      "åİ¿": 2471,
      "æ¸ħçĲĨ": 2472,
      "çģŃçģ«åĻ¨": 2473,
      "å¹¶åħ·æľī": 2474,
      "åħ¶å®ĥ": 2475,
      "çĻ¾åĪĨæ¯Ķ": 2476,
      "ĠTDS": 2477,
      "Ġåį±éĻ©æĢ§ç±»åĪ«": 2478,
      "è¾ĵæ°§": 2479,
      "æľĢç»Ī": 2480,
      "Ġåħ«": 2481,
      "å°ıå¿ĥ": 2482,
      "çĶŁäº§åķĨ": 2483,
      "å¼Ģåıĳ": 2484,
      "å¼ºæ°§åĮĸåīĤ": 2485,
      "çķĻ": 2486,
      "æĪ´éĺ²æĬ¤æīĭå¥Ĺ": 2487,
      "Ġå¼Ĥ": 2488,
      "ĠéĵĿ": 2489,
      "åºŁå¼ĥå¤Ħç½®": 2490,
      "æ·ĭæµ´": 2491,
      "Ġæ¯Ķéĩį": 2492,
      "å¹¶åħ·æľīéķ¿æľŁæĮģç»Ńå½±åĵį": 2493,
      "UMI": 2494,
      "ce": 2495,
      "«çĶŁ": 2496,
      "¾Ħ": 2497,
      "æ½": 2498,
      "Ġand": 2499,
      "Ħĥ": 2500,
      "åħĶ": 2501,
      "Ġå¾": 2502,
      "çļĦäº§åĵģ": 2503,
      "åĮĸåĲĪçī©": 2504,
      "ä»·": 2505,
      "è¿Ļ": 2506,
      "ç»´": 2507,
      "åĳ½": 2508,
      "çģ«ç§į": 2509,
      "ĠâĦĥ": 2510,
      "ä¹Ŀ": 2511,
      "åĳ¼åĲ¸åģľæŃ¢": 2512,
      "ä½ľçĶ¨": 2513,
      "æ²Ļ": 2514,
      "éĢļçķħ": 2515,
      "æ¸ħéĻ¤": 2516,
      "çī¹å®ļ": 2517,
      "éħ¯ç±»": 2518,
      "Ġä¸ĥ": 2519,
      "è¿ĩæ»¤": 2520,
      "ĠæĢ¥æķĳ": 2521,
      "|---------|---------|": 2522,
      "çłĶ": 2523,
      "ç®±": 2524,
      "è¯ķéªĮ": 2525,
      "ĠçĶ¨å¤§éĩı": 2526,
      "åįĹéĢļ": 2527,
      "Ġæ¯Ĵ": 2528,
      "Ġå¯¹æ°´çĶŁçĶŁçī©": 2529,
      "Ġæ°´æº¶æĢ§": 2530,
      "ç®¡çĲĨ": 2531,
      "å±±å¸Ĥ": 2532,
      "å·²çŁ¥": 2533,
      "Ġæĺ¯ä¸Ģç§į": 2534,
      "Ġéķ¿": 2535,
      "Ġå·¥ä¸ļ": 2536,
      "è¶ħè¿ĩ": 2537,
      "éĶĢåĶ®": 2538,
      "æĺıæĺıæ¬²çĿ¡æĪĸçľ©æĻķ": 2539,
      "Ġæ¶²ä½ĵ": 2540,
      "¾Ħæ¸ħ": 2541,
      "çĨĶ": 2542,
      "è¥": 2543,
      "Ġï¼Ī": 2544,
      "Ġéħ¸": 2545,
      "Ġä¿®è®¢æĹ¥æľŁ": 2546,
      "ï¼ļ+": 2547,
      "åĪĿ": 2548,
      "åħį": 2549,
      "äºļ": 2550,
      "Ġå±": 2551,
      "å®ľ": 2552,
      "ĠçŁ": 2553,
      "éħ°": 2554,
      "çļĦçī©è´¨": 2555,
      "è¿ŀ": 2556,
      "ĠéĤ": 2557,
      "æ°´æ¸ħæ´Ĺ": 2558,
      "å°Ķ": 2559,
      "åĲĪæĪĲ": 2560,
      "éĩıæ³Ħæ¼ı": 2561,
      "èĦĳ": 2562,
      "ä¸Ńæŀ": 2563,
      "èĢĥ": 2564,
      "éĢĤåĲĪ": 2565,
      "å¦ĤæĦŁè§īä¸įéĢĤ": 2566,
      "åĲ«æľī": 2567,
      "çģŃçģ«æĸ¹æ³ķ": 2568,
      "éĢłæĪĲä¼¤å®³": 2569,
      "èĩ´åĳ½": 2570,
      "ating": 2571,
      "èĦ±ç¦»": 2572,
      "çİ°æľī": 2573,
      "GHSåį±éĻ©æĢ§ç±»åĪ«": 2574,
      "èº«ä½ĵ": 2575,
      "èº«ä½ĵéĺ²æĬ¤": 2576,
      "Ġå®īåħ¨æĬĢæľ¯è¯´æĺİä¹¦": 2577,
      "æĶ¹åĸĦ": 2578,
      "çĽ¸å®¹æĢ§": 2579,
      "ĠĠĠĠĠĠĠĠĠĠĠĠĠĠĠĠĠĠĠĠĠĠĠĠĠĠĠĠĠĠĠĠ": 2580,
      "Ġæ²¸çĤ¹": 2581,
      "Ġéķ¿åħ´": 2582,
      "Ġå°ĨæĤ£èĢħ": 2583,
      "ĠETERKYD": 2584,
      "æģ¶": 2585,
      "SHA": 2586,
      "Ġå·²åĪĹåħ¥": 2587,
      "ä¸Ńæŀ¢": 2588,
      "BE": 2589,
      "OR": 2590,
      "ul": 2591,
      "è¦Ĩ": 2592,
      "éº": 2593,
      "ĠY": 2594,
      "Ġa": 2595,
      "Ġn": 2596,
      "åĲ¦": 2597,
      "Ġåģ": 2598,
      "Ġæı": 2599,
      "åį·": 2600,
      "åĲ¸éĻĦ": 2601,
      "åĳ¨": 2602,
      "|------|------": 2603,
      "ä½¿çĶ¨éĺ²çĪĨ": 2604,
      "åį±éĻ©åĵģ": 2605,
      "ĠChem": 2606,
      "æŃ£å¸¸": 2607,
      "æĸ°æĿĲæĸĻ": 2608,
      "ä¸ĭéĻĲ": 2609,
      "----------------": 2610,
      "æ±¡æŁĵè¡£çī©": 2611,
      "éĵ¶": 2612,
      "TEL": 2613,
      "ç»ıæµİ": 2614,
      "å°ģéĹŃ": 2615,
      "åĳ¼åĲ¸éģĵåı¯èĥ½": 2616,
      "ĠæĬĢæľ¯èµĦæĸĻ": 2617,
      "æķĪæŀľ": 2618,
      "éĶģ": 2619,
      "è¿Ľè¡Įäººå·¥åĳ¼åĲ¸": 2620,
      "è¿Ľåħ¥åĳ¼åĲ¸éģĵåı¯èĥ½": 2621,
      "æĢ§åĴĮåıįåºĶæĢ§": 2622,
      "ĠåĽºåĲ«éĩı": 2623,
      "Ġé£Łåĵģ": 2624,
      "ĠçĻ½": 2625,
      "å®Įåħ¨": 2626,
      "Ġç¦ģæŃ¢": 2627,
      "ĠåºĶæĢ¥çĶµè¯Ŀ": 2628,
      "åľ¨éĢļé£İèī¯å¥½çļĦåľ°æĸ¹": 2629,
      "Ġof": 2630,
      "è¾¨è¯Ĩ": 2631,
      "TD": 2632,
      "TWA": 2633,
      "ev": 2634,
      "ig": 2635,
      "¥æºĲ": 2636,
      "åł": 2637,
      "é©¬": 2638,
      "ĠæľĢ": 2639,
      "å¤Ł": 2640,
      "åı¯ä»¥": 2641,
      "çĶŁæĪĲ": 2642,
      "éĺ²æĬ¤æİªæĸ½": 2643,
      "æ´»æĢ§": 2644,
      "æī¹": 2645,
      "å·¥åİĤ": 2646,
      "æ¶Ĥè£ħ": 2647,
      "ĠCH": 2648,
      "æ¼±åı£": 2649,
      "Ġmax": 2650,
      "oly": 2651,
      "ä¸ĬéĻĲ": 2652,
      "æĿĲæĸĻå·¥ä¸ļ": 2653,
      "ä¿ĿæĮģåĳ¼åĲ¸": 2654,
      "çĿĢçģ«": 2655,
      "ĠAC": 2656,
      "ä½İæ¸©": 2657,
      "å·¥ä¸ļåĮº": 2658,
      "é¡µ": 2659,
      "ĠpH": 2660,
      "GHSåĪĨç±»": 2661,
      "åĲŀé£Ł": 2662,
      "ç©¿æĪ´": 2663,
      "ç©¿éĺ²æĬ¤æľį": 2664,
      "éĢļé£İèī¯å¥½å¤Ħ": 2665,
      "TERESIN": 2666,
      "è½»å¾®": 2667,
      "ĠéĢłæĪĲçļ®èĤ¤åĪºæ¿Ģ": 2668,
      "è´£å£°æĺİ": 2669,
      "Ġresin": 2670,
      "Ġæ··": 2671,
      "åį°åĪ·": 2672,
      "ĠInc": 2673,
      "ĠæĿ¥æºĲ": 2674,
      "æĬ¥åĳĬ": 2675,
      "Ġæ¸ħ": 2676,
      "LITERESIN": 2677,
      "è°ĥ": 2678,
      "ä¿ĿæĮģåĳ¼åĲ¸éģĵéĢļçķħ": 2679,
      "äº§çĶŁçģ«èĬ±çļĦå·¥åħ·": 2680,
      "UMILITERESIN": 2681,
      "èĦĳæ²¹": 2682,
      "è¦ĨçĽĸ": 2683,
      "UN": 2684,
      "nol": 2685,
      "©åĽ½": 2686,
      "âĹı": 2687,
      "Ġl": 2688,
      "ĠçĶŁäº§": 2689,
      "ĠèģĶç³»": 2690,
      "ĠéĨĭéħ¸": 2691,
      "ĨçĤ¸": 2692,
      "Ľæĸ°": 2693,
      "ä½Ľ": 2694,
      "Ġç¡": 2695,
      "çĥ¤": 2696,
      "çĥĪ": 2697,
      "è§Ĩ": 2698,
      "åį«çĶŁ": 2699,
      "åĽ¢": 2700,
      "æĪĸæ··åĲĪçī©": 2701,
      "ä¸įåı¯": 2702,
      "æµ¸": 2703,
      "æľ¬æĸĩä»¶": 2704,
      "ç²¾": 2705,
      "éĥ½": 2706,
      "éģµ": 2707,
      "å¾ĭ": 2708,
      "ä¸İæ°§åĮĸåīĤ": 2709,
      "éĩįæĸ°": 2710,
      "å¯¹æ°´çĶŁçĶŁçī©": 2711,
      "Ġä¸ª": 2712,
      "ĠSolv": 2713,
      "ç©ºæ°Ķä¸Ń": 2714,
      "ç¼º": 2715,
      "èĢĲåĮĸåŃ¦": 2716,
      "ess": 2717,
      "èĭ¯éħļ": 2718,
      "è¡£æľį": 2719,
      "etate": 2720,
      "åıĹå®³": 2721,
      "èĭıå·ŀ": 2722,
      "èĤ¥çļĤåĴĮ": 2723,
      "æĽ´æĸ°": 2724,
      "æĮīçħ§": 2725,
      "èĦ±æİīæīĢæľī": 2726,
      "Ġæ±Łèĭıçľģ": 2727,
      "èİ·å¾Ĺ": 2728,
      "è±¡": 2729,
      "èĸĦèĨľ": 2730,
      "è¿ħéĢŁèĦ±ç¦»": 2731,
      "ĠçĪĨçĤ¸": 2732,
      "Ġéķ¿æľŁ": 2733,
      "è¥¿": 2734,
      "ä¸Ńæŀ¢ç¥ŀç»ıç³»ç»Ł": 2735,
      "Ġåģ¥åº·": 2736,
      "è¿Ľåħ¥åĳ¼åĲ¸éģĵåı¯èĥ½èĩ´åĳ½": 2737,
      "è¿ħéĢŁèĦ±ç¦»çİ°åľº": 2738,
      "Gardner": 2739,
      "man": 2740,
      "ªåĪĩ": 2741,
      "°æĢ§": 2742,
      "çª": 2743,
      "ĠJ": 2744,
      "Ģçĸĳ": 2745,
      "æĢĢçĸĳ": 2746,
      "äºĽ": 2747,
      "Ġå½": 2748,
      "ĠåĴ": 2749,
      "Ġæ¼": 2750,
      "Ġç¬¦åĲĪ": 2751,
      "åĮºæ": 2752,
      "éĻ·": 2753,
      "æľīæķĪ": 2754,
      "ç»ĩ": 2755,
      "Ġé»": 2756,
      "åĬŁ": 2757,
      "éĺ²æĬ¤è®¾å¤ĩ": 2758,
      "è®©": 2759,
      "æĿ¯": 2760,
      "æ¯ı": 2761,
      "|-----------": 2762,
      "ç½ĳ": 2763,
      "ä¾¿": 2764,
      "æĹłèī²": 2765,
      "è¿Ľé£Ł": 2766,
      "æľīå®³çĩĥçĥ§äº§çī©": 2767,
      "ç´§": 2768,
      "æĺ¯æłĳèĦĤ": 2769,
      "çĿĢèī²": 2770,
      "çĽ¸å½ĵ": 2771,
      "åį±éĻ©æĢ§æ¦Ĥè¿°": 2772,
      "èĩªè¡Į": 2773,
      "ç¾İåĽ½": 2774,
      "ç¡®å®ļ": 2775,
      "åģ¥åº·å½±åĵį": 2776,
      "å¼ºåº¦": 2777,
      "éħ®ç±»": 2778,
      "ä¸ľçľģ": 2779,
      "Ġæİ¨èįĲçĶ¨éĢĶ": 2780,
      "çĽ´å°Ħ": 2781,
      "æĢ»éħįæĸ¹": 2782,
      "Ġæµĵåº¦èĮĥåĽ´": 2783,
      "Ġçī¹å¼ĤæĢ§éĿ¶åĻ¨å®ĺç³»ç»Łæ¯ĴæĢ§": 2784,
      "ĠèĴ¸æ°Ķåİĭ": 2785,
      "ĠçĽ¸å¯¹": 2786,
      "å¤±åİ»": 2787,
      "ä¸İç©ºæ°Ķå½¢æĪĲçĪĨçĤ¸æĢ§æ··åĲĪçī©": 2788,
      "èĦĤèĤªæĹı": 2789,
      "åĩłåĪĨéĴŁ": 2790,
      "Ġæļ´éľ²éĢĶå¾Ħ": 2791,
      "ĠæĢ¥æķĳæĸ¹æ³ķ": 2792,
      "éº»": 2793,
      "ĠæıĲ": 2794,
      "ç¼ºéĻ·": 2795,
      ")**": 2796,
      "Chem": 2797,
      "GI": 2798,
      "ial": 2799,
      "¤ç¦»": 2800,
      "Î¼": 2801,
      "åĦ": 2802,
      "èŀ": 2803,
      "Ġ@": 2804,
      "Ġåı·": 2805,
      "Ġkg": 2806,
      "ĠYD": 2807,
      "Ġè¿ľç¦»çĥŃæºĲ": 2808,
      "ĵ¦": 2809,
      "ĿĲ": 2810,
      "Ġæ¾Ħæ¸ħ": 2811,
      "åºı": 2812,
      "çļĦéĢļé£İ": 2813,
      "çĶ¨æĪ·": 2814,
      "éĻħ": 2815,
      "çģ¼": 2816,
      "æ°´åĸ·": 2817,
      "æ³Ħ": 2818,
      "èĤ²": 2819,
      "èĤº": 2820,
      "ä¸įäº§çĶŁçģ«èĬ±çļĦå·¥åħ·": 2821,
      "éĩıçļĦ": 2822,
      "ç³Ĭ": 2823,
      "çĶµæľ¨": 2824,
      "æ±Łèĭıçľģ": 2825,
      "åĮĸåŃ¦æĢ§è´¨": 2826,
      "å®īåħ¨èµĦæĸĻ": 2827,
      "å¯¹åĻ¨å®ĺ": 2828,
      "æ¶ĤæĸĻä½ĵç³»": 2829,
      "ant": 2830,
      "ĠçīĪ": 2831,
      "ont": 2832,
      "å¼ķèµ·çĩĥçĥ§": 2833,
      "çĥ¯çĥĥ": 2834,
      "Ġä¸įéĢĤçĶ¨": 2835,
      "Ġä¸įæĮ¥åıĳ": 2836,
      "çİ¯å¢ĥä¸Ń": 2837,
      "ä½ıåıĭçĶµæľ¨": 2838,
      "æĥ°æĢ§": 2839,
      "|----------|----------|": 2840,
      "çĪĨçĤ¸åį±éĻ©": 2841,
      "éĩĳé»Ħ": 2842,
      "æĮĩå¯¼": 2843,
      "èħĶ": 2844,
      "Ġæł¹æį®": 2845,
      "çĻ½ç²ī": 2846,
      "ç¨ĭåºı": 2847,
      "Ġç«ĭåį³çĶ¨å¤§éĩı": 2848,
      "èģļéħ¯éĩĳé»Ħ": 2849,
      "çī¹æ®Ĭåį±å®³": 2850,
      "act": 2851,
      "æ¸ħæ°´å½»åºķåĨ²æ´Ĺ": 2852,
      "ide": 2853,
      "Ġçİ¯å¢ĥ": 2854,
      "çĽ´æİ¥": 2855,
      "Ġçī¹å¼ĤæĢ§éĿ¶åĻ¨å®ĺæ¯ĴæĢ§": 2856,
      "Ġå»ºè®®çĶ¨éĩı": 2857,
      "ethyl": 2858,
      "æłĩçŃ¾è¦ģç´ł": 2859,
      "ç¼ĸåĪ¶ä¾Ŀæį®": 2860,
      "Ġç½Ĳ": 2861,
      "Ġä¸¥éĩįçľ¼æįŁä¼¤": 2862,
      "TOT": 2863,
      "ĠçĨĶçĤ¹": 2864,
      "ä¸Ńå¿ĥæĪĸåĮ»çĶŁ": 2865,
      "å°ıå¿ĥåĨ²æ´Ĺ": 2866,
      "Ġå¾®": 2867,
      "Ġæ¯ĴçĲĨåŃ¦": 2868,
      "ĠChemical": 2869,
      "è¾¨è¯ĨèµĦæĸĻ": 2870,
      "åĦ¿": 2871,
      "ab": 2872,
      "down": 2873,
      "mb": 2874,
      "ph": 2875,
      "us": 2876,
      "¡é»Ħèī²": 2877,
      "¹æĢ§": 2878,
      "æ¥": 2879,
      "èĳ": 2880,
      "Ġè¯´æĺİ": 2881,
      "Ġä½©": 2882,
      "Ł©åĽ½": 2883,
      "åħŃ": 2884,
      "äºĪ": 2885,
      "Ġæ¹": 2886,
      "åĮĹ": 2887,
      "è¯±": 2888,
      "ĠéŁ©åĽ½": 2889,
      "åīªåĪĩ": 2890,
      "åĲĪè§Ħ": 2891,
      "èĤ¿": 2892,
      "æĸ¹åı¯": 2893,
      "ä¸įèĥ½": 2894,
      "æĿ¿": 2895,
      "æ´²": 2896,
      "åĪ¶è¡¨": 2897,
      "éĢļçĶ¨": 2898,
      "æķ°åĢ¼": 2899,
      "åİļ": 2900,
      "åĲ¸åħ¥èĴ¸æ°Ķ": 2901,
      "éĩįè¦ģ": 2902,
      "çº¤": 2903,
      "çŃĳ": 2904,
      "ĠåĮĸåŃ¦åĲįç§°": 2905,
      "ĠåĮĸåŃ¦æĢ§è´¨": 2906,
      "æĬĢæľ¯èµĦæĸĻ": 2907,
      "èĩ³ç©ºæ°Ķæĸ°é²ľå¤Ħ": 2908,
      "èĢĲçĥŃ": 2909,
      "éĴ¢": 2910,
      "æĶ¾çĶµ": 2911,
      "é»ı": 2912,
      "ĠTWA": 2913,
      "æĵįä½ľå¤Ħç½®": 2914,
      "æ®ĭ": 2915,
      "åĮĸåŃ¦åĵģåıĬä¼ģä¸ļæłĩè¯Ĩ": 2916,
      "ĠLTD": 2917,
      "ä¸¥éĩįçľ¼åĪºæ¿Ģ": 2918,
      "Ġæ³ķ": 2919,
      "è¯·åıĤ": 2920,
      "Ġå¦Ĥæŀľ": 2921,
      "è¿Ľåħ¥ä¸ĭæ°´éģĵ": 2922,
      "èĪĴ": 2923,
      "æľīæľºç¡ħ": 2924,
      "åºŁçī©": 2925,
      "é¼»": 2926,
      "Ġèī²æķ°": 2927,
      "æ¶Īéĺ²äººåĳĺéĺ²æĬ¤": 2928,
      "Ġç§»": 2929,
      "Ġç¾İåĽ½": 2930,
      "arkdown": 2931,
      "Ġæ¯ķåħĭåĮĸåŃ¦": 2932,
      "çĥ¤æ¼Ĩ": 2933,
      "ĠåĴĮ": 2934,
      "çģ¼ä¼¤": 2935,
      "èĳĹ": 2936,
      ".ï¼Ī": 2937,
      "ETER": 2938,
      "chem": 2939,
      "eg": 2940,
      "oad": 2941,
      "|:----": 2942,
      "µm": 2943,
      "æĵ¦": 2944,
      "çı": 2945,
      "èĻ": 2946,
      "ĠZ": 2947,
      "Ġéĺ²æŃ¢": 2948,
      "ĠçĶŁæ®ĸ": 2949,
      "Ħåħ¥": 2950,
      "ï¼ı": 2951,
      "ãĢĤ**": 2952,
      "çīĩ": 2953,
      "|-------": 2954,
      "ä»į": 2955,
      "éĨī": 2956,
      "ĠéĴ": 2957,
      "å¼ł": 2958,
      "æĪĸçĶŁ": 2959,
      "ä¸įåĲĪéĢĤçļĦçģŃçģ«åīĤ": 2960,
      "çĶŁèĤ²": 2961,
      "å½©": 2962,
      "åĨĮ": 2963,
      "åı¯èĥ½å¯¹": 2964,
      "æī©": 2965,
      "ä½¿çĶ¨æĹ¶": 2966,
      "äºĮæ°§åĮĸ": 2967,
      "å¾ª": 2968,
      "å¾½": 2969,
      "çĲĨçĽĲ": 2970,
      "åľ¨å®¤": 2971,
      "èģļä¹Ļçĥ¯": 2972,
      "åĲ¸åħ¥ç²īå°ĺ": 2973,
      "å±Ģ": 2974,
      "Ġ(%)": 2975,
      "éĹ¨": 2976,
      "å¿«": 2977,
      "ä¼ļå¼ķèµ·": 2978,
      "ä¼ļå¯¼èĩ´": 2979,
      "èĢĲåĢĻ": 2980,
      "ater": 2981,
      "ator": 2982,
      "çĪ½": 2983,
      "Ġä¸įè¦ģ": 2984,
      "éģ¿åħįæİ¥è§¦": 2985,
      "âĤĥ": 2986,
      "ĠKOH": 2987,
      "ä¸īéĥ¨åĪĨ": 2988,
      "Ġç»ĵ": 2989,
      "ACH": 2990,
      "è¿Ľåħ¥çľ¼çĿĽ": 2991,
      "æĻķçľ©": 2992,
      "ç½Ĳå¤´": 2993,
      "æİĴåħ¥": 2994,
      "Ġä¹Ļéħ¸": 2995,
      "æĲħ": 2996,
      "Ġçİ¯æ°§": 2997,
      "çŁ³èĦĳæ²¹": 2998,
      "æ²¾æŁĵçļĦè¡£æľį": 2999,
      "ç«ł": 3000,
      "ĠæłĩåĩĨ": 3001,
      "Ġè¿Ĳè¾ĵä¿¡æģ¯": 3002,
      "åıĸåĩºéļĲå½¢çľ¼éķľ": 3003,
      "æĭħä¿Ŀ": 3004,
      "Ġæ¶Īæ³¡åīĤ": 3005,
      "çĶµåŃĲéĤ®ä»¶": 3006,
      "Ġacetate": 3007,
      "èĥ½åĬĽæĪĸ": 3008,
      "ĠéĤ®": 3009,
      "éĵ¶æµĨ": 3010,
      "éº»éĨī": 3011,
      "æĪĸçĶŁçĲĨçĽĲ": 3012,
      "çĶŁèĤ²èĥ½åĬĽæĪĸ": 3013,
      "BL": 3014,
      "DBE": 3015,
      "EACH": 3016,
      "II": 3017,
      "OC": 3018,
      "dur": 3019,
      "gi": 3020,
      "ir": 3021,
      "pec": 3022,
      "si": 3023,
      "ºç»ĩ": 3024,
      "¿æĭħ": 3025,
      "ĠæĢ§èĥ½": 3026,
      "Ġèĭ¥": 3027,
      "Ńéħį": 3028,
      "-----": 3029,
      "è¯Ħ": 3030,
      "åįı": 3031,
      "æľīåħ³": 3032,
      "åı¯åľ¨": 3033,
      "åı¯å¼ķèµ·": 3034,
      "è¡Ģ": 3035,
      "åĲĪåīĤ": 3036,
      "æĪĸåıįå¤įæİ¥è§¦": 3037,
      "çĶŁæĢģ": 3038,
      "èīº": 3039,
      "æī¿æĭħ": 3040,
      "ä½¿çĶ¨çļĦ": 3041,
      "ĠPHEN": 3042,
      "åĪ¶åīĤ": 3043,
      "Ġç¬¬ä¸īéĥ¨åĪĨ": 3044,
      "å¦Ĥåĳ¼åĲ¸åģľæŃ¢": 3045,
      "åŁºéħ¯": 3046,
      "Ġäº§åĵģçī¹æĢ§": 3047,
      "Ġä¸»è¦ģ": 3048,
      "anol": 3049,
      "é«ĺåĪĨåŃĲéĩı": 3050,
      "çī©è´¨æĪĸæ··åĲĪçī©": 3051,
      "ĠGmb": 3052,
      "enator": 3053,
      "ers": 3054,
      "æĿĲæĸĻåĲ¸æĶ¶": 3055,
      "åĲİæĸ¹åı¯": 3056,
      "é¡»åĬł": 3057,
      "Ġå®ī": 3058,
      "æ°´åĨ²æ´Ĺçľ¼çĿĽ": 3059,
      "æ¬§": 3060,
      "åı£æľį": 3061,
      "åı£èħĶ": 3062,
      "éĻ¤æīĢæľī": 3063,
      "ä¼ĺçĤ¹": 3064,
      "æ·»åĬłéĩı": 3065,
      "Ġä¸ĢèĪ¬": 3066,
      "è¢«åĪĨç±»": 3067,
      "åıĳçĶŁçļ®èĤ¤åĪºæ¿Ģ": 3068,
      "å¤´åıĳ": 3069,
      "å¤´çĹĽ": 3070,
      "ĠÂµm": 3071,
      "æıĲä¾ĽçļĦ": 3072,
      "æĪ´éĺ²æĬ¤çľ¼ç½©": 3073,
      "å·¥ä½ľæľį": 3074,
      "Ġå¹³": 3075,
      "Ġå¹¿": 3076,
      "ech": 3077,
      "çŁ³æ²¹": 3078,
      "åºĵæĸĩæ¡£": 3079,
      "www": 3080,
      ":|:--------:|": 3081,
      "éģĩæĺİçģ«": 3082,
      "ĠçģŃçģ«": 3083,
      "åŁºæĿĲ": 3084,
      "æĴ¤ç¦»": 3085,
      "ç§ĳæĬĢæľīéĻĲåħ¬åı¸": 3086,
      "è¿ĩç¨ĭä¸Ń": 3087,
      "Ġç©¿": 3088,
      "çŁ¥è¯Ĩåºĵæĸĩæ¡£": 3089,
      "æħ§æĸ°åĮĸå·¥æľīéĻĲåħ¬åı¸": 3090,
      "Ġéķ¿åħ´æĿĲæĸĻå·¥ä¸ļ": 3091,
      "æģ¶å¿ĥ": 3092,
      "æµ¸æ³¡": 3093,
      "åĬŁèĥ½": 3094,
      "Î¼m": 3095,
      "èŀį": 3096,
      "ĠçīĪæľ¬": 3097,
      "Ġæ³ķè§Ħ": 3098,
      "ĠéĤ®ç¼ĸ": 3099,
      "ĠGmbH": 3100,
      "é¡»åĬłéĶģ": 3101,
      "FR": 3102,
      "STOT": 3103,
      "ast": 3104,
      "ct": 3105,
      "hin": 3106,
      "up": 3107,
      "°å°ĺ": 3108,
      "Ġèĩ´çĻĮæĢ§": 3109,
      "Ġä¹Ŀ": 3110,
      "Ġè¿ħéĢŁèĦ±ç¦»çİ°åľº": 3111,
      "İåĦ¿": 3112,
      "åĪĽ": 3113,
      "æĢĿ": 3114,
      "ĠåĢ": 3115,
      "çļĦåį±éĻ©": 3116,
      "çļĦå®īåħ¨": 3117,
      "åŃĶ": 3118,
      "çģ°å°ĺ": 3119,
      "ä½ĵä½į": 3120,
      "èĥİåĦ¿": 3121,
      "æ°´å½»åºķåĨ²æ´Ĺ": 3122,
      "|------|---------|": 3123,
      "ä¸įéĢĤçĶ¨": 3124,
      "å¯»": 3125,
      "éĺ²æĬ¤çľ¼éķľ": 3126,
      "è®°": 3127,
      "æĿĥ": 3128,
      "çĤİ": 3129,
      "ä¿ĿåŃĺ": 3130,
      "åħ¨èº«": 3131,
      "å¾ģ": 3132,
      "æĶ¯": 3133,
      "åı·çłģ": 3134,
      "æ³ķå¾ĭ": 3135,
      "åĤ¨åŃĺåľ¨": 3136,
      "åĤ¨åŃĺç¨³å®ļæĢ§": 3137,
      "Ġäº§åĵģæııè¿°": 3138,
      "åĽ½éĻħ": 3139,
      "çº¯": 3140,
      "Ġä¸º": 3141,
      "ane": 3142,
      "éĿ¢éĺ²æĬ¤": 3143,
      "éĢłæĪĲçļ®èĤ¤åĪºæ¿Ģ": 3144,
      "Ġmm": 3145,
      "ä¹Ļéħ¯": 3146,
      "éĢļé£İå¤Ħ": 3147,
      "æľįåĬ¡": 3148,
      "ç»ĦåĲĪ": 3149,
      "ern": 3150,
      "ert": 3151,
      "âĦĥï¼Ī": 3152,
      "ĠMarkdown": 3153,
      "åĸī": 3154,
      "æ¸©æ°´": 3155,
      "ĠEC": 3156,
      "æıĲç¤º": 3157,
      "åĲİå½»åºķæ¸ħæ´Ĺ": 3158,
      "è®¾å¤ĩæİ¥åľ°": 3159,
      "èģĶåĲĪ": 3160,
      "è¿ľç¦»çģ«ç§į": 3161,
      "æ°´åĨ²æ´Ĺèĩ³å°ĳ": 3162,
      "æĭĮ": 3163,
      "ĠLD": 3164,
      "å±ŀäºİ": 3165,
      "çŁ¥è§ī": 3166,
      "åıĤèĢĥ": 3167,
      "éĶ®": 3168,
      "Ġåı¯èĥ½å¼ķèµ·": 3169,
      "å£¤": 3170,
      "ACumist": 3171,
      "çħ§æĺİ": 3172,
      "æľīæľºæº¶åīĤ": 3173,
      "åįķä½ĵ": 3174,
      "çĶ±äºİ": 3175,
      "çĶ±çŁ¥è¯Ĩåºĵæĸĩæ¡£": 3176,
      "å¹³åĿĩ": 3177,
      "å·¥ä½ľåľºæīĢ": 3178,
      "æ±¡æŁĵçļĦè¡£çī©": 3179,
      "æĲŃéħį": 3180,
      "åľŁå£¤": 3181,
      "æŀģéĻĲ": 3182,
      "|------------|---------": 3183,
      "äº¤èģĶ": 3184,
      "ç§¯èģļ": 3185,
      "è¶³å¤Ł": 3186,
      "è½¬æį¢è¯´æĺİ": 3187,
      "è½¬æį¢ä¸º": 3188,
      "dust": 3189,
      "æ£Ģæµĭ": 3190,
      "äºĨè§£": 3191,
      "PHENODUR": 3192,
      "æ¶¦æ¹¿": 3193,
      "Ġå¸¸": 3194,
      "æº¢åĩºçī©": 3195,
      "Ġç²īæľ«": 3196,
      "Ġç¨³å®ļæĢ§åĴĮåıįåºĶæĢ§": 3197,
      "ĠåŁºäºİ": 3198,
      "Ġé£Łåĵģæİ¥è§¦": 3199,
      "Ľæĸ°æłĳèĦĤ": 3200,
      "æľ¬æĸĩä»¶çĶ±çŁ¥è¯Ĩåºĵæĸĩæ¡£": 3201,
      "éĩįæĸ°ä½¿çĶ¨": 3202,
      "Ġé»Ħ": 3203,
      "æ¸ħæ°´å½»åºķåĨ²æ´Ĺçļ®èĤ¤": 3204,
      "å°ıå¿ĥåĨ²æ´ĹåĩłåĪĨéĴŁ": 3205,
      "åĪ¶è¡¨æĹ¥æľŁ": 3206,
      "æ®ĭçķĻ": 3207,
      "æĲħæĭĮ": 3208,
      "ĠPHENODUR": 3209,
      "DMP": 3210,
      "ET": 3211,
      "TP": 3212,
      "om": 3213,
      "ot": 3214,
      "pp": 3215,
      "¸ç¦»": 3216,
      "»ç": 3217,
      "Ġä¸ģ": 3218,
      "Ġco": 3219,
      "ĠéĢĤçĶ¨äºİ": 3220,
      "ĠéĻĦçĿĢåĬĽ": 3221,
      "ĠèĦ±åİ»": 3222,
      "Ġéĩįéĩı": 3223,
      "Ġä¿ĿæĮģå®¹åĻ¨å¯ĨéĹŃ": 3224,
      "Ĵĥ": 3225,
      "åħ¸åŀĭ": 3226,
      "éĢī": 3227,
      "çīĮ": 3228,
      "åįģ": 3229,
      "Ġéĥ": 3230,
      "ä¼°": 3231,
      "çĽŁ": 3232,
      "æĸ¹ä¾¿": 3233,
      "ç³»åĪĹ": 3234,
      "å¤Ħé¡»åĬłéĶģ": 3235,
      "éħįçī©": 3236,
      "æ´ģ": 3237,
      "çĶµæ°Ķ": 3238,
      "å·¥èīº": 3239,
      "ĠCFR": 3240,
      "ĠPC": 3241,
      "æ²¸çĤ¹": 3242,
      "èģļåĲĪ": 3243,
      "æ¯Ĵçī©": 3244,
      "äººä½ĵ": 3245,
      "çĶ²éĨļ": 3246,
      "è£ħå®¹": 3247,
      "éĩįå¤į": 3248,
      "å®īåħ¨åĤ¨åŃĺ": 3249,
      "åľ°åĮº": 3250,
      "æ°§åĮĸéĵģ": 3251,
      "åĿı": 3252,
      "çº³": 3253,
      "éĢłæĪĲæįŁå®³": 3254,
      "å¹¶åı¯": 3255,
      "å¥½çļĦ": 3256,
      "ä¸Ĭé£İ": 3257,
      "å¤§éĩıæ³Ħæ¼ı": 3258,
      "äº§çĶŁæľīå®³": 3259,
      "rodu": 3260,
      "ĠçĶ¨èĤ¥çļĤåĴĮ": 3261,
      "æĽ²": 3262,
      "åįĹè·¯": 3263,
      "ç¾ŁåŁº": 3264,
      "çĥ·åŁº": 3265,
      "Ġçļ®èĤ¤èĩ´æķı": 3266,
      "å·ŀå¸Ĥ": 3267,
      "ä¸ªäººéĺ²æĬ¤è®¾å¤ĩ": 3268,
      "Ġä¹ĻäºĮéĨĩ": 3269,
      "æ¶Īæ³¡åīĤ": 3270,
      "æ±½è½¦": 3271,
      "éĻĲåĪ¶çĶ¨éĢĶ": 3272,
      "å®ŀéªĮ": 3273,
      "ĠæłĩçŃ¾": 3274,
      "åı¯èĥ½éĢłæĪĲçļ®èĤ¤è¿ĩæķıåıįåºĶ": 3275,
      "æ°´æĪĸåĲ¸çĥŁ": 3276,
      "ä¸Ļçĥ¯éħ¸æłĳèĦĤ": 3277,
      "ific": 3278,
      "Ġæ³¨æĦı": 3279,
      "éĺ³åħīçĽ´å°Ħ": 3280,
      "Ġç¼ĸåĪ¶": 3281,
      "è§£æ¯Ĵä¸Ńå¿ĥæĪĸåĮ»çĶŁ": 3282,
      "æ½®": 3283,
      "çĶŁæĪĲæĹ¥æľŁ": 3284,
      "ä¿ĿæĮģåĳ¼åĲ¸èĪĴ": 3285,
      "Ġä¸įæĮ¥åıĳä»½": 3286,
      "Ġä½©å¸¦": 3287,
      "çĶŁèĤ²èĥ½åĬĽæĪĸèĥİåĦ¿": 3288,
      "»çĴĥ": 3289,
      "è£ħå®¹åĻ¨": 3290,
      "roduct": 3291,
      ":**": 3292,
      "AT": 3293,
      "PO": 3294,
      "SC": 3295,
      "ail": 3296,
      "hr": 3297,
      "un": 3298,
      "¦åĮĸå·¥æľīéĻĲåħ¬åı¸": 3299,
      "åĺ": 3300,
      "çĨ": 3301,
      "ĠçĶ²": 3302,
      "Ġä½©æĪ´": 3303,
      "Ġä»£çłģ": 3304,
      "Ĥè´¨": 3305,
      "ĩĥ": 3306,
      "--:|": 3307,
      "Ġæ´": 3308,
      "Ġçĩĥ": 3309,
      "æĢ§åıĬ": 3310,
      "çļĦçĹĩçĬ¶": 3311,
      "çļĦæĥħåĨµä¸ĭ": 3312,
      "å¤ª": 3313,
      "è¯Ń": 3314,
      "åĴĮä¸ªä½ĵéĺ²æĬ¤": 3315,
      "æĪĸç¬¦åĲĪ": 3316,
      "ä¸įçĽ¸å®¹": 3317,
      "å®¹æĢ§": 3318,
      "æµħ": 3319,
      "æĺİæĺ¾": 3320,
      "çļ®èĤ¤èħĲèļĢ": 3321,
      "æĿĤè´¨": 3322,
      "åĩĿ": 3323,
      "æīĵ": 3324,
      "åĪºæ¿ĢæĮģç»Ń": 3325,
      "æ··æº¶": 3326,
      "ä½¿çĶ¨ä¸įäº§çĶŁçģ«èĬ±çļĦå·¥åħ·": 3327,
      "åĮ»çĸĹ": 3328,
      "ä¾§": 3329,
      "åĮĸåŃ¦åį±éĻ©": 3330,
      "èģļç¡ħæ°§çĥ·": 3331,
      "èī²ç²īæľ«": 3332,
      "å¦Ĥåĳ¼åĲ¸åĽ°éļ¾": 3333,
      "å±ı": 3334,
      "çī¹çĤ¹": 3335,
      "åıĳå¸ĥ": 3336,
      "Ġäº§åĵģæ¦Ĥè¿°": 3337,
      "çº¿": 3338,
      "æĿĲæ¶ĤæĸĻ": 3339,
      "ĠSUMILITERESIN": 3340,
      "æķ°æį®é¡µ": 3341,
      "ç©ºæ°Ķéĩį": 3342,
      "èĢĲç£¨": 3343,
      "esmo": 3344,
      "æĪ´éļĲå½¢çľ¼éķľ": 3345,
      "Ġæĺĵçĩĥ": 3346,
      "ä¿ĿæĮģä½İæ¸©": 3347,
      "åĸĤ": 3348,
      "æ¯Ķç©ºæ°Ķéĩį": 3349,
      "æĺ¯åĬ©åīĤ": 3350,
      "æĵįä½ľå¤Ħç½®ä¸İåĤ¨åŃĺ": 3351,
      "åºĶæĢ¥åĴ¨è¯¢çĶµè¯Ŀ": 3352,
      "èį¯": 3353,
      "åĮĸåŃ¦åĵģå®īåħ¨æĬĢæľ¯è¯´æĺİä¹¦": 3354,
      "roc": 3355,
      "ĠæĬĢæľ¯æĮĩæłĩ": 3356,
      "åĲŀåĴ½æľīå®³": 3357,
      "Ġé¢Ħ": 3358,
      "ĠVenator": 3359,
      "ç»ĵæŀľ": 3360,
      "ure": 3361,
      "æŁ¥": 3362,
      "è®¤ä¸º": 3363,
      "Ġå¹²": 3364,
      "äºĶéĥ¨åĪĨ": 3365,
      "æ°¨åŁº": 3366,
      "CAL": 3367,
      "é¥®æ°´æĪĸåĲ¸çĥŁ": 3368,
      "åİĤåķĨ": 3369,
      "utyl": 3370,
      "ellow": 3371,
      "æįŁå®³åĻ¨å®ĺ": 3372,
      "æľīæ¯Ĵå¹¶åħ·æľīéķ¿æľŁæĮģç»Ńå½±åĵį": 3373,
      "ï½ľ**": 3374,
      "ãĢĭï¼Ī": 3375,
      "æ°´åĴĮèĤ¥çļĤ": 3376,
      "ĠçĥŃ": 3377,
      "ĠåĬłåħ¥": 3378,
      "åĽŀæĶ¶": 3379,
      "å¿ħè¦ģæĹ¶": 3380,
      "çļ®èĤ¤åĴĮçľ¼çĿĽ": 3381,
      "èıĮ": 3382,
      "éħ°èĥº": 3383,
      "Ġå·²åĪĹåħ¥æĪĸç¬¦åĲĪ": 3384,
      "Ġæ··åĲĪçī©": 3385,
      "ä½ıåıĭçĶµæľ¨æľīéĻĲåħ¬åı¸": 3386,
      "èĢĲçĥŃæĢ§": 3387,
      "è¯Ħä¼°": 3388,
      "åĲİæĸ¹åı¯éĩįæĸ°ä½¿çĶ¨": 3389,
      "Ġå¹³åĿĩ": 3390,
      "Ġéĥ¨": 3391,
      "Ġå·²åĪĹåħ¥æĪĸç¬¦åĲĪè¦ģæ±Ĥ": 3392,
      ".ï¼ī": 3393,
      "EU": 3394,
      "LC": 3395,
      "STEL": 3396,
      "ea": 3397,
      "ie": 3398,
      "yn": 3399,
      "§½": 3400,
      "®åĸ": 3401,
      "¶æ®": 3402,
      "ç«ĭ": 3403,
      "Ġè¦ģæ±Ĥ": 3404,
      "Ġéĺ²èĮĥè¯´æĺİ": 3405,
      "Ġè´®åŃĺ": 3406,
      "ĠåıĮéħļA": 3407,
      "ĠçĶµåŃĲéĤ®ä»¶": 3408,
      "Ĺä¼ł": 3409,
      "åĪ®": 3410,
      "æĸ¤": 3411,
      "ä½Ļ": 3412,
      "Ġæ¬": 3413,
      "ï¼ī**ï¼ļ": 3414,
      "çļĦçģŃçģ«ä»ĭè´¨": 3415,
      "åĵ®åĸ": 3416,
      "éĺ¶æ®": 3417,
      "ä»ĺ": 3418,
      "è¿ĳ": 3419,
      "æĪĸåĵ®åĸ": 3420,
      "èĥ½å¼ķèµ·çĩĥçĥ§": 3421,
      "äº§åĵģä»£çłģ": 3422,
      "Ġâĸ": 3423,
      "æŃ¥": 3424,
      "éĨĩç±»": 3425,
      "å·¥ç¨ĭ": 3426,
      "éģĹä¼ł": 3427,
      "|------|:----:|": 3428,
      "äºĮçĶ²åŁº": 3429,
      "æ¶ĤèĨľ": 3430,
      "ä¾µ": 3431,
      "èģļå¼Ĥæ°°éħ¸éħ¯": 3432,
      "åħ¬æĸ¤": 3433,
      "äººè½¬ç§»åĪ°ç©ºæ°Ķæĸ°é²ľå¤Ħ": 3434,
      "çľ¼çĿĽéĺ²æĬ¤": 3435,
      "çľ¼çĿĽæįŁä¼¤": 3436,
      "ance": 3437,
      "æĹłéľĢ": 3438,
      "çŁŃ": 3439,
      "ä¸ªæľĪ": 3440,
      "çİ¯å¢ĥä¿ĿæĬ¤": 3441,
      "all": 3442,
      "ĠIII": 3443,
      "çł´": 3444,
      "æ±¡æŁĵçļĦ": 3445,
      "æµģå¹³": 3446,
      "åĮħåĲ«": 3447,
      "âĤħ": 3448,
      "æĶ¶å®¹": 3449,
      "æĦıè¯Ĩ": 3450,
      "ç»Ļè¾ĵæ°§": 3451,
      "èħĪ": 3452,
      "ĠKD": 3453,
      "åĮ»çĶŁçļĦ": 3454,
      "Ġçī¹æĢ§": 3455,
      "roup": 3456,
      "çĹĩçĬ¶æĪĸ": 3457,
      "çĹĩçĬ¶æĮģç»Ń": 3458,
      "Ġåı¯å¼ķèµ·": 3459,
      "Ġç«ĭåį³èĦ±åİ»": 3460,
      "éĨļåĮĸ": 3461,
      "æ°´çĶŁåį±å®³": 3462,
      "é¢ľèī²": 3463,
      "åįķä½į": 3464,
      "å¤ĸæĪĸ": 3465,
      "æĪ´éĺ²æĬ¤éĿ¢åħ·": 3466,
      "çĶ¨æ°´æ¸ħæ´Ĺ": 3467,
      "ä¿ĿæĮģå®¹åĻ¨å¯Ĩå°ģ": 3468,
      "ä¸ªäººéĺ²æĬ¤è£ħå¤ĩ": 3469,
      "½ľåľ¨": 3470,
      "æ±¡æŁĵçļĦè¡£çĿĢ": 3471,
      "Ġçİ¯å·±": 3472,
      "|-------------": 3473,
      "èŃ¦ç¤ºè¯Ń": 3474,
      "Ġå·¥ä½ľ": 3475,
      "äºĮéĨĩçĶ²éĨļ": 3476,
      "Ġçģ«": 3477,
      "åı¯èĥ½å¯¼èĩ´è¿ĩæķı": 3478,
      "ä¸Ńæ¯Ĵæİ§åĪ¶": 3479,
      "çłĤåľŁ": 3480,
      "æļĸ": 3481,
      "ĠçŃī": 3482,
      "éĺ²æŃ¢éĿĻçĶµæĶ¾çĶµ": 3483,
      "é«ĺçĥŃèĥ½å¼ķèµ·çĩĥçĥ§": 3484,
      "çĶ¨æµģåĬ¨æ¸ħæ°´æĪĸçĶŁçĲĨçĽĲ": 3485,
      "åĳ¨åĽ´": 3486,
      "nolo": 3487,
      "è±¡å½¢": 3488,
      "å¤±åİ»çŁ¥è§ī": 3489,
      "æ°´åĸ·å°Ħ": 3490,
      "èģļéħ¯éĩĳé»Ħä½ĵç³»æł·æľ¬": 3491,
      "åīªåĪĩåĬĽ": 3492,
      "echnolo": 3493,
      "ĠåĢ¼": 3494,
      "èģĶåĲĪåĽ½": 3495,
      "çĶŁèĤ²èĥ½åĬĽæĪĸèĥİåĦ¿éĢłæĪĲä¼¤å®³": 3496,
      "åĺ´": 3497,
      "åĸĤé£Ł": 3498,
      "ĠåĬłåħ¥æĸ¹æ³ķ": 3499,
      "éĺ¶æ®µ": 3500,
      "æĪĸåĵ®åĸĺ": 3501,
      "%ï¼Ī": 3502,
      "Al": 3503,
      "DO": 3504,
      "ER": 3505,
      "OS": 3506,
      "ay": 3507,
      "ain": 3508,
      "im": 3509,
      "qu": 3510,
      "¬¾": 3511,
      "Ġéĺ²": 3512,
      "Ġèĩ³": 3513,
      "ĠçĶ¨éĢĶ": 3514,
      "ĠçĶ²èĭ¯": 3515,
      "ĠæĢ§è´¨": 3516,
      "Ġis": 3517,
      "Ġåħīæ³½": 3518,
      "ĠåĪĿ": 3519,
      "åı°": 3520,
      "åĪ»": 3521,
      "åĲ¬": 3522,
      "æ°ĳ": 3523,
      "æĸŃ": 3524,
      "ĠæĶ": 3525,
      "åĮĢ": 3526,
      "çīĽ": 3527,
      "è¯»": 3528,
      "åĪĨæķ°": 3529,
      "åĴĮæİ¥": 3530,
      "åĴĮéŀĭ": 3531,
      "çĽĳ": 3532,
      "å®¹è®¸": 3533,
      "åº¦æ°¢": 3534,
      "èĦı": 3535,
      "¡æ¬¾": 3536,
      "éĺ²æĬ¤è£ħå¤ĩ": 3537,
      "è®Ń": 3538,
      "æĿ¡æ¬¾": 3539,
      "|----------------": 3540,
      "åĮĸåŃ¦å·¥ä¸ļ": 3541,
      "å¦ĤæĪ´éļĲå½¢çľ¼éķľ": 3542,
      "åħ¬åı¸æłĩè¯Ĩ": 3543,
      "åŁºæº¶åīĤ": 3544,
      "ä¸ĭçľ¼çĿĳ": 3545,
      "åķĨåĵģ": 3546,
      "åĤ¨åŃĺäºİ": 3547,
      "Ġäº§åĵģç±»åŀĭ": 3548,
      "é«ĺåº¦": 3549,
      "ä¼ļå¯¹åĻ¨å®ĺ": 3550,
      "åħ¶èĴ¸æ°Ķ": 3551,
      "ĠåĮĸåŃ¦ç»ĦæĪĲ": 3552,
      "æĬĢæľ¯å¼Ģåıĳ": 3553,
      "èĩ³æĸ°é²ľç©ºæ°Ķå¤Ħ": 3554,
      "çĻ»": 3555,
      "ĠæĪĸ": 3556,
      "æĵįä½ľæĹ¶": 3557,
      "æıĲåıĸ": 3558,
      "ĠäºĮæ°§åĮĸç¢³": 3559,
      "è¿ľç¦»çģ«æºĲ": 3560,
      "åħ¶ä»ĸåį±å®³": 3561,
      "ĠåºŁ": 3562,
      "ç»ĻäºĪ": 3563,
      "æľĢéĩįè¦ģ": 3564,
      "ç®Ķ": 3565,
      "åºķæ¼Ĩ": 3566,
      "è¯·å°±åĮ»": 3567,
      "è¿Ĳè¾ĵåĲįç§°": 3568,
      "éĿŀå¸¸": 3569,
      "ylene": 3570,
      "Ġcont": 3571,
      "ĠçĽ®": 3572,
      "ç»ĵæŀĦ": 3573,
      "å¾®ç²ī": 3574,
      "çģ«çģ¾æĹ¶": 3575,
      "çī¹åĪ«åį±éĻ©æĢ§": 3576,
      "è¾¾åĪ°": 3577,
      "Ġæµĭè¯ķé¡¹çĽ®": 3578,
      "è´¨éĩıçĻ¾åĪĨæ¯Ķ": 3579,
      "è´¨éĩıåĪĨæķ°": 3580,
      "ä¸ŃæĸĩåĲįç§°": 3581,
      "åı¯çĩĥæĢ§": 3582,
      "å¢ŀå¡ĳ": 3583,
      "Ġåħ¸åŀĭçī©": 3584,
      "èİ·åıĸ": 3585,
      "Ġthe": 3586,
      "æ¸ħæ°´åĨ²æ´Ĺèĩ³å°ĳ": 3587,
      "åİŁæĸĩæľª": 3588,
      "çĹħçĹĩçĬ¶æĪĸ": 3589,
      "æ¸ĹéĢıæĹ¶éĹ´": 3590,
      "åħ±èģļçī©": 3591,
      "å®īå®ļ": 3592,
      "ĠåĲŀåĴ½æľīå®³": 3593,
      "Ġéĺ²æĬ¤ç±»åŀĭ": 3594,
      "ç«ĭåį³åĳ¼åı«åĮ»çĶŁ": 3595,
      "åĽĽéĥ¨åĪĨ": 3596,
      "éĢģåĮ»": 3597,
      "å°½åı¯èĥ½": 3598,
      "è¿ĻäºĽ": 3599,
      "Ġéħ¸ä»·": 3600,
      "çªģ": 3601,
      "Ġæ¼±åı£": 3602,
      "GIH": 3603,
      "Ġæ¯ĴçĲĨåŃ¦ä¿¡æģ¯": 3604,
      "çº¤ç»´": 3605,
      "æī©æķ£": 3606,
      "åľ¨å®¤å¤ĸæĪĸ": 3607,
      "Ġç»ĵæŀľ": 3608,
      "éĶ®åŁºæº¶åīĤ": 3609,
      "dustri": 3610,
      "Ġçĩĥçĥ§": 3611,
      "éģĹä¼łæĢ§": 3612,
      "åı¯èĥ½å¯¼èĩ´è¿ĩæķıæĪĸåĵ®åĸĺ": 3613,
      "è±¡å½¢åĽ¾": 3614,
      "åº¦æ°¢éĶ®åŁºæº¶åīĤ": 3615,
      "çĹħçĹĩçĬ¶æĪĸåĳ¼åĲ¸åĽ°éļ¾": 3616,
      "åı¯èĥ½å¯¼èĩ´è¿ĩæķıæĪĸåĵ®åĸĺçĹħçĹĩçĬ¶æĪĸåĳ¼åĲ¸åĽ°éļ¾": 3617,
      "BK": 3618,
      "Fe": 3619,
      "TI": 3620,
      "VA": 3621,
      "]*": 3622,
      "ds": 3623,
      "iz": 3624,
      "ment": 3625,
      "mPa": 3626,
      "¿»": 3627,
      "Â²": 3628,
      "Ġf": 3629,
      "ĠÃĹ": 3630,
      "ĠçĶ²åŁº": 3631,
      "Ġèģļéħ¯æłĳèĦĤ": 3632,
      "ä¸ºæ": 3633,
      "æĢ§çĬ¶": 3634,
      "çĶ¨æ°´åĨ²æ´Ĺ": 3635,
      "éĩĮ": 3636,
      "åį¸": 3637,
      "èĥĥ": 3638,
      "æ°´åĪĨ": 3639,
      "åĲĪæł¼": 3640,
      "æĪĸèĢħ": 3641,
      "äº§åĵģæ¦Ĥè¿°": 3642,
      "èĦ¸": 3643,
      "éĺ²æĬ¤è¡£": 3644,
      "ä¹³": 3645,
      "ä¹ī": 3646,
      "åı¯èĥ½æľīå®³": 3647,
      "åıĬè¿Ľåħ¥åĳ¼åĲ¸éģĵåı¯èĥ½èĩ´åĳ½": 3648,
      "Ġç¬¬åĽĽéĥ¨åĪĨ": 3649,
      "æłĩæ³¨": 3650,
      "è£Ĥ": 3651,
      "çī¹å¼ĤæĢ§éĿ¶åĻ¨å®ĺ": 3652,
      "è§Ħç«ł": 3653,
      "é«ĺæµĵåº¦": 3654,
      "ç¨ł": 3655,
      "éĿ¢æ¼Ĩ": 3656,
      "éĢłæĪĲä¸¥éĩįçľ¼æįŁä¼¤": 3657,
      "èµ·çľ¼çĿĳ": 3658,
      "å¹¶ä¸Ķ": 3659,
      "ä¸ºå¯¹": 3660,
      "ç©ºæ°Ķåĳ¼åĲ¸åĻ¨": 3661,
      "ä¸Ĭä¸ĭçľ¼çĿĳ": 3662,
      "ĠBL": 3663,
      "ĠTR": 3664,
      "æ±¡æŁĵçī©": 3665,
      "éļĨ": 3666,
      "åģļ": 3667,
      "å·¥ä¸ļæ¶ĤæĸĻ": 3668,
      "ĠäºĮæ°§åĮĸ": 3669,
      "ä¸Ļçĥ¯": 3670,
      "ä¸ĻåŁºéħ¯": 3671,
      "ĠKCS": 3672,
      "å°ıéĩıæ³Ħæ¼ı": 3673,
      "Ġçī¹åĪ«": 3674,
      "ä¸īåħĥ": 3675,
      "Ġç²Ĵ": 3676,
      "åĿĩåĮĢ": 3677,
      "çº§åĪ«": 3678,
      "åĸ·æ°´": 3679,
      "ä»£è¡¨": 3680,
      "è¢«æ±¡æŁĵçļĦè¡£æľį": 3681,
      "ĠæĢ¥æĢ§ç»ıåı£": 3682,
      "ĠåĤ¨åŃĺæĿ¡ä»¶": 3683,
      "å°Ĩå®¹åĻ¨": 3684,
      "æ¹¾": 3685,
      "ĠåĬ¨": 3686,
      "å®¤æ¸©": 3687,
      "Ġä¹Ļèĭ¯": 3688,
      "ĠéĢłæĪĲä¸¥éĩįçľ¼æįŁä¼¤": 3689,
      "Ġæ²¹": 3690,
      "ellos": 3691,
      "olve": 3692,
      "çī©çĲĨåıĬ": 3693,
      "ç«Ļ": 3694,
      "æ±ĤåĮ»çĸĹ": 3695,
      "ĠGHSåį±éĻ©æĢ§ç±»åĪ«": 3696,
      "Ġç¨ĢéĩĬ": 3697,
      "ĠETERPHEN": 3698,
      "ĠæĪ´éĺ²æĬ¤æīĭå¥Ĺ": 3699,
      "ĠæĹłèī²æ¶²ä½ĵ": 3700,
      "Ġç´§æĢ¥çĶµè¯Ŀ": 3701,
      "å¦Ĥæľīä¸įéĢĤ": 3702,
      "æĢ¥æķĳä¸Ńå¿ĥ": 3703,
      "Ġä¼ģä¸ļåĲįç§°": 3704,
      "mpl": 3705,
      "å§ĭ": 3706,
      "æµ®åŀĭ": 3707,
      "Ġæīĭéĺ²æĬ¤": 3708,
      "Ġä¸Ļçĥ¯éħ¸": 3709,
      "ä¸¥ç¦ģ": 3710,
      "ĠåİŁ": 3711,
      "åįĹéĢļä½ıåıĭçĶµæľ¨æľīéĻĲåħ¬åı¸": 3712,
      "ĠCHE": 3713,
      "ĠSolvent": 3714,
      "æ¥¼": 3715,
      "çıł": 3716,
      "å¯»æ±ĤåĮ»çĸĹ": 3717,
      "ĠæłĩçŃ¾è¦ģç´ł": 3718,
      "ä¿ĿæĮģåĳ¼åĲ¸èĪĴéĢĤ": 3719,
      "çĨŁ": 3720,
      "Ġæ¬§": 3721,
      "å·¥ç¨ĭæİ§åĪ¶": 3722,
      "å®¹è®¸æµĵåº¦": 3723,
      "ĠåºŁå¼ĥ": 3724,
      "éģĹä¼łæĢ§ç¼ºéĻ·": 3725,
      "ellosolve": 3726,
      "(%)": 3727,
      "CR": 3728,
      "TR": 3729,
      "ht": 3730,
      "ra": 3731,
      "ub": 3732,
      "¡ĳ": 3733,
      "¨¡": 3734,
      "¯æĽ²": 3735,
      "å»º": 3736,
      "çĵ": 3737,
      "Ġv": 3738,
      "Ġåħ¬åı¸": 3739,
      "Ġä»¥": 3740,
      "Ġéĩĳå±ŀ": 3741,
      "ĭ¬": 3742,
      "Ļåİ¿": 3743,
      "åıĶ": 3744,
      "Ġå¡ĳ": 3745,
      "ĠæŁ": 3746,
      "Ġç³": 3747,
      "çļĦäººåĳĺ": 3748,
      "ç»ľ": 3749,
      "å°¤": 3750,
      "æ³Ľ": 3751,
      "èĤ¾": 3752,
      "çĽĺ": 3753,
      "æºħ": 3754,
      "éħ¸çĽĲ": 3755,
      "åĩºæ": 3756,
      "åħ¨éĥ¨": 3757,
      "éĨĩéħ¸": 3758,
      "çĶµåĻ¨": 3759,
      "åį±éĻ©çī¹æĢ§": 3760,
      "ä¸İåİĤåķĨ": 3761,
      "ä¸ĢæŃ¥": 3762,
      "Ġç¬¬äºĶéĥ¨åĪĨ": 3763,
      "Ġåį·": 3764,
      "åľ°ä¸ĭ": 3765,
      "è£ħçī©": 3766,
      "çĤ¹çĩĥ": 3767,
      "åĤ¨åŃĺåĴĮ": 3768,
      "åĤ¨åŃĺæ¸©åº¦": 3769,
      "Ġäº§åĵģä¿¡æģ¯": 3770,
      "çģŃçģ«æ³¨æĦıäºĭé¡¹": 3771,
      "ĠSTP": 3772,
      "è¿Ľä¸ĢæŃ¥": 3773,
      "èĢĲåĮĸåŃ¦åĵģ": 3774,
      "ĠæĺĨ": 3775,
      "æ¯Ķä¾ĭ": 3776,
      "ç´«": 3777,
      "ç´¯": 3778,
      "ç¢³æ°§åĮĸçī©": 3779,
      "æµģåħ¥": 3780,
      "ç«ĭåį³èĦ±æİīæīĢæľī": 3781,
      "ä½İäºİ": 3782,
      "ä¼ģä¸ļåĲįç§°": 3783,
      "æ¼ĨèĨľ": 3784,
      "ç²ĺç»ĵ": 3785,
      "éķ¿æĹ¶éĹ´": 3786,
      "etal": 3787,
      "æĮĩç¤º": 3788,
      "åĨħè£ħçī©": 3789,
      "å¸¸çĨŁ": 3790,
      "å¹²çĩ¥å¤Ħ": 3791,
      "åĿĩèģļçī©": 3792,
      "éĢĤçĶ¨çģŃçģ«åīĤ": 3793,
      "æĺıçĿ¡æĪĸçľ©æĻķ": 3794,
      "Ġå¦Ĥçļ®èĤ¤": 3795,
      "Ġå¦Ĥè¯¯": 3796,
      "å½¢æĪĲç²īå°ĺ": 3797,
      "ĠFDA": 3798,
      "éķ¿æľŁæİ¥è§¦": 3799,
      "Ġch": 3800,
      "Ġæ°´åĪĨ": 3801,
      "ility": 3802,
      "ĠVin": 3803,
      "çĶ¨æ°´å°ıå¿ĥåĨ²æ´ĹåĩłåĪĨéĴŁ": 3804,
      "ĠUN": 3805,
      "isp": 3806,
      "éĨĭéħ¸éħ¯": 3807,
      "£Ģæµĭ": 3808,
      "ä¿Ŀè¯ģæĪĸ": 3809,
      "Ġé«ĺåĪĨåŃĲéĩı": 3810,
      "ç»Ĩç²Ĵå¾Ħ": 3811,
      "äº¤ä»ĺ": 3812,
      "åĪĩåĭ¿ç»Ļ": 3813,
      "æķ´çĲĨæĹ¥æľŁ": 3814,
      "Ġç¦ģéħįçī©": 3815,
      "æº¶äºİæ°´": 3816,
      "åĲĦç§į": 3817,
      "æº¶è§£åº¦": 3818,
      "Ġåĳ¼åĲ¸ç³»ç»Ł": 3819,
      "éĺ²éĿĻçĶµæİªæĸ½": 3820,
      "æŃ£åİĭèĩªç»Ļå¼ıåĳ¼åĲ¸åĻ¨": 3821,
      "æ¸ħéĻ¤æĸ¹æ³ķ": 3822,
      "atings": 3823,
      "ç»ıæµİæĬĢæľ¯å¼Ģåıĳ": 3824,
      "å°ģéĹŃåŀĭ": 3825,
      "ĠpHåĢ¼": 3826,
      "çĥĪåıįåºĶ": 3827,
      "esso": 3828,
      "çĽ¸å½ĵè¿ľ": 3829,
      "ĠçĽ¸å¯¹å¯Ĩåº¦": 3830,
      "èĦĤèĤªæĹıèģļå¼Ĥæ°°éħ¸éħ¯": 3831,
      "ĠæıĲé«ĺ": 3832,
      "Ġçİ¯å¢ĥåį±å®³": 3833,
      "èĻĳ": 3834,
      "èĢĲåĢĻæĢ§": 3835,
      "æ°´å½»åºķåĨ²æ´Ĺèĩ³å°ĳ": 3836,
      "æĶ¯æĮģ": 3837,
      "çļĦçĹĩçĬ¶åĴĮ": 3838,
      "Ġéĥ¨åĪĨ": 3839,
      "ĠåĪĿæ²¸çĤ¹": 3840,
      "ä¸İåİĤåķĨèµĦæĸĻ": 3841,
      ":---": 3842,
      "BA": 3843,
      "FDA": 3844,
      "HO": 3845,
      "LF": 3846,
      "LV": 3847,
      "PM": 3848,
      "iO": 3849,
      "nex": 3850,
      "oc": 3851,
      "tern": 3852,
      "±åĴĮ": 3853,
      "´åĲĪ": 3854,
      "¼çĹĽ": 3855,
      "Â¹": 3856,
      "åĹ": 3857,
      "æ¨¡": 3858,
      "çĭ¬": 3859,
      "Ġä¸ģéĨĩ": 3860,
      "Ġèĩª": 3861,
      "Ġor": 3862,
      "Ġçļ®èĤ¤åĪºæ¿Ģ": 3863,
      "Ġéĩĩåıĸ": 3864,
      "ĠéĢıæĺİæ¶²ä½ĵ": 3865,
      "Ġfor": 3866,
      "ĠæĢĢçĸĳ": 3867,
      "ĠèģĶåĲĪåĽ½": 3868,
      "ĢèıĮ": 3869,
      "Įåħ¨": 3870,
      "ıæķ£": 3871,
      "ĳå¼Ģ": 3872,
      "ä¸°": 3873,
      "ä¸ĥ": 3874,
      "æ°®": 3875,
      "ĠæĴ": 3876,
      "å®Ī": 3877,
      "ï¼ĪÂ°": 3878,
      "çļĦæĿ¡ä»¶": 3879,
      "çļĦä¿ĿæĬ¤": 3880,
      "è¯¦": 3881,
      "åįĩ": 3882,
      "åĮĸæķ°æį®": 3883,
      "**ï¼ļ+": 3884,
      "åĴĮå®īåħ¨": 3885,
      "åı¯éĢłæĪĲ": 3886,
      "åı¯çĶ¨äºİ": 3887,
      "ä¿ĥ": 3888,
      "æĪĸåħ¶ä»ĸ": 3889,
      "ine": 3890,
      "ä¸Ńè·¯": 3891,
      "å¤Ħäºİ": 3892,
      "æİ¥è§¦æİ§åĪ¶": 3893,
      "æĿŁ": 3894,
      "åĩı": 3895,
      "ä¿Ŀæļĸ": 3896,
      "æĸ½å·¥": 3897,
      "åı¯èĥ½èĩ´çĻĮ": 3898,
      "æī«": 3899,
      "|------|:--------": 3900,
      "ĠCN": 3901,
      "åĮĸåŃ¦çī©è´¨": 3902,
      "æ¸ħæ´ģ": 3903,
      "èī²æ¶²ä½ĵ": 3904,
      "ĠHY": 3905,
      "å¤§çģ«": 3906,
      "å¤§äºİ": 3907,
      "SDSç¼ĸåı·": 3908,
      "åķĨä¸ļ": 3909,
      "å¿Į": 3910,
      "çģŃçģ«æİªæĸ½": 3911,
      "anco": 3912,
      "ĠSpec": 3913,
      "çĥŃåĪĨè§£": 3914,
      "èĢĲæº¶åīĤ": 3915,
      "esist": 3916,
      "çĬ¶åĨµ": 3917,
      "Ġåį±éĻ©ç±»åĪ«": 3918,
      "æľīå®³çī©è´¨": 3919,
      "æľīå®³æĪĲåĪĨ": 3920,
      "æ¯Ķéĩį": 3921,
      "ĠEth": 3922,
      "Ġä¸įæ··æº¶": 3923,
      "æīĭéĺ²æĬ¤": 3924,
      "âĤĢ": 3925,
      "æĶ¶è®¾å¤ĩæİ¥åľ°": 3926,
      "ĠæĹłèµĦæĸĻ": 3927,
      "å·¥ä¸ļçĶ¨éĢĶ": 3928,
      "çĸ¼çĹĽ": 3929,
      "ç²ĺåĲĪåīĤ": 3930,
      "Ġå¤§": 3931,
      "Ġå®Įåħ¨": 3932,
      "Ġæº¶äºİ": 3933,
      "åĩĨç¡®": 3934,
      "æľĢå¤§": 3935,
      "Ġproduct": 3936,
      "é²ģ": 3937,
      "ING": 3938,
      "Ġçī©åĵģ": 3939,
      "åİŁæĸĻ": 3940,
      "Ġçī¹å®ļ": 3941,
      "å°ĳéĩı": 3942,
      "åĨħéħ°èĥº": 3943,
      "åħ·æľīèī¯å¥½çļĦ": 3944,
      "è¶Ĭ": 3945,
      "ç¡®è®¤": 3946,
      "å¼ºéħ¸": 3947,
      "Ġå°ı": 3948,
      "ĠæĮī": 3949,
      "ĠæĮ¥åıĳ": 3950,
      "åĳ¼åı«åĮ»çĶŁ": 3951,
      "åĳ¼åı«è§£æ¯Ĵä¸Ńå¿ĥæĪĸåĮ»çĶŁ": 3952,
      "Ġæº¶åīĤåŀĭ": 3953,
      "ä¸Ĭæµ·æħ§æĸ°åĮĸå·¥æľīéĻĲåħ¬åı¸": 3954,
      "ĠéĢłæĪĲä¸¥éĩįçľ¼åĪºæ¿Ģ": 3955,
      "æ¶Īæ³¡": 3956,
      "ĠCASåı·çłģ": 3957,
      "Ġæ²¡æľī": 3958,
      "ä¸ĵéĹ¨": 3959,
      "Ġæ·¡é»Ħèī²": 3960,
      "ĠåĮħè£ħè§Ħæł¼": 3961,
      "ç¨ĢéĩĬåīĤ": 3962,
      "Ġé¢ľæĸĻ": 3963,
      "æľ¨åĻ¨": 3964,
      "çķħéĢļ": 3965,
      "åŁºæ©¡èĥ¶": 3966,
      "éĨĭéħ¸ä¹Ļçĥ¯": 3967,
      "æĳĦåħ¥": 3968,
      "å¹¿æ³Ľ": 3969,
      "éĵģæ¡¶": 3970,
      "ĠåŃĺæĶ¾åľ¨éĢļé£İèī¯å¥½çļĦåľ°æĸ¹": 3971,
      "Ġç½ĳ": 3972,
      "èĬ³é¦ĻæĹı": 3973,
      "æĪĳä»¬çļĦ": 3974,
      "Ġç§ĳ": 3975,
      "èĬ³çĥĥæº¶åīĤ": 3976,
      "|------|--------|": 3977,
      "ä¸īèģļæ°°èĥºçĶ²éĨĽæłĳèĦĤ": 3978,
      "çłĶåıĳ": 3979,
      "çĨĶèŀį": 3980,
      "åħįè´£å£°æĺİ": 3981,
      "Ġå°ĨæĤ£èĢħç§»èĩ³": 3982,
      "ĠYellow": 3983,
      "ĠACumist": 3984,
      "å®īåħ¨èµĦæĸĻè¡¨": 3985,
      "ĠçĶŁæ®ĸæ¯ĴæĢ§": 3986,
      "å¾ªçİ¯": 3987,
      "Ġå®īå¾½": 3988,
      "Ġéķ¿åħ´æĿĲæĸĻå·¥ä¸ļèĤ¡ä»½æľīéĻĲåħ¬åı¸": 3989,
      "å®ŀéªĮå®¤": 3990,
      "Ġæ´»æĢ§": 3991,
      "ĠçĽ®æµĭ": 3992,
      "Ġåħ¸åŀĭçī©åĮĸæķ°æį®": 3993,
      "çī¹å¼ĤæĢ§éĿ¶åĻ¨å®ĺæ¯ĴæĢ§": 3994,
      "ç¨łæ¶²ä½ĵ": 3995,
      "ĠåºŁå¼ĥå¤Ħç½®": 3996,
      "åıĶä¸ģåŁº": 3997,
      "Ġç³»": 3998,
      "å°¤åħ¶": 3999,
      "EA": 4000,
      "NF": 4001,
      "RC": 4002,
      "XID": 4003,
      "YL": 4004,
      "dong": 4005,
      "ium": 4006,
      "umin": 4007,
      "ºçĹĽ": 4008,
      "æ£": 4009,
      "æ§½": 4010,
      "æ½ľåľ¨": 4011,
      "çĲ": 4012,
      "èĽ": 4013,
      "Ġæľī": 4014,
      "Ġéħ¸åĢ¼": 4015,
      "ĠèģļåĲĪçī©": 4016,
      "ħ¢æĢ§": 4017,
      "ĩæ³¨": 4018,
      "įè´£å£°æĺİ": 4019,
      "ĲæĸĻ": 4020,
      "åĪºçĹĽ": 4021,
      "Ġåĩ": 4022,
      "Ġæħ¢æĢ§": 4023,
      "æĢ§ä¸İ": 4024,
      "çļĦåĪĨç±»": 4025,
      "çļĦçİ¯å¢ĥ": 4026,
      "çļĦå½±åĵį": 4027,
      "æĪ¿": 4028,
      "åĪĨæŀ": 4029,
      "éĺ²æ¯Ĵ": 4030,
      "åĮĸçĤ¹": 4031,
      "åĲ¸æ°§": 4032,
      "å°¼": 4033,
      "æ³°": 4034,
      "ä¸įåĲĮ": 4035,
      "äº§åĵģè§Ħæł¼": 4036,
      "æµ¦": 4037,
      "éħ¸äºĮ": 4038,
      "æĿ¾": 4039,
      "æĿĢèıĮ": 4040,
      "åĩ¹": 4041,
      "åĩ»": 4042,
      "æīĺ": 4043,
      "ä¸ģèħĪ": 4044,
      "å¾Ī": 4045,
      "ä¸İæĢ§çĬ¶": 4046,
      "æ±¡": 4047,
      "æ±Łèĭı": 4048,
      "åĢĴ": 4049,
      "çĩĥæ¸©åº¦": 4050,
      "ĠPoly": 4051,
      "æłĳèĦĤçļĦ": 4052,
      "åĪ¶å¤ĩ": 4053,
      "èģļçĥ¯çĥĥ": 4054,
      "Ġç¬¬åħŃ": 4055,
      "æŃ£ç¡®": 4056,
      "åľ°éĿ¢": 4057,
      "å¿Ĺ": 4058,
      "è§Ħç¨ĭ": 4059,
      "å¯¹çĶŁèĤ²èĥ½åĬĽæĪĸèĥİåĦ¿éĢłæĪĲä¼¤å®³": 4060,
      "é£İéĻ©": 4061,
      "æ¶ĤæĸĻçļĦ": 4062,
      "é«ĺçļĦ": 4063,
      "é«ĺæ¸©": 4064,
      "é«ĺåĪĨåŃĲ": 4065,
      "ä¹ĻéĨĩ": 4066,
      "ä¹ĻäºĮéĨĩ": 4067,
      "ä¼ļå½±åĵį": 4068,
      "æĹłæ³ķ": 4069,
      "è½¯": 4070,
      "è½½": 4071,
      "å¹¶å°±åĮ»": 4072,
      "å½¢æĢģ": 4073,
      "è¯ĨåĪ«": 4074,
      "å¤ĦçĲĨæĸ¹æ³ķ": 4075,
      "èĭ¯å¹¶": 4076,
      "åĪ°æĸ°é²ľç©ºæ°Ķå¤Ħ": 4077,
      "åĪ°çİ¯å¢ĥä¸Ń": 4078,
      "æįŁåĿı": 4079,
      "ĠåĮĸåŃ¦åĵģèĭ±æĸĩ": 4080,
      "ç«ĭåį³è¿Ľè¡Įäººå·¥åĳ¼åĲ¸": 4081,
      "æ³¨åĨĮ": 4082,
      "åį±éĻ©æĢ§åĪĨç±»": 4083,
      "åħīæĢ§": 4084,
      "éĹŃæĿ¯": 4085,
      "èģĶç»ľ": 4086,
      "åĪĨåŃĲå¼ı": 4087,
      "æ¬¡æ": 4088,
      "æľĢä½³": 4089,
      "ç¾§": 4090,
      "æĮĩåįĹ": 4091,
      "Ġåħįè´£å£°æĺİ": 4092,
      "æ¸ħæ´ĹåĲİæĸ¹åı¯éĩįæĸ°ä½¿çĶ¨": 4093,
      "é¢ĦæľŁ": 4094,
      "å¸Ĥç»ıæµİæĬĢæľ¯å¼Ģåıĳ": 4095,
      "çĶŁäº§ä¼ģä¸ļ": 4096,
      "ĠçĶ¨æ°´": 4097,
      "åħ·æľīä¼ĺå¼ĤçļĦ": 4098,
      "éĢĤçĶ¨æĢ§": 4099,
      "ç¦ģæŃ¢åĤ¬åĲĲ": 4100,
      "å¡«": 4101,
      ":------:|": 4102,
      "æ°¯åĮĸ": 4103,
      "å¤ļç§į": 4104,
      "Ġçİ»çĴĥ": 4105,
      "é£Łåĵģæ·»åĬłåīĤ": 4106,
      "æİĴæ°´": 4107,
      "æĲ¬": 4108,
      "åıĺæĢ§": 4109,
      "MIS": 4110,
      "MIBK": 4111,
      "é¥®æ°´": 4112,
      "åĲ¸æĶ¶æĿĲæĸĻ": 4113,
      "çĿ¡æĪĸæĻķçľ©": 4114,
      "Ġèī²åº¦": 4115,
      "Ġåįģä¸Ģ": 4116,
      "éĩĩåıĸéĺ²éĿĻçĶµæİªæĸ½": 4117,
      "Ġä¸İçİ¯æ°§æłĳèĦĤ": 4118,
      "Ġæ±Łèĭı": 4119,
      "ĠæĿĲæĸĻ": 4120,
      "çĶ¨èĤ¥çļĤæ°´åĴĮ": 4121,
      "æĳ©": 4122,
      "æĳĺ": 4123,
      "OLO": 4124,
      "æº¶è§£æĢ§": 4125,
      "åįİä¼": 4126,
      "æŀĦæĪĲ": 4127,
      "Ġåı¯èĥ½éĢłæĪĲæĺıæĺıæ¬²çĿ¡æĪĸçľ©æĻķ": 4128,
      "Ġç¼ĸåı·": 4129,
      "åĨħå®¹ä¾Ŀæį®": 4130,
      "åħħåĪĨéĢļé£İ": 4131,
      "å®¢æĪ·æľįåĬ¡": 4132,
      "ä¸¥æł¼": 4133,
      "æ¸ħçĲĨæĸ¹æ³ķ": 4134,
      "Ġå±±": 4135,
      "Ġç¦ģæŃ¢åĤ¬åĲĲ": 4136,
      "åł¤": 4137,
      "æī¹åĩĨ": 4138,
      "ĠACGIH": 4139,
      "åį°åĪ·æ²¹å¢¨": 4140,
      "ä½Ľå±±": 4141,
      "éģµå®Ī": 4142,
      "åıĹå®³äººè½¬ç§»åĪ°ç©ºæ°Ķæĸ°é²ľå¤Ħ": 4143,
      "Chemie": 4144,
      "Ġæ¾Ħæ¸ħéĢıæĺİ": 4145,
      "è¯·åıĤéĺħ": 4146,
      "Ġè¿ħéĢŁèĦ±ç¦»çİ°åľºèĩ³ç©ºæ°Ķæĸ°é²ľå¤Ħ": 4147,
      "æĢĿåĪĽ": 4148,
      "Ġå¸¸å·ŀ": 4149,
      "ĠåŁºäºİæĢ»éħįæĸ¹": 4150,
      "Ġç¼ĸåĪ¶ä¾Ŀæį®": 4151,
      "æķ°æį®é¡µæĽ´æĸ°": 4152,
      "åĮ»çĶŁçļĦçī¹åĪ«": 4153,
      "çĶ¨æ°´æ¸ħæ´Ĺçļ®èĤ¤": 4154,
      "Ġçİ¯å·±éħ®": 4155,
      "é«ĺçĥŃèĥ½å¼ķèµ·çĩĥçĥ§çĪĨçĤ¸": 4156,
      "åĴĮæİ¥æĶ¶è®¾å¤ĩæİ¥åľ°": 4157,
      "çĻ»è®°": 4158,
      "æľĢéĩįè¦ģçļĦçĹĩçĬ¶åĴĮ": 4159,
      "XIDE": 4160,
      "åĪĨæŀĲ": 4161,
      "Ġç¬¬åħŃéĥ¨åĪĨ": 4162,
      "%ãĢĤ": 4163,
      "Desmo": 4164,
      "EP": 4165,
      "MR": 4166,
      "PH": 4167,
      "PI": 4168,
      "PMA": 4169,
      "REACH": 4170,
      "TAN": 4171,
      "UK": 4172,
      "eong": 4173,
      "ham": 4174,
      "ia": 4175,
      "ve": 4176,
      "vest": 4177,
      "well": 4178,
      "yc": 4179,
      "yd": 4180,
      "ywell": 4181,
      "´æİ¥": 4182,
      "¿çī©": 4183,
      "¿åĬ¿": 4184,
      "èĶ": 4185,
      "Ġar": 4186,
      "ĠéĢĶå¾Ħ": 4187,
      "Ġæľ¬äº§åĵģ": 4188,
      "ĠèŃ¦åĳĬ": 4189,
      "Ġä¿Ŀè´¨æľŁ": 4190,
      "Ġæ°¯ä¹Ļçĥ¯": 4191,
      "Ġåıªèĥ½": 4192,
      "Ġåħ¬æĸ¤": 4193,
      "ģå¹³": 4194,
      "åı¶": 4195,
      "åĪĴ": 4196,
      "Ġåĵ": 4197,
      "çļĦéĺ²æĬ¤": 4198,
      "çļĦå®¹åĻ¨": 4199,
      "éĺ»": 4200,
      "åŃĹ": 4201,
      "|-------|": 4202,
      "è¿ĺ": 4203,
      "è¿Ł": 4204,
      "éĨĴ": 4205,
      "çī©æĪĲåĪĨ": 4206,
      "æĺĨ": 4207,
      "Ġé¥": 4208,
      "æ°´ä¸Ń": 4209,
      "æ³ª": 4210,
      "ï¼ĽâĹı": 4211,
      "ä¸įå½±åĵį": 4212,
      "ä¸įæŀĦæĪĲ": 4213,
      "éĩıæ¸©æ°´": 4214,
      "ĠâĹ": 4215,
      "è´Ń": 4216,
      "éħ¸æĢ§": 4217,
      "åĨ°": 4218,
      "æľ¬æĸĩ": 4219,
      "å¤Ħä½¿çĶ¨": 4220,
      "æİ¥è§¦åĪ°": 4221,
      "åĪ«åĲį": 4222,
      "æ´ĭ": 4223,
      "éĿ´": 4224,
      "åĪºæ¿Ģçļ®èĤ¤": 4225,
      "åĢ¾": 4226,
      "åıĬå®īåħ¨æĬĢæľ¯è¯´æĺİä¹¦": 4227,
      "åľ¨ç©ºæ°Ķä¸Ń": 4228,
      "æ²³": 4229,
      "æ²Ł": 4230,
      "ä¸Ģå®ļ": 4231,
      "åĲ¸åħ¥åį±å®³": 4232,
      "æ¸ħæ¼Ĩ": 4233,
      "åľ°è¡¨": 4234,
      "åĤ¨åŃĺæĿ¡ä»¶": 4235,
      "Ġäº§åĵģæķ°æį®è¡¨": 4236,
      "çººç»ĩ": 4237,
      "ana": 4238,
      "ĠSE": 4239,
      "ĠSt": 4240,
      "ç¦»åŃĲ": 4241,
      "ata": 4242,
      "atic": 4243,
      "æ¯ĴæĢ§ç±»åĪ«": 4244,
      "çĬ¶æ°´": 4245,
      "ĠGR": 4246,
      "å¤ĦçĲĨçļĦ": 4247,
      "æīĢæıĲä¾ĽçļĦ": 4248,
      "æľīå®³çļĦ": 4249,
      "æľīå®³å¹¶åħ·æľīéķ¿æľŁæĮģç»Ńå½±åĵį": 4250,
      "å¼ıéĿ¢ç½©": 4251,
      "ĠEP": 4252,
      "æµģæ³ª": 4253,
      "ĠAc": 4254,
      "art": 4255,
      "éļĶ": 4256,
      "è¿ĲåĬ¨": 4257,
      "ĠRoad": 4258,
      "Ġæµ·": 4259,
      "Ġæµģå¹³": 4260,
      "Ġåį±éĻ©æĢ§åĪĨç±»": 4261,
      "Ġå®¹": 4262,
      "ç»ıè¿ĩ": 4263,
      "çĥ§ä¼¤": 4264,
      "ĠLI": 4265,
      "äº§çĶŁç²īå°ĺ": 4266,
      "å±ŀæĢ§": 4267,
      "ç²īå°ĺçĪĨçĤ¸": 4268,
      "ç½©åħī": 4269,
      "Ġåı¯çĩĥ": 4270,
      "æĻĴ": 4271,
      "è¡¨éĿ¢å¼ł": 4272,
      "ĠåĲ¸åħ¥æĢ§": 4273,
      "Ġä¸Ģæ°§åĮĸç¢³": 4274,
      "Ġåı¯èĥ½èĩ´çĻĮ": 4275,
      "è¢«æ±¡æŁĵçļĦè¡£çī©": 4276,
      "éĨļæĶ¹æĢ§": 4277,
      "æ°´çĶŁçİ¯å¢ĥ": 4278,
      "ä¹ĭåīį": 4279,
      "èĭ¥åıĳçĶŁ": 4280,
      "èĭ¥åĳ¼åĲ¸åĽ°éļ¾": 4281,
      "çĶ¨å¤§éĩıçļĦ": 4282,
      "éĺ²èĮĥæİªæĸ½": 4283,
      "å¡ĳæĢ§": 4284,
      "éĻĦçĿĢåĬĽåĴĮ": 4285,
      "ĠåĬ©": 4286,
      "Ġå¼º": 4287,
      "ĠSDSç¼ĸåı·": 4288,
      "åı¯èĥ½ä¼ļå¯¼èĩ´": 4289,
      "åıĺåĮĸ": 4290,
      "å¿ħé¡»ä½¿çĶ¨": 4291,
      "ä¸ĵåĪ©": 4292,
      "æħ¢": 4293,
      "Ġæº¶è§£åº¦": 4294,
      "åį°æ²¹å¢¨": 4295,
      "æº¶æĢ§æ³¡æ²«": 4296,
      "çī©çĲĨåį±éĻ©": 4297,
      "ç§¯ç´¯": 4298,
      "è¶³éĩıæ¸©æ°´": 4299,
      "å¢ŀåĬł": 4300,
      ":|:-------------": 4301,
      "ä¸įå¾Ĺè¿Ľé£Ł": 4302,
      "Ġçī©çĲĨçĬ¶æĢģ": 4303,
      "Ġto": 4304,
      "åİŁæĸĩæķ´çĲĨ": 4305,
      "éĴĽçĻ½ç²ī": 4306,
      "æĺ¾èĳĹ": 4307,
      "åĽŀçĩĥ": 4308,
      "ĠhPa": 4309,
      "Ġç¾Ł": 4310,
      "æĢ¥æķĳäººåĳĺ": 4311,
      "ĠåĽºä½ĵåĲ«éĩı": 4312,
      "oneywell": 4313,
      "henol": 4314,
      "Ġç²īå°ĺ": 4315,
      "å§¿åĬ¿": 4316,
      "Ġä¸ĻäºĮéĨĩçĶ²éĨļ": 4317,
      "åħĶåŃĲ": 4318,
      "ĠçĶŁäº§ä¼ģä¸ļ": 4319,
      "Ġæ¹Ľæĸ°æłĳèĦĤ": 4320,
      "åİļåº¦": 4321,
      "ETERKYD": 4322,
      "ĠéĴĽ": 4323,
      "Ġ(%)**": 4324,
      "aterial": 4325,
      "ç½Ĳå¤´æ¶ĤæĸĻ": 4326,
      "OCK": 4327,
      "æ¬§çĽŁ": 4328,
      "è¢«åĪĨç±»ä¸º": 4329,
      "å¹¶åı¯æĸ¹ä¾¿": 4330,
      "rock": 4331,
      "Ġé¢Ħéĺ²": 4332,
      "å¦ĤæĪ´éļĲå½¢çľ¼éķľå¹¶åı¯æĸ¹ä¾¿": 4333,
      "åİŁæĸĩæľªæłĩæ³¨": 4334,
      "dustrial": 4335,
      "VAH": 4336,
      "Ġç²Ĵå¾Ħ": 4337,
      "çıłæµ·": 4338,
      "ç²ĺç»ĵåīĤ": 4339,
      "æ¨¡ç³Ĭ": 4340,
      "åĮĸåŃ¦çī©è´¨åĲįå½ķ": 4341,
      "çłĶåıĳä¸Ńå¿ĥ": 4342,
      "åĮ»çĶŁçļĦçī¹åĪ«æıĲç¤º": 4343,
      "hamrock": 4344,
      "vestro": 4345,
      "è¡¨éĿ¢å¼łåĬĽ": 4346,
      ")-": 4347,
      ":/": 4348,
      "BT": 4349,
      "Em": 4350,
      "Hg": 4351,
      "HRJ": 4352,
      "NG": 4353,
      "SA": 4354,
      "ap": 4355,
      "ber": 4356,
      "ho": 4357,
      "iox": 4358,
      "lor": 4359,
      "ry": 4360,
      "ryl": 4361,
      "tp": 4362,
      "ttp": 4363,
      "ue": 4364,
      "yz": 4365,
      "¦å°Ķ": 4366,
      "®å·¥": 4367,
      "Â±": 4368,
      "Ġat": 4369,
      "Ġä½İ": 4370,
      "Ġst": 4371,
      "Ġæĸĩä»¶": 4372,
      "Ġä¾Ŀæį®": 4373,
      "ĠåıĤæķ°": 4374,
      "ĠãĢĬ": 4375,
      "ĠèģĮä¸ļæİ¥è§¦éĻĲåĢ¼": 4376,
      "ģéĹŃ": 4377,
      "Ħı": 4378,
      "ī´": 4379,
      "įå°¼": 4380,
      "ĵå»¶": 4381,
      "ĺæ²¹": 4382,
      "Ļ®å·¥": 4383,
      "çĶĺæ²¹": 4384,
      "åħ«": 4385,
      "æ°Ł": 4386,
      "Ġæĳ": 4387,
      "ï¼ĪâĦĥï¼ī": 4388,
      "Ġç¢": 4389,
      "Ġç¿»": 4390,
      "æĢ§åĪºæ¿Ģ": 4391,
      "çļĦä¿¡æģ¯": 4392,
      "éĺŁ": 4393,
      "éĻĪ": 4394,
      "éĺ²çģ«": 4395,
      "æľīåĪºæ¿ĢæĢ§": 4396,
      "èĥŀ": 4397,
      "ç»ĥ": 4398,
      "æ°´åīĤ": 4399,
      "æ°´çİ¯å¢ĥ": 4400,
      "æ°´å¹³": 4401,
      "æ°´çĶĺæ²¹": 4402,
      "æ³¥": 4403,
      "çģ«åĬ¿": 4404,
      "ç±»æłĳèĦĤ": 4405,
      "æĪĸæľī": 4406,
      "æĪĸéĩįå¤į": 4407,
      "ä¸įéľĢè¦ģ": 4408,
      "æİ¥åıĹ": 4409,
      "å®¹æĺĵ": 4410,
      "è´¹": 4411,
      "çİ¯ä¿Ŀ": 4412,
      "æ·±": 4413,
      "è®º": 4414,
      "çļ®èĤ¤èĩ´æķı": 4415,
      "ä¹¡": 4416,
      "ä¹ħ": 4417,
      "ä¿ĿåŃĺåľ¨": 4418,
      "éĿł": 4419,
      "æĸ½æķĳ": 4420,
      "åĬłçĥŃ": 4421,
      "ä¸ģéĨļ": 4422,
      "èµ°": 4423,
      "äºĮå¼Ĥæ°°éħ¸éħ¯": 4424,
      "åį±éĻ©çļĦ": 4425,
      "åį±éĻ©åĮĸåŃ¦åĵģ": 4426,
      "åį±éĻ©ç»ĦåĪĨ": 4427,
      "åį±éĻ©çī©åĵģ": 4428,
      "åį±éĻ©çī©è´¨æĪĸæ··åĲĪçī©": 4429,
      "ä¸İåħ¬åı¸æłĩè¯Ĩ": 4430,
      "æ´Ĺæīĭ": 4431,
      "æ´ĹåĩĢ": 4432,
      "ĠCol": 4433,
      "ĠCellosolve": 4434,
      "åĮĸåŃ¦å®īåħ¨": 4435,
      "éĢļå¸¸": 4436,
      "æĹ¶ä½¿çĶ¨": 4437,
      "åĲ¸åħ¥åı¯èĥ½å¯¼èĩ´è¿ĩæķıæĪĸåĵ®åĸĺçĹħçĹĩçĬ¶æĪĸåĳ¼åĲ¸åĽ°éļ¾": 4438,
      "æ¯ĴçĲĨåŃ¦": 4439,
      "çĶ²éħ¯": 4440,
      "å±ķ": 4441,
      "å®īåħ¨ç®¡çĲĨ": 4442,
      "åľ°åıĸåĩº": 4443,
      "æĸ°ä¸°": 4444,
      "éĹªçĤ¹": 4445,
      "åį±å®³è¾¨è¯ĨèµĦæĸĻ": 4446,
      "è§ĦèĮĥ": 4447,
      "Ġäº§åĵģæĬĢæľ¯è¯´æĺİä¹¦": 4448,
      "ç©ºéĹ´": 4449,
      "åĽ½éļĨ": 4450,
      "é«ĺæĢ§èĥ½": 4451,
      "ç½®äºİ": 4452,
      "æĿĲæ¶Ĥå±Ĥ": 4453,
      "æĹłæº¶åīĤ": 4454,
      "ä¸ºåĩĨ": 4455,
      "å¹²æ²Ļ": 4456,
      "ese": 4457,
      "ĠNO": 4458,
      "èĭ¯ä»£": 4459,
      "çĶ¨äºİéĩĳå±ŀ": 4460,
      "åĪ°çĽ¸å½ĵè¿ľ": 4461,
      "ĠTS": 4462,
      "ĠTechnolo": 4463,
      "åıįåºĶæ´»æĢ§": 4464,
      "æīĭéĥ¨éĺ²æĬ¤": 4465,
      "è®¾æĸ½": 4466,
      "æĺ¯ä¸Ģç§į": 4467,
      "ä¾ĽåºĶå½¢å¼ı": 4468,
      "æ±¡æŁĵè¡£æľį": 4469,
      "è¡Įä¸ļ": 4470,
      "ĠAl": 4471,
      "åĲİåĨį": 4472,
      "åĮħè£ħå®¹åĻ¨": 4473,
      "éĵĤ": 4474,
      "è®¾å¤ĩåĴĮ": 4475,
      "ĠæĹłå·²çŁ¥": 4476,
      "åıĸä¸ĭ": 4477,
      "ä¾ĽåºĶåķĨåĲįç§°": 4478,
      "ç§»éĻ¤": 4479,
      "ç²ĺç¨łæ¶²ä½ĵ": 4480,
      "Ġå¤©": 4481,
      "Ġåį±éĻ©æĢ§è¯´æĺİ": 4482,
      "åı£ç½©": 4483,
      "æľĢé«ĺ": 4484,
      "ete": 4485,
      "ĠåĽ½": 4486,
      "ç¤ºæĪĸ": 4487,
      "Ġçī¹æ®Ĭ": 4488,
      "åĨħå¤ĸ": 4489,
      "è¯·åĭ¿": 4490,
      "è¯·æŁ¥": 4491,
      "åºĶçĶ¨ä¸Ń": 4492,
      "åºĶçĶ¨é¢ĨåŁŁ": 4493,
      "Ġç»Ĩåº¦": 4494,
      "å¼Ģä¸Ĭä¸ĭçľ¼çĿĳ": 4495,
      "è¡¨éĿ¢åĬ©åīĤ": 4496,
      "ä»»ä½ķä¸ľ": 4497,
      "Ġçľ¼éĿ¢éĺ²æĬ¤": 4498,
      "å¤´æĻķ": 4499,
      "éķ¿æľŁæĪĸåıįå¤įæİ¥è§¦": 4500,
      "ç¦ģæŃ¢ä½¿çĶ¨": 4501,
      "Ġæ¶Īéĺ²äººåĳĺ": 4502,
      "çĦļ": 4503,
      "ä¹ĭå¤Ħä½¿çĶ¨": 4504,
      "æĤ¬": 4505,
      "æ°¯ä¸ģ": 4506,
      "Ġå°ģéĹŃ": 4507,
      "Ġä½¿çĶ¨éĺ²çĪĨ": 4508,
      "ĠæŃĻåİ¿": 4509,
      "éŁ¦å°Ķ": 4510,
      "è½»è£ħ": 4511,
      "è½»åį¸": 4512,
      "éĽĨåĽ¢": 4513,
      "æİĴæ°Ķ": 4514,
      "æİĴæĶ¾": 4515,
      "ĠUn": 4516,
      "ĠåºĶçĶ¨ç±»åŀĭ": 4517,
      "èģĶç³»çĶµè¯Ŀ": 4518,
      "ĠWEK": 4519,
      "è½¬ç§»èĩ³æĸ°é²ľç©ºæ°Ķå¤Ħ": 4520,
      "éĵĿéĵ¶æµĨ": 4521,
      "CAB": 4522,
      "ECH": 4523,
      "Ġæ·»åĬł": 4524,
      "æĬĹæº¶æĢ§æ³¡æ²«": 4525,
      "Ġä¸Ĭæµ·å¸Ĥ": 4526,
      "ç»Ĩèĥŀ": 4527,
      "æĢ»éĥ¨": 4528,
      "è´®åŃĺäºİ": 4529,
      "æ©¡èĥ¶æīĭå¥Ĺ": 4530,
      "äºĭæķħåºĶæĢ¥åĴ¨è¯¢çĶµè¯Ŀ": 4531,
      "åºĵæĪ¿": 4532,
      "ĠçĽ¸å®¹æĢ§": 4533,
      "åĪĩåĭ¿åĲ¸çĥŁ": 4534,
      "åŁºäºİæĢ»éħįæĸ¹": 4535,
      "ç¼©æ°´çĶĺæ²¹": 4536,
      "æģĴ": 4537,
      "Ġèģļçĥ¯çĥĥ": 4538,
      "çĹħäºº": 4539,
      "ç¼ĸåĪ¶æĹ¥æľŁ": 4540,
      "Ġæİ¥è§¦æİ§åĪ¶åĴĮä¸ªä½ĵéĺ²æĬ¤": 4541,
      "ĠåºĶæĢ¥åĴ¨è¯¢çĶµè¯Ŀ": 4542,
      "Ġhttp": 4543,
      "çĦ¶èĢĮ": 4544,
      "Ġbe": 4545,
      "Ġæ¯ķåħĭåĬ©åīĤ": 4546,
      "Ġç©º": 4547,
      "å°½éĩı": 4548,
      "ĠéĵĿéĵ¶æµĨ": 4549,
      "ight": 4550,
      "é©¬ä¸Ĭ": 4551,
      "æĬ¥åĳĬæĹ¥æľŁ": 4552,
      "Ġä¸ªäºº": 4553,
      "èĢĲåĮĸåŃ¦æĢ§": 4554,
      "èĢĲåĮĸåŃ¦èħĲèļĢ": 4555,
      "ĠçĪĨçĤ¸ä¸ĬéĻĲ": 4556,
      "Ġåģ¥åº·åį±å®³": 4557,
      "è¯±å¯¼": 4558,
      "é»ıåº¦": 4559,
      "äºĮæ°§åĮĸéĴĽ": 4560,
      "å±Ģéĥ¨": 4561,
      "éģ¿åħįæİ¥è§¦çļ®èĤ¤åĴĮçľ¼çĿĽ": 4562,
      "gies": 4563,
      "çĶŁæĢģåŃ¦": 4564,
      "æī¿æĭħä»»ä½ķ": 4565,
      "æ°´åĨ²æ´Ĺçľ¼çĿĽèĩ³å°ĳ": 4566,
      "Ġç©¿æĪ´": 4567,
      "åħ¨èº«éĺ²æĬ¤æľį": 4568,
      "¸ç¦»çĶ²éĨĽ": 4569,
      "æ°§åĮĸéĵģçº¢": 4570,
      "ification": 4571,
      "SCBA": 4572,
      "æ°¨åŁºæłĳèĦĤ": 4573,
      "ĠçĶµåŃĲéĤ®ä»¶åľ°åĿĢ": 4574,
      "allnex": 4575,
      "åľ¨å®¤å¤ĸæĪĸéĢļé£İèī¯å¥½": 4576,
      "ä¸Ļçĥ¯éħ¸éħ¯": 4577,
      "ĠVinyl": 4578,
      "äº¤ä»ĺå½¢å¼ı": 4579,
      "Ġç³»åĪĹ": 4580,
      "çĲĥ": 4581,
      "éĺ²æ¯ĴéĿ¢åħ·": 4582,
      "çĶ¨èĤ¥çļĤæ°´åĴĮæ¸ħæ°´å½»åºķåĨ²æ´Ĺçļ®èĤ¤": 4583,
      "åįİä¼¦åĮĸå·¥æľīéĻĲåħ¬åı¸": 4584,
      "UKDO": 4585,
      "èĶĵå»¶": 4586,
      "Ġåĵģ": 4587,
      "æ´ĭæ±¡æŁĵçī©": 4588,
      "Ġå®¹åĻ¨": 4589,
      "ĠåĬ©åīĤ": 4590,
      "įå°¼éŁ¦å°Ķ": 4591,
      "Ļ®å·¥è·¯": 4592,
      "ä»»ä½ķä¸ľè¥¿": 4593,
      "ĠæŃĻåİ¿æĸ°ä¸°": 4594,
      "ç¼©æ°´çĶĺæ²¹éĨļ": 4595,
      "FI": 4596,
      "HDI": 4597,
      "In": 4598,
      "ISO": 4599,
      "LAC": 4600,
      "Lanco": 4601,
      "PP": 4602,
      "SI": 4603,
      "VAL": 4604,
      "YVAL": 4605,
      "af": 4606,
      "aph": 4607,
      "cc": 4608,
      "der": 4609,
      "gu": 4610,
      "sds": 4611,
      "¾Ļ": 4612,
      "çĮ": 4613,
      "é¾Ļ": 4614,
      "Ġ&": 4615,
      "ĠQ": 4616,
      "Ġåħ¨": 4617,
      "Ġæ°§åĮĸ": 4618,
      "Ġåħ·": 4619,
      "Ġä¿ĿæĮģ": 4620,
      "Ġä¼ĺ": 4621,
      "ĠéĢĤçĶ¨": 4622,
      "ĠéĢıæĺİ": 4623,
      "ĠåĪĨè§£": 4624,
      "Ġè½»": 4625,
      "ģè®¸": 4626,
      "ĲåŃĹ": 4627,
      "Ĵç²¾": 4628,
      "**:": 4629,
      "åı¦": 4630,
      "ãĢĤï¼ī": 4631,
      "äº¦": 4632,
      "ï¼īï¼ļ**": 4633,
      "Ġç£": 4634,
      "Ġçł": 4635,
      "æĢ§çī©è´¨": 4636,
      "éħĴç²¾": 4637,
      "çļĦæİªæĸ½": 4638,
      "çļĦç»ĵæŀĦ": 4639,
      "çļĦåºĵæĪ¿": 4640,
      "éĢĲåŃĹ": 4641,
      "éĻĨ": 4642,
      "åįĬ": 4643,
      "éĺ²æ¸ĹéĢı": 4644,
      "çģĮ": 4645,
      "æĬĳ": 4646,
      "åĮĸæıĲåıĸ": 4647,
      "ä»¤": 4648,
      "è¿·": 4649,
      "æĺŁ": 4650,
      "ĠéĶ": 4651,
      "æ°´åıĬ": 4652,
      "åĴĮåħ¶ä»ĸ": 4653,
      "åĴĮåĮĸåŃ¦åį±éĻ©": 4654,
      "è¡¬": 4655,
      "è¡Ĺ": 4656,
      "æĹŃ": 4657,
      "æĪĸçŃī": 4658,
      "æĪĸå¤´åıĳ": 4659,
      "ä¸įåºĶ": 4660,
      "ä¸įä½ľä¸º": 4661,
      "äº§åĵģä¿¡æģ¯": 4662,
      "æ°Ķæ³¡": 4663,
      "åĨĻ": 4664,
      "æľ¬ä¿¡æģ¯": 4665,
      "æĺİç¤ºæĪĸ": 4666,
      "éħįåĲĪ": 4667,
      "çĽ®æłĩ": 4668,
      "æ´Ĵ": 4669,
      "åı¯èĥ½çļĦ": 4670,
      "éĨĩç¼©": 4671,
      "åĳ¼åĲ¸è£ħç½®": 4672,
      "éĥ¨ä½į": 4673,
      "éĻĲäºİ": 4674,
      "å¾ħ": 4675,
      "åį±éĻ©è¯´æĺİ": 4676,
      "åį±éĻ©åĪĨè§£äº§çī©": 4677,
      "ä¸İçİ¯æ°§æłĳèĦĤ": 4678,
      "ä¸İæķ´çĲĨ": 4679,
      "ä½ĵç³»ä¸Ń": 4680,
      "æ´Ĺçľ¼": 4681,
      "åľ¨éĺ´åĩī": 4682,
      "åĪ¶åĵģ": 4683,
      "éĢļçŁ¥": 4684,
      "èģļäºĮçĶ²åŁº": 4685,
      "Ġç¬¬ä¸ĥ": 4686,
      "æłĩå¿Ĺ": 4687,
      "æł·æ°Ķåĳ³": 4688,
      "æ¸ħæī«": 4689,
      "æ¸ħéĨĴ": 4690,
      "èī²è®¡": 4691,
      "å¦ĤåĲ¸åħ¥": 4692,
      "å¦ĤéľĢ": 4693,
      "å¦Ĥè¯¯": 4694,
      "å¦Ĥè¿Ľåħ¥çľ¼çĿĽ": 4695,
      "çī¹å¾ģ": 4696,
      "æŃ£ä¸ģéħ¯": 4697,
      "éĹ®": 4698,
      "ĠåĨħå®¹ä¸ºå¯¹": 4699,
      "å¯¹äºİ": 4700,
      "å°±åĮ»è¯Ĭ": 4701,
      "çŃĽ": 4702,
      "ä¹Ļéħ®": 4703,
      "åĽºåĲ«éĩı": 4704,
      "æº¶åīĤä¸Ń": 4705,
      "éĢļé£İä¸į": 4706,
      "èĢĲéħ¸": 4707,
      "èĢĲåħīæĢ§": 4708,
      "çĬ¯": 4709,
      "ä»¥æºĲæĸĩä»¶": 4710,
      "olit": 4711,
      "olid": 4712,
      "ç»Ħä»½": 4713,
      "ĠGroup": 4714,
      "æĹ¥æľŁèµ·": 4715,
      "âĦĥ)": 4716,
      "æĿĲæĸĻæľīéĻĲåħ¬åı¸": 4717,
      "æĿĲæĸĻå®īåħ¨æķ°æį®è¡¨": 4718,
      "Ġåį±éĻ©ç»ĦåĪĨ": 4719,
      "ĠBR": 4720,
      "å¼Ĥä¸ĻéĨĩ": 4721,
      "ĠMG": 4722,
      "ĠMS": 4723,
      "ĠMethyl": 4724,
      "ĠMaterial": 4725,
      "åĸĿ": 4726,
      "åĩºçļĦ": 4727,
      "ç±»åŀĭçİ¯æ°§": 4728,
      "ĠEF": 4729,
      "Ġä¸įæº¶": 4730,
      "Ġä¸įåĲ«": 4731,
      "æĺ¯æº¶åīĤ": 4732,
      "éģ¿åħįåĲ¸åħ¥": 4733,
      "çŃīåĬ¿": 4734,
      "ç«ĭåį³çĶ¨å¤§éĩı": 4735,
      "èĦ±æ°´åīĤ": 4736,
      "Ġå¯Ĩ": 4737,
      "çĸ¹": 4738,
      "åĪĨéĴŁä»¥ä¸Ĭ": 4739,
      "é¡º": 4740,
      "ç§»åĪ°ç©ºæ°Ķæĸ°é²ľå¤Ħ": 4741,
      ":|:---": 4742,
      "orea": 4743,
      "heon": 4744,
      "çĹĩæ²»çĸĹ": 4745,
      "itan": 4746,
      "å°ıäºİ": 4747,
      "ç¤ºçļĦ": 4748,
      "Ġæĺĵçĩĥæ¶²ä½ĵç±»åĪ«": 4749,
      "ä¸¥éĩįçļĦ": 4750,
      "åıĹè¿ĩ": 4751,
      "åıĹçĥŃ": 4752,
      "Ġçī¹æĢ§åĴĮ": 4753,
      "çģ«èĬ±æĪĸ": 4754,
      "ä¸īåı¶": 4755,
      "æĸĩæ¡£ä¿¡æģ¯": 4756,
      "æĸĩæ¡£çĶŁæĪĲæĹ¥æľŁ": 4757,
      "ç¨ĭåº¦": 4758,
      "åĤ¬åĮĸ": 4759,
      "åıĤè§ģ": 4760,
      "æĪĲåĪĨä¿¡æģ¯": 4761,
      "æĺıçĿ¡æĪĸæĻķçľ©": 4762,
      "æĺıè¿·": 4763,
      "Ġå¦Ĥè¿Ľåħ¥çľ¼çĿĽ": 4764,
      "ENOL": 4765,
      "å¾ĹåĪ°": 4766,
      "åĩīçĪ½": 4767,
      "¬¦åı·": 4768,
      "çĥĥç±»": 4769,
      "éĢıæĺİåº¦": 4770,
      "çħ§å½ķ": 4771,
      "éĿŀéĢĲåŃĹ": 4772,
      "èĩ´çĻĮçī©": 4773,
      "ĠåĤ¨åŃĺäºİéĺ´åĩī": 4774,
      "ĠVMA": 4775,
      "Ġéģ¿åħįä¸İ": 4776,
      "å¦ĤæŀľåĪºæ¿Ģ": 4777,
      "å°ĨæĤ£èĢħ": 4778,
      "å°ĨåıĹå®³äººè½¬ç§»åĪ°ç©ºæ°Ķæĸ°é²ľå¤Ħ": 4779,
      "æļ´éľ²é¢Ħéĺ²æİªæĸ½": 4780,
      "idisp": 4781,
      "ç´§æĢ¥çĶµè¯Ŀ": 4782,
      "åĪĨæķ£æĢ§": 4783,
      "Ġå¼¯æĽ²": 4784,
      "MICAL": 4785,
      "ect": 4786,
      "åŃĺæĶ¾åľ¨éĢļé£İèī¯å¥½çļĦåľ°æĸ¹": 4787,
      "Ġä¸ŃåĽ½ä¸Ĭæµ·": 4788,
      "Ġä¸ŃåĽ½å·¥åİĤ": 4789,
      "é¦ı": 4790,
      "é¥®é£Ł": 4791,
      "ä¿Ŀè¯ģåħħåĪĨéĢļé£İ": 4792,
      "ä¸ĵçĶ¨": 4793,
      "ä¸ĵä¸ļ": 4794,
      "æħķ": 4795,
      "RAYVAL": 4796,
      "IOXIDE": 4797,
      "ä¸ŃæĸĩåĲį": 4798,
      "éĩįéĩıçĻ¾åĪĨæ¯Ķ": 4799,
      "ĠèĴ¸æ°Ķå¯Ĩåº¦": 4800,
      "å·±åĨħéħ°èĥº": 4801,
      "åı¯èĥ½éĢłæĪĲæĺıæĺıæ¬²çĿ¡æĪĸçľ©æĻķ": 4802,
      "éĩĬæĶ¾åĪ°çİ¯å¢ĥä¸Ń": 4803,
      "åİŁæĸĩçħ§å½ķ": 4804,
      "çĶ¨èĤ¥çļĤåĴĮ": 4805,
      "Ġèģļæ°¨éħ¯": 4806,
      "ĠåŃĺæĶ¾å¤Ħé¡»åĬłéĶģ": 4807,
      "ĠéĿŀæĮ¥åıĳ": 4808,
      "æľ¬äº§åĵģæĹ¶": 4809,
      "estolit": 4810,
      "è±Ĩ": 4811,
      "åĩĢéĩį": 4812,
      "èĬ³é¦Ļçĥĥ": 4813,
      "ĠåĬłå·¥": 4814,
      "çĸĳèĻĳ": 4815,
      "ĠåĲŀåĴ½åıĬè¿Ľåħ¥åĳ¼åĲ¸éģĵåı¯èĥ½èĩ´åĳ½": 4816,
      "æºĲæĸĩä»¶åİŁæĸĩæķ´çĲĨ": 4817,
      "æºĲæĸĩä»¶çļĦç»ĵæŀĦ": 4818,
      "ç¡ħæ°§çĥ·æº¶æ¶²": 4819,
      "Ġåĳ¼åĲ¸éĺ²æĬ¤": 4820,
      "ropert": 4821,
      "èı²": 4822,
      "ä¹Ļéħ¸ä¹Ļéħ¯": 4823,
      "é£Łåĵģæİ¥è§¦åºĶçĶ¨": 4824,
      "çĶµåŃĲéĤ®ç®±": 4825,
      "form": 4826,
      "è¿ĩæ»¤å¼ı": 4827,
      "çłĶç£¨": 4828,
      "åįĹéĢļå¸Ĥç»ıæµİæĬĢæľ¯å¼Ģåıĳ": 4829,
      "Ġå¯¹æ°´çĶŁçĶŁçī©æľīæ¯Ĵå¹¶åħ·æľīéķ¿æľŁæĮģç»Ńå½±åĵį": 4830,
      "ĠçŁ³": 4831,
      "è¿ŀæİ¥": 4832,
      "ĠĠĠĠĠĠĠĠĠĠĠĠĠĠĠĠĠĠĠĠĠĠĠĠĠĠĠĠĠĠĠĠĠĠĠĠĠĠĠĠĠĠĠĠĠĠĠĠĠĠĠĠĠĠĠĠĠĠĠĠĠĠĠĠ": 4833,
      "æĸ°æĿĲæĸĻç§ĳæĬĢæľīéĻĲåħ¬åı¸": 4834,
      "evel": 4835,
      "é©¬æĿ¥": 4836,
      "ĠæľĢå¤§": 4837,
      "ĠèģĶç³»çĶµè¯Ŀ": 4838,
      "ĠèģĶç³»æĸ¹å¼ı": 4839,
      "ä¸İæ°§åĮĸåīĤæİ¥è§¦": 4840,
      "ĠSolvesso": 4841,
      "Ġå½¢": 4842,
      "æ³Ħéľ²": 4843,
      "able": 4844,
      "oadd": 4845,
      "Ġä¸įè¦ģåĤ¬åĲĲ": 4846,
      "BLE": 4847,
      "éĻ¤æīĢæľīçĤ¹çģ«æºĲ": 4848,
      "åĬŁèĥ½çļĦ": 4849,
      "Ġæ³ķè§Ħä¿¡æģ¯": 4850,
      "Ġé»Ħèī²": 4851,
      "ä¸Ĭé£İåĲĳ": 4852,
      "æµħé»Ħèī²": 4853,
      "åĩĿåĽº": 4854,
      "å±ıåįĹ": 4855,
      "æ°´åĴĮèĤ¥çļĤåĨ²æ´Ĺ": 4856,
      "Ġå¹³åĿĩç²Ĵå¾Ħ": 4857,
      "ynoadd": 4858,
      "Ġâĸł": 4859,
      "ä¾µçĬ¯": 4860,
      "Ġçģ«çģ¾": 4861,
      "éĺ²æŃ¢éĿĻçĶµæĶ¾çĶµçļĦæİªæĸ½": 4862,
      "å¤±åİ»çŁ¥è§īèĢħ": 4863,
      "åı°æ¹¾": 4864,
      "è®Ńç»ĥ": 4865,
      "åķĨåĵģåĲį": 4866,
      "çªģåıĺæĢ§": 4867,
      "ĠæĢ¥æĢ§ç»ıåı£æ¯ĴæĢ§": 4868,
      "Ġç¨ĢéĩĬæĢ§": 4869,
      "ĠCHEMICAL": 4870,
      "Ġå¡ĳæĸĻ": 4871,
      "åĪĩåĭ¿ç»Ļå¤±åİ»çŁ¥è§īèĢħ": 4872,
      "ĠæĴĳå¼Ģ": 4873,
      "å¤§äºİæĪĸçŃī": 4874,
      "Ġç§ĳæĢĿåĪĽ": 4875,
      "Ġå®īå¾½çľģ": 4876,
      "uminum": 4877,
      "åĨħå®¹ä¾Ŀæį®æºĲæĸĩä»¶åİŁæĸĩæķ´çĲĨ": 4878,
      "¿çī©æ²¹": 4879,
      "æİ¥è§¦åĪ°æĪĸæľī": 4880,
      "ç¦»åŃĲæ°´": 4881,
      "Ġæµģå¹³åīĤ": 4882,
      "henolic": 4883,
      "ĠéĴĽçĻ½ç²ī": 4884,
      "å¦ĤæĪ´éļĲå½¢çľ¼éķľå¹¶åı¯æĸ¹ä¾¿åľ°åıĸåĩº": 4885,
      "://": 4886,
      "éĻĪè¿°": 4887,
      "Ġå°ģéĹŃåŀĭ": 4888,
      "è½»è£ħè½»åį¸": 4889,
      "åĮĸæıĲåıĸä¸İæķ´çĲĨ": 4890,
      "Ġç¬¬ä¸ĥéĥ¨åĪĨ": 4891,
      "ĠåĨħå®¹ä¸ºå¯¹æºĲæĸĩä»¶çļĦç»ĵæŀĦ": 4892,
      "å°±åĮ»è¯Ĭæ²»": 4893,
      "ä»¥æºĲæĸĩä»¶ä¸ºåĩĨ": 4894,
      "Ġçī¹æĢ§åĴĮä¼ĺçĤ¹": 4895,
      "éĿŀéĢĲåŃĹåİŁæĸĩçħ§å½ķ": 4896,
      "RAYVALLAC": 4897,
      "å¤§äºİæĪĸçŃīäºİ": 4898,
      "ĠåĨħå®¹ä¸ºå¯¹æºĲæĸĩä»¶çļĦç»ĵæŀĦåĮĸæıĲåıĸä¸İæķ´çĲĨ": 4899,
      "%**": 4900,
      "AM": 4901,
      "BC": 4902,
      "Bç±»": 4903,
      "But": 4904,
      "Chin": 4905,
      "EM": 4906,
      "IS": 4907,
      "NO": 4908,
      "SN": 4909,
      "SU": 4910,
      "Solv": 4911,
      "__": 4912,
      "ai": 4913,
      "ak": 4914,
      "ben": 4915,
      "eo": 4916,
      "ep": 4917,
      "eq": 4918,
      "hang": 4919,
      "ip": 4920,
      "line": 4921,
      "od": 4922,
      "oth": 4923,
      "odur": 4924,
      "ppm": 4925,
      "sb": 4926,
      "ty": 4927,
      "ual": 4928,
      "ªçģ«": 4929,
      "ªå¼ı": 4930,
      "®åĬ©": 4931,
      "³ç±³": 4932,
      "¾Ī": 4933,
      "âģ": 4934,
      "æ¾Ī": 4935,
      "èĵ": 4936,
      "ĠçĶ¨äºİ": 4937,
      "ĠRH": 4938,
      "ĠåĪĨéĴŁ": 4939,
      "ĠåĪĨåŃĲéĩı": 4940,
      "Ġè´¨éĩı": 4941,
      "Ġèī¯å¥½çļĦ": 4942,
      "Ġä»¥ä¸Ĭ": 4943,
      "Ġä¼ĺå¼ĤçļĦ": 4944,
      "ĠäºĭæķħåĵįåºĶ": 4945,
      "Ġæĸĩæ¡£æĿ¥æºĲ": 4946,
      "Ġæľ¬åĵģ": 4947,
      "ĠåĪĨåŃĲå¼ı": 4948,
      "Ķ¹æĢ§": 4949,
      "ĺé«ĺ": 4950,
      "ä¸»": 4951,
      "ãĢĤ*": 4952,
      "åħģè®¸": 4953,
      "æ°¸": 4954,
      "####": 4955,
      "Ġæŀ": 4956,
      "ï¼ī/": 4957,
      "çļĦä½¿çĶ¨": 4958,
      "çļĦé«ĺ": 4959,
      "çļĦæĿĲæĸĻ": 4960,
      "å¤¹": 4961,
      "è¯º": 4962,
      "è¯ĦåĪĨ": 4963,
      "åĪĨå¼Ģ": 4964,
      "åĪĨå¸ĥ": 4965,
      "æł¸": 4966,
      "æłªå¼ı": 4967,
      "æĬ½": 4968,
      "æľīåĪºæ¿Ģ": 4969,
      "æľīæĦı": 4970,
      "æĺ¥": 4971,
      "èĥĢ": 4972,
      "ç»Ŀ": 4973,
      "Ġéľ": 4974,
      "åĴĮçĪĨçĤ¸": 4975,
      "åĴĮèģļåĲĪçī©": 4976,
      "åı¯ä¸İ": 4977,
      "åı¯éĿł": 4978,
      "|------|-------": 4979,
      "ä¼¼": 4980,
      "æĪĸèĴ¸æ°Ķ": 4981,
      "åºĶå°±åĮ»": 4982,
      "èĥ½åĽ¢": 4983,
      "ä¸įå®ľ": 4984,
      "ä¸įå±ŀäºİ": 4985,
      "å¯¸": 4986,
      "å·¦": 4987,
      "æľ¬æĿĲæĸĻ": 4988,
      "èĩŃ": 4989,
      "è®¯": 4990,
      "çļ®èĤ¤çģ¼ä¼¤": 4991,
      "æ¯ķåħĭ": 4992,
      "éħįå¤ĩ": 4993,
      "åħ¨å¥Ĺ": 4994,
      "æīĳ": 4995,
      "æº¶èĥ¶": 4996,
      "åĳ¼åĲ¸ä¿ĿæĬ¤": 4997,
      "åĪºæ¿Ģçľ¼çĿĽ": 4998,
      "ä¸ģéĨĽ": 4999,
      "ä¸ģåŁºæ©¡èĥ¶": 5000,
      "|------|:----": 5001,
      "æ··åĤ¨": 5002,
      "åį±éĻ©çŃīçº§": 5003,
      "éĢĤå®ľ": 5004,
      "æłĳèĦĤæº¶æ¶²": 5005,
      "åľ¨ä½¿çĶ¨åīį": 5006,
      "åľ¨æŃ£å¸¸": 5007,
      "éĢļè¾¾": 5008,
      "èģļæ°¯ä¹Ļçĥ¯": 5009,
      "å¦ĤåĪºæ¿Ģ": 5010,
      "è¦ģçĤ¹": 5011,
      "åŁºæĸĻ": 5012,
      "ĠHD": 5013,
      "ĠHRJ": 5014,
      "ĠHDI": 5015,
      "ĠHoneywell": 5016,
      "å¤§éģĵ": 5017,
      "å¸®åĬ©": 5018,
      "æĸ°åĮº": 5019,
      "åĿĹ": 5020,
      "è§ĦåĪĻ": 5021,
      "Ġäº§åĵģçļĦ": 5022,
      "çģŃçģ«ç¨ĭåºı": 5023,
      "æŀĹ": 5024,
      "å¯¹çļ®èĤ¤": 5025,
      "å¯¹åĮ»çĶŁçļĦçī¹åĪ«æıĲç¤º": 5026,
      "ä¹Ļéħ¸éħ¯": 5027,
      "ĠSTEL": 5028,
      "ä¼ļç¤": 5029,
      "ç¡«": 5030,
      "å¹¶ä¸į": 5031,
      "å¹¶éĿŀ": 5032,
      "æĬĢæľ¯æĮĩæłĩ": 5033,
      "å¹²çłĤ": 5034,
      "èĢĲåĪ®": 5035,
      "old": 5036,
      "atch": 5037,
      "çī©è´¨ç¬¬": 5038,
      "erv": 5039,
      "å¤Ħç½®åĨħè£ħçī©": 5040,
      "çŁ¿çī©æ²¹": 5041,
      "ĠMVAH": 5042,
      "çĶ¨äºİå·¥ä¸ļçĶ¨éĢĶ": 5043,
      "ç´¢": 5044,
      "Ġä¸įåı¯": 5045,
      "Ġä¸įåĲ«æľī": 5046,
      "Ġä¸įæº¶äºİæ°´": 5047,
      "åĬĽæ¨¡ç³Ĭ": 5048,
      "æµģæ°´": 5049,
      "æıĲèµ·çľ¼çĿĳ": 5050,
      "ĠæĹ¥": 5051,
      "arr": 5052,
      "çĽ¸åºĶ": 5053,
      "âĤģ": 5054,
      "âĤĨ": 5055,
      "ĠREACH": 5056,
      "åĮĸåŃ¦åĵģåĲįç§°": 5057,
      "åĮĸåŃ¦åĵģæľīéĻĲåħ¬åı¸": 5058,
      "åĮĸåŃ¦åĵģåĲįå½ķ": 5059,
      "è·Ŀ": 5060,
      "å·¥ä¸ļåĽŃ": 5061,
      "æķıæĦŁ": 5062,
      "èģĶæİ¥": 5063,
      "æľªçŁ¥": 5064,
      "orf": 5065,
      "hechem": 5066,
      "çĪĨçĤ¸åį±å®³": 5067,
      "ç»Ļæ°§": 5068,
      "éķ¿çļĦ": 5069,
      "æľĢåĲİ": 5070,
      "ä¸Ļçĥ·": 5071,
      "ä¸Ļéħ®": 5072,
      "ç®Ĺ": 5073,
      "ite": 5074,
      "æĭ©": 5075,
      "ĠKorea": 5076,
      "åıĹæ±¡æŁĵçļĦè¡£æľį": 5077,
      "å¸¸è§Ħ": 5078,
      "æĸĩæ¡£çīĪæľ¬": 5079,
      "çĻ½èī²": 5080,
      "æĪĲåĪĨè¾¨è¯ĨèµĦæĸĻ": 5081,
      "ä½įç½®": 5082,
      "Ġå¦ĤåıĳçĶŁçļ®èĤ¤åĪºæ¿Ģ": 5083,
      "ä»»ä½ķéĺ¶æ®µ": 5084,
      "Ġåı¯èĥ½å¯¹çĶŁèĤ²èĥ½åĬĽæĪĸèĥİåĦ¿éĢłæĪĲä¼¤å®³": 5085,
      "Ġå¤ĸè§Ĥä¸İæĢ§çĬ¶": 5086,
      "ĠFl": 5087,
      "çīĪæľ¬åı·": 5088,
      "è¿ĩæķıæĢ§": 5089,
      "çķĮ": 5090,
      "å¹²ç²īçģŃçģ«åĻ¨": 5091,
      "éĿŀæµ®åŀĭ": 5092,
      "æ»¡": 5093,
      "Ġçººç»ĩ": 5094,
      "Ġçº³ç±³": 5095,
      "æĤ¨": 5096,
      "ĠcP": 5097,
      "å¤ļå¼Ĥæ°°éħ¸éħ¯": 5098,
      "æ³ķè§Ħä¿¡æģ¯": 5099,
      "ilber": 5100,
      "ç»ĵæĿŁ": 5101,
      "ç»ĵåĿĹ": 5102,
      "åĳ¼åı«æĢ¥æķĳä¸Ńå¿ĥ": 5103,
      "Ġéģ¿åħįåĲ¸åħ¥ç²īå°ĺ": 5104,
      "pment": 5105,
      "å±±æ½": 5106,
      "è®¤åı¯": 5107,
      "è®¤è¯ģ": 5108,
      "ä½©æĪ´èĩªç»Ļå¼ıåĳ¼åĲ¸åĻ¨": 5109,
      "Ġå¼ķ": 5110,
      "ĠWN": 5111,
      "åı¯èĥ½å¼ķèµ·æĺıçĿ¡æĪĸæĻķçľ©": 5112,
      "Ġçī©è´¨å®īåħ¨æķ°æį®è¡¨": 5113,
      "åŃĺæĶ¾å¤Ħé¡»åĬłéĶģ": 5114,
      "æĢ¥æĢ§ç»ıåı£": 5115,
      "å®¶åħ·": 5116,
      "ĠæŃ£ä¸ģåŁº": 5117,
      "Ġwt": 5118,
      "Ġé«ĺåº¦": 5119,
      "ute": 5120,
      "èĩªç»Ļå¼ı": 5121,
      "ä»ħåľ¨": 5122,
      "tha": 5123,
      "å¾·çº³": 5124,
      "ĠåŃĺåĤ¨": 5125,
      "ĠåįģäºĮ": 5126,
      "Ġåįģä¸ī": 5127,
      "ĠçĶµè¯Ŀåı·çłģ": 5128,
      "å·±çĥ·": 5129,
      "åŁºæĶ¹æĢ§": 5130,
      "ĠæĹłèī²èĩ³": 5131,
      "ĠæľªçŁ¥": 5132,
      "å¹¿ä¸ľ": 5133,
      "Ġç´§æĢ¥æĥħåĨµæ¦Ĥè¿°": 5134,
      "ĠèģļéĨļæĶ¹æĢ§": 5135,
      "æľºæ¢°æĢ§åĪºæ¿Ģ": 5136,
      "ĠéĿŀå¸¸": 5137,
      "æĴŃ": 5138,
      "ä½Ĩä¸į": 5139,
      "çĦ¶åĲİ": 5140,
      "éĺħè¯»": 5141,
      "è¾ĥä½İ": 5142,
      "henodur": 5143,
      "ĠçŃĽ": 5144,
      "oxy": 5145,
      "ä¸īèģļæ°°èĥºæłĳèĦĤ": 5146,
      "Ġå¼Ĥä¸ģéĨĩ": 5147,
      "å±±å¸Ĥé¡º": 5148,
      "éĶĢåĶ®åħ¬åı¸": 5149,
      "åį·éĴ¢": 5150,
      "ä½¿çĶ¨éĺ²çĪĨçĶµåĻ¨": 5151,
      "ĠçĻ½èī²": 5152,
      "å®Įåħ¨åĽºåĮĸ": 5153,
      "æī¹æ¬¡æ": 5154,
      "ä½Ľå±±å¸Ĥé¡º": 5155,
      "Ġç¡¬åº¦": 5156,
      "è§ĨåĬĽæ¨¡ç³Ĭ": 5157,
      "åıĹå®³èĢħ": 5158,
      "Ġéķ¿æľŁæĪĸåıįå¤įæİ¥è§¦": 5159,
      "Ġåģ¥åº·åį±éĻ©": 5160,
      "ç´§å¯Ĩ": 5161,
      "çĿĢèī²åīĤ": 5162,
      "ç¡®å®ļçĶ¨éĢĶ": 5163,
      "è¯±åĲĲ": 5164,
      "åºŁçī©å¤ĦçĲĨ": 5165,
      "èģļä¹Ļçĥ¯éĨĩç¼©": 5166,
      "é«ĺåĪĨåŃĲéĩıçİ¯æ°§æłĳèĦĤ": 5167,
      "ĠçģŃçģ«ä»ĭè´¨": 5168,
      "ĠçīĪæľ¬åı·": 5169,
      "æ³ķå¾ĭæ³ķè§Ħ": 5170,
      "ĠmmHg": 5171,
      "å¹³åĿĩç²Ĵå¾Ħ": 5172,
      "å¹³åĿĩå®¹è®¸æµĵåº¦": 5173,
      "|------------|---------|----------|": 5174,
      "éĢīæĭ©": 5175,
      "Ġåı¯å¼ķèµ·åĳ¼åĲ¸éģĵåĪºæ¿Ģ": 5176,
      "ä¸Ńæ¯Ĵæİ§åĪ¶ä¸Ńå¿ĥ": 5177,
      "ĠçŃīçº§": 5178,
      "çº¤ç»´ç´ł": 5179,
      "æī©æķ£åĪ°çĽ¸å½ĵè¿ľ": 5180,
      "ĠäºĮæ°§åĮĸéĴĽ": 5181,
      "å¯»æ±ĤåĮ»çĸĹæķĳ": 5182,
      "çĵ¶": 5183,
      "Ġåį·æĿĲæ¶ĤæĸĻ": 5184,
      "ĠæĺĨå±±æ½": 5185,
      "ä¿Ŀè¯ģæĪĸæĭħä¿Ŀ": 5186,
      "Ġèĩªçĩĥæ¸©åº¦": 5187,
      "ä¿ĥè¿Ľ": 5188,
      "Ġæ·¡é»Ħèī²æ¶²ä½ĵ": 5189,
      "æ£ķ": 5190,
      "æİĴæ°´æ²Ł": 5191,
      "æĳ©æĵ¦": 5192,
      "Ġæ¾Ħæ¸ħéĢıæĺİç²ĺç¨łæ¶²ä½ĵ": 5193,
      "æľĢéĩįè¦ģçļĦçĹĩçĬ¶åĴĮåģ¥åº·å½±åĵį": 5194,
      "Ġare": 5195,
      "yzor": 5196,
      "Ġæĸĩä»¶çĶŁæĪĲæĹ¥æľŁ": 5197,
      "æĸ½æķĳèĢħ": 5198,
      "æĤ¬æµ®": 5199,
      "åľ¨å®¤å¤ĸæĪĸéĢļé£İèī¯å¥½ä¹ĭå¤Ħä½¿çĶ¨": 5200,
      "ĠåĵģçīĮ": 5201,
      "ĠæŃĻåİ¿æĸ°ä¸°åĮĸå·¥æľīéĻĲåħ¬åı¸": 5202,
      "aphtha": 5203,
      "æ°´åıĬæ¸ħæ°´å½»åºķåĨ²æ´Ĺçļ®èĤ¤": 5204,
      "çĽ®æłĩåĻ¨å®ĺ": 5205,
      "èģļäºĮçĶ²åŁºç¡ħæ°§çĥ·æº¶æ¶²": 5206,
      "ĠMaterials": 5207,
      "çŃīåĬ¿èģĶæİ¥": 5208,
      "itanium": 5209,
      "çģ«èĬ±æĪĸçģ«çĦ°": 5210,
      "formation": 5211,
      "è¿ĩæ»¤å¼ıéĺ²æ¯ĴéĿ¢åħ·": 5212,
      "æİ¥è§¦åĪ°æĪĸæľīçĸĳèĻĳ": 5213,
      "ĺé«ĺåĮĸå·¥æľīéĻĲåħ¬åı¸": 5214,
      "æłªå¼ıä¼ļç¤": 5215,
      "éĢļè¾¾è·¯": 5216,
      "ilberline": 5217,
      "æī¹æ¬¡æ£Ģæµĭ": 5218,
      "èģļä¹Ļçĥ¯éĨĩç¼©ä¸ģéĨĽ": 5219,
      "ĠæĺĨå±±æ½ĺé«ĺåĮĸå·¥æľīéĻĲåħ¬åı¸": 5220,
      "æłªå¼ıä¼ļç¤¾": 5221,
      "#-": 5222,
      "),": 5223,
      ").": 5224,
      ".**": 5225,
      "AD": 5226,
      "AP": 5227,
      "Aéħįæĸ¹": 5228,
      "BR": 5229,
      "Butyl": 5230,
      "DIN": 5231,
      "IV": 5232,
      "KUKDO": 5233,
      "MAC": 5234,
      "OSHA": 5235,
      "Pv": 5236,
      "Poly": 5237,
      "Phenodur": 5238,
      "QU": 5239,
      "SS": 5240,
      "SUMILITERESIN": 5241,
      "UEL": 5242,
      "ag": 5243,
      "cat": 5244,
      "hpp": 5245,
      "ies": 5246,
      "ied": 5247,
      "our": 5248,
      "ps": 5249,
      "smo": 5250,
      "uf": 5251,
      "|:--------": 5252,
      "¡¶": 5253,
      "ªç¦": 5254,
      "®çĽĸ": 5255,
      "±¡æŁĵ": 5256,
      "¹çģ«": 5257,
      "¹åı·": 5258,
      "½è½¦": 5259,
      "âĹ": 5260,
      "çħ": 5261,
      "ç¬¦åı·": 5262,
      "ðŁ": 5263,
      "Ġe": 5264,
      "Ġ---": 5265,
      "ĠåĲ«": 5266,
      "Ġèī¯å¥½": 5267,
      "Ġæĸĩæ¡£": 5268,
      "Ġæľīæľº": 5269,
      "Ġeth": 5270,
      "Ġex": 5271,
      "ĠåĲĮ": 5272,
      "ĠÎ¼m": 5273,
      "ĠåĲĪæł¼": 5274,
      "Ġè½¯": 5275,
      "ĠçĶŁæĢģåŃ¦": 5276,
      "ĠðŁ": 5277,
      "Ĥ¹çģ«": 5278,
      "ĨèĨľ": 5279,
      "īç±³": 5280,
      "Ĳæĸĩä»¶": 5281,
      "ãĢĮ": 5282,
      "ãĢį": 5283,
      "ï¼Į+": 5284,
      "çĶ³": 5285,
      "æ°ı": 5286,
      "äº¬": 5287,
      "äº®": 5288,
      "äºĳ": 5289,
      "Ġå¢": 5290,
      "ï¼ī>": 5291,
      "ĠçĤ¹çģ«": 5292,
      "çļĦçģŃçģ«åīĤ": 5293,
      "|-----": 5294,
      "åįļ": 5295,
      "åĮĸæĢ§": 5296,
      "ä»ĵ": 5297,
      "æĺĮ": 5298,
      "èĥį": 5299,
      "æ°´ä½ĵ": 5300,
      "æ°´èĤ¿": 5301,
      "åĴĮè®¾å¤ĩ": 5302,
      "åĴĮçĤ¹çģ«æºĲ": 5303,
      "åĬ³": 5304,
      "æ³µ": 5305,
      "æĪĸåħ¶å®ĥ": 5306,
      "ä¸įä½ľ": 5307,
      "ä¸įåıĹ": 5308,
      "çĶŁæķĪ": 5309,
      "æµĬ": 5310,
      "å¯Ł": 5311,
      "è´Ł": 5312,
      "è´´åĲĪ": 5313,
      "ina": 5314,
      "int": 5315,
      "çļ®çĸ¹": 5316,
      "æĪĲåĵģ": 5317,
      "æĪĲä»½": 5318,
      "æľ¬åħ¬åı¸": 5319,
      "éĺ²æĬ¤éĿ¢åħ·": 5320,
      "çľ¼çļ®": 5321,
      "æ·¡é»Ħèī²": 5322,
      "éħįåĪ¶": 5323,
      "éĿ©": 5324,
      "åĬłéĩį": 5325,
      "åı¯èĥ½æįŁå®³åĻ¨å®ĺ": 5326,
      "æīį": 5327,
      "åĪºæ¿Ģåĳ¼åĲ¸ç³»ç»Ł": 5328,
      "åį±éĻ©ç±»åĪ«": 5329,
      "åıĬå®¹åĻ¨": 5330,
      "åıĬè´®åŃĺ": 5331,
      "ĠPark": 5332,
      "åľ¨é«ĺ": 5333,
      "åľ¨å¹²çĩ¥": 5334,
      "åĪ¶å®ļ": 5335,
      "åĮĸåŃ¦æľīéĻĲåħ¬åı¸": 5336,
      "åĮĸåŃ¦æłªå¼ıä¼ļç¤¾": 5337,
      "æ²¸": 5338,
      "æ²¿": 5339,
      "ä¸Ģå¹´": 5340,
      "æĹ¶åı¯èĥ½": 5341,
      "æĹ¶è¦ģ": 5342,
      "æĹ¶å°±åĮ»": 5343,
      "åĲ¸åħ¥æľīå®³": 5344,
      "äººæ°ĳ": 5345,
      "ĠåįĹ": 5346,
      "çĶ²éĨĩ": 5347,
      "çĶ²éħļ": 5348,
      "å¦ĤæĹł": 5349,
      "å¦Ĥä»į": 5350,
      "åŁºèĭ¯": 5351,
      "å¤§è±Ĩ": 5352,
      "å®īåħ¨å¤Ħç½®ä¸İåĤ¨åŃĺ": 5353,
      "åĨ²åĩ»": 5354,
      "åį±å®³åĪĨç±»": 5355,
      "è¡¥åħħ": 5356,
      "Ġäº§åĵģåºĶçĶ¨": 5357,
      "Ġäº§åĵģä»£çłģ": 5358,
      "å¯¹çĹĩæ²»çĸĹ": 5359,
      "ä¾ĽåıĤèĢĥ": 5360,
      "èĴ¸æ°Ķåı¯èĥ½": 5361,
      "èĴ¸æ°Ķæ¯Ķç©ºæ°Ķéĩį": 5362,
      "éĢłæĪĲä¸¥éĩį": 5363,
      "è¿ĩéĩı": 5364,
      "æ¡Ĩ": 5365,
      "æĹłèµĦæĸĻ": 5366,
      "æĹłåı¯çĶ¨": 5367,
      "åĽºæĢ§": 5368,
      "æº¶åīĤé¢Ħ": 5369,
      "å¹¶ç©¿": 5370,
      "å¹¶è¿Ľåħ¥åĳ¼åĲ¸éģĵåı¯èĥ½èĩ´åĳ½": 5371,
      "éľįå°¼éŁ¦å°Ķ": 5372,
      "ç¼ĵ": 5373,
      "å¹²åĩĢ": 5374,
      "éĢļé£İçļĦåºĵæĪ¿": 5375,
      "çĹķ": 5376,
      "ĠæĢ¥æ¯ĴæĢ§": 5377,
      "ĠGardner": 5378,
      "éĴĪ": 5379,
      "ä¸Ĭè¿°": 5380,
      "Ġæĺĵ": 5381,
      "ĠNJ": 5382,
      "ĠNP": 5383,
      "âĦĥÃĹ": 5384,
      "Ġæİ§åĪ¶": 5385,
      "æīĢåĲ«": 5386,
      "ĠBF": 5387,
      "çĶ¨äºİé£Łåĵģ": 5388,
      "ĠTLV": 5389,
      "ĠTECH": 5390,
      "ĠEtern": 5391,
      "å¤§éĩıæ°´åĸ·å°Ħ": 5392,
      "éģ¿åħįåĲ¸åħ¥èĴ¸æ°Ķ": 5393,
      "éģ¿åħįå½¢æĪĲç²īå°ĺ": 5394,
      "éģ¿åħįäº§çĶŁç²īå°ĺ": 5395,
      "æĵįä½ľäººåĳĺ": 5396,
      "æĵįä½ľåĲİå½»åºķæ¸ħæ´Ĺ": 5397,
      "æĵįä½ľåıĬè´®åŃĺ": 5398,
      "åĲİæ·»åĬł": 5399,
      "ä½İéĢŁ": 5400,
      "éĵ¾": 5401,
      "âĤĦ": 5402,
      "æĿ¡ä¾ĭ": 5403,
      "äººåĳĺéĺ²æĬ¤æİªæĸ½": 5404,
      "å¿ĥèĤº": 5405,
      "çĸıæķ£": 5406,
      "ĠæºĲæĸĩä»¶": 5407,
      "æķıåĮĸ": 5408,
      "å®ĺèĥ½åĽ¢": 5409,
      "ç§»åĪ°æĸ°é²ľç©ºæ°Ķå¤Ħ": 5410,
      "Ġå¤ĩæ³¨": 5411,
      "|----------|--------": 5412,
      "|----------|---------|": 5413,
      "ĠæĬĹ": 5414,
      "ä¿ĿæĬ¤çľ¼éķľ": 5415,
      "æīĢæľīå®īåħ¨": 5416,
      "æīĢæľīæķ°åĢ¼": 5417,
      "çīĪæ²¹å¢¨": 5418,
      "æ¶Īéĺ²éĺŁ": 5419,
      "éĻĦå½ķ": 5420,
      "ĠKetal": 5421,
      "åİŁè£ħå®¹åĻ¨": 5422,
      "åİŁå§ĭ": 5423,
      "Ġçī¹çĤ¹": 5424,
      "å»ºè®®ä½¿çĶ¨": 5425,
      "å»ºè®®çĶ¨éĩı": 5426,
      "åĨħè¡¬": 5427,
      "Ġæ³¡æ²«": 5428,
      "åºĶçĶ¨çī¹æĢ§": 5429,
      "ĠåºĶéģ¿åħį": 5430,
      "ç²īå°ĺçĪĨçĤ¸åį±éĻ©": 5431,
      "ä¼ĺèī¯": 5432,
      "åĿĩä»¥æºĲæĸĩä»¶ä¸ºåĩĨ": 5433,
      "èĤ¥çļĤæ°´åĴĮ": 5434,
      "å¤įèĭı": 5435,
      "èŃ¦æĬ¥": 5436,
      "Ġåı¯æº¶": 5437,
      "ä¿®æĶ¹": 5438,
      "åĸ·æ°´æĪĸ": 5439,
      "Ġåı¯èĥ½å¯¼èĩ´": 5440,
      "åıĳçĶŁåį±éĻ©": 5441,
      "çķªç¦": 5442,
      "å¯ĨéĹŃå®¹åĻ¨ä¸Ń": 5443,
      "åĪĹäºİ": 5444,
      "ä¹Ļçĥ¯éĨĩ": 5445,
      "ĠéĹªçģ«": 5446,
      "|---------|:--------": 5447,
      "Ġçº¯": 5448,
      "ä¹ĭéĹ´": 5449,
      "ä¿®è®¢çīĪ": 5450,
      "åįķçĭ¬": 5451,
      "ĠæĢ¥æĢ§ç»ıçļ®": 5452,
      "æ°¯éĨĭ": 5453,
      "å¤ļæķ°": 5454,
      "å¤ļåħĥ": 5455,
      "çĶ±åıĹè¿ĩ": 5456,
      "å¤ĸæ³Ħ": 5457,
      "ill": 5458,
      "Ġä½¿çĶ¨ä¸ªäººéĺ²æĬ¤è£ħå¤ĩ": 5459,
      "ç®¡åĪ¶": 5460,
      "çĶ¨æ°´å½»åºķ": 5461,
      "Ġçľ¼çĿĽéĺ²æĬ¤": 5462,
      "Ġéģ¿åħįåĲ¸åħ¥èĴ¸æ°Ķ": 5463,
      "è§īçľ¼åĪºæ¿Ģ": 5464,
      "å°Ĩäººåĳĺ": 5465,
      "æļ´éľ²äºİ": 5466,
      "æ¹Ľæĸ°æłĳèĦĤ": 5467,
      "ç½ĲåĲ¬": 5468,
      "æĽ´å¤ļ": 5469,
      "æĽ´éķ¿çļĦ": 5470,
      "éĢŁçİĩ": 5471,
      "è®¤è¯Ĩ": 5472,
      "ish": 5473,
      "ç§ĳåĮ»çĶŁ": 5474,
      "Ġåį±å®³æĢ§": 5475,
      "Ġåį±å®³ç±»åĪ«": 5476,
      "æ¶Īåħī": 5477,
      "åı¯èĥ½ä¼ļå¼ķèµ·": 5478,
      "ĠWD": 5479,
      "Ġsolid": 5480,
      "Ġå¹´": 5481,
      "çģ«çģ¾åį±éĻ©": 5482,
      "ĠCompl": 5483,
      "Ġæİ¨èįĲçĶ¨äºİ": 5484,
      "åŃĺæĶ¾äºİ": 5485,
      "Ġä¸ŃåĽ½æ±Łèĭıçľģ": 5486,
      "éĵĿé¢ľæĸĻ": 5487,
      "éĵĿç®Ķ": 5488,
      "CATION": 5489,
      "é¦ĸ": 5490,
      "é¥®æĸĻ": 5491,
      "Ġresist": 5492,
      "Ġwit": 5493,
      "Ġwww": 5494,
      "ä»ħéĢĤçĶ¨äºİ": 5495,
      "æĪĳåħ¬åı¸": 5496,
      "éĻĲåĪ¶ä½¿çĶ¨": 5497,
      "Ġå»ºè®®çĶ¨éĢĶ": 5498,
      "Ġæ±½è½¦": 5499,
      "Ġåħ¸åŀĭåĢ¼": 5500,
      "ä»İçģ«åľº": 5501,
      "æº¢æ¼ı": 5502,
      "ç¼©åĲĪ": 5503,
      "å¹¿ä¸ľçľģ": 5504,
      "ĠåŃĺæĶ¾äºİ": 5505,
      "éľĢè¦ģæĽ´éķ¿çļĦ": 5506,
      "ĠOSHA": 5507,
      "åĽłæŃ¤": 5508,
      "ä½ľä¸ļåĲİå½»åºķæ¸ħæ´Ĺ": 5509,
      "ç§ĳæĬĢåĽŃ": 5510,
      "æ»ĳçĪ½": 5511,
      "æ±Łä¸Ńè·¯": 5512,
      "ç§»èĩ³ç©ºæ°Ķæĸ°é²ľå¤Ħ": 5513,
      "æ°´æĢ§ä½ĵç³»": 5514,
      "Ġåı¯èĥ½éĢłæĪĲçļ®èĤ¤è¿ĩæķıåıįåºĶ": 5515,
      "æļĹ": 5516,
      "Ġåħ¶ä»ĸåĲįç§°": 5517,
      "è´§çī©": 5518,
      "Ġè¿ľç¦»çģ«ç§į": 5519,
      "çģ«åľºä¸ŃçļĦ": 5520,
      "Covestro": 5521,
      "è¿ĩæ»¤åĻ¨": 5522,
      "äºļçĶ²åŁº": 5523,
      "ĠçŁŃ": 5524,
      "SHAMR": 5525,
      "ORMA": 5526,
      "Ġnot": 5527,
      "åĲ¦åĪĻ": 5528,
      "åį·æĿĲæ¶ĤæĸĻ": 5529,
      "åĲ¸éĻĦæĿĲæĸĻåĲ¸æĶ¶": 5530,
      "--------------------------------": 5531,
      "ç©¿æĪ´éĢĤå½ĵçļĦ": 5532,
      "Ġæ¸ħæ¾Ī": 5533,
      "UNç¼ĸåı·": 5534,
      "nolit": 5535,
      "Ġli": 5536,
      "ĠéĨĭéħ¸ä¸ģéħ¯": 5537,
      "éģµå¾ª": 5538,
      "Ġä¸ªä½ĵéĺ²æĬ¤": 5539,
      "æĽ´æĸ°æĹ¥æľŁ": 5540,
      "Ġå½±åĵį": 5541,
      "æ¯ıå¤©": 5542,
      "æ¯ıæī¹æ¬¡æ£Ģæµĭ": 5543,
      "èĤºéĥ¨": 5544,
      "çīĩåŀĭ": 5545,
      "å½©åĮĸå·¥æľīéĻĲåħ¬åı¸": 5546,
      "éº»éĨīæķĪåºĶ": 5547,
      "è¡Ģæ¶²": 5548,
      "éĻ¤æīĢæľīçģ«æºĲ": 5549,
      "Ġå¹¿å·ŀ": 5550,
      "åĤ¨åŃĺåľ¨å¹²çĩ¥": 5551,
      "äº¤èģĶåīĤ": 5552,
      "æ®ĭçķĻçī©": 5553,
      "ĠçĶ²éħļ": 5554,
      "ĠçĶ²ä¹Ļéħ®": 5555,
      "åıĳå¸ĥæĹ¶éĹ´": 5556,
      "åĮħåĲ«çļĦä¿¡æģ¯": 5557,
      "Ġåı¯å¼ķèµ·æĺıçĿ¡æĪĸçľ©æĻķ": 5558,
      "|-------------|": 5559,
      "Ġå·¥ä½ľåľºæīĢ": 5560,
      "çĶ¨æµģåĬ¨æ¸ħæ°´æĪĸçĶŁçĲĨçĽĲæ°´åĨ²æ´Ĺèĩ³å°ĳ": 5561,
      "åĸĤé£Łä»»ä½ķä¸ľè¥¿": 5562,
      "çīĽçļ®": 5563,
      "çĽĳç®¡": 5564,
      "æĿ¡æ¬¾åĿĩä»¥æºĲæĸĩä»¶ä¸ºåĩĨ": 5565,
      "|-------------------|": 5566,
      "å¾®ç²īåĮĸ": 5567,
      "ĠåĬ¨æĢģ": 5568,
      "Ġæ²¹å¢¨": 5569,
      "çī©çĲĨåıĬåĮĸåŃ¦æĢ§è´¨": 5570,
      "Ġæ¬§æ´²": 5571,
      "TREC": 5572,
      "ĠæŁĶ": 5573,
      "åĤ¨åŃĺåĴĮä½¿çĶ¨": 5574,
      "æµģåħ¥ä¸ĭæ°´éģĵ": 5575,
      "Ġå¦Ĥè¯¯åĲ¸åħ¥": 5576,
      "Ġæ°´åĪĨåĲ«éĩı": 5577,
      "å°ģéĹŃåŀĭèĦĤèĤªæĹıèģļå¼Ĥæ°°éħ¸éħ¯": 5578,
      "ĠèģĶåĲĪåĽ½ç¼ĸåı·": 5579,
      "æ°®æ°§åĮĸçī©": 5580,
      "åĩıå°ĳ": 5581,
      "Ġå°ıæĹ¶": 5582,
      "Ġç½ĳç«Ļ": 5583,
      "èĬ³çĥĥæº¶åīĤçŁ³èĦĳæ²¹": 5584,
      "æµ¦ä¸ľ": 5585,
      "æīĺçĽĺ": 5586,
      "ä¹ĻäºĮéĨĩéĨļ": 5587,
      "èĭ¯å¹¶èĥį": 5588,
      "ĠåĮĸåŃ¦åĵģèĭ±æĸĩåĲį": 5589,
      "ç¾§åŁº": 5590,
      "çĻ»è®°ä¸Ńå¿ĥ": 5591,
      "ioxide": 5592,
      "åħ«éĥ¨åĪĨ": 5593,
      "ĠæĳĦåħ¥": 5594,
      "ä¹ħæĢ§": 5595,
      "èĭ¯ä»£ä¸īèģļæ°°èĥºçĶ²éĨĽæłĳèĦĤ": 5596,
      "ç§»éĻ¤éļĲå½¢çľ¼éķľ": 5597,
      "çĦļçĥ§": 5598,
      "æİĴæĶ¾åĪ°": 5599,
      "è¯±å¯¼åĳķåĲĲ": 5600,
      "å¤§äºİæĪĸçŃīäºİä¸ĭéĻĲ": 5601,
      "sbhpp": 5602,
      "è¯ºå½©åĮĸå·¥æľīéĻĲåħ¬åı¸": 5603,
      "åĪĨå¼ĢåŃĺæĶ¾": 5604,
      "æľ¬æĿĲæĸĻä¸Ń": 5605,
      "çĽ®æłĩåĻ¨å®ĺæ¯ĴæĢ§": 5606,
      "PvB": 5607,
      "smooth": 5608,
      "®çĽĸåĬĽ": 5609,
      "īç±³çīĩåŀĭ": 5610,
      "å®īåħ¨å¤Ħç½®ä¸İåĤ¨åŃĺæĸ¹æ³ķ": 5611,
      "Ġæİ§åĪ¶åıĤæķ°": 5612,
      "ĠTECHN": 5613,
      "ĠEternal": 5614,
      "å¿ĥèĤºå¤įèĭı": 5615,
      "èŃ¦æĬ¥ä»£çłģ": 5616,
      "çķªç¦º": 5617,
      "ĠéĹªçģ«çĤ¹": 5618,
      "æ°¯éĨĭæłĳèĦĤ": 5619,
      "ĠComplete": 5620,
      "Ġresistance": 5621,
      "SHAMROCK": 5622,
      "åĮħåĲ«çļĦä¿¡æģ¯æĺ¯": 5623,
      "%]": 5624,
      "AR": 5625,
      "BI": 5626,
      "Béħįæĸ¹": 5627,
      "HE": 5628,
      "Ha": 5629,
      "HMIS": 5630,
      "IL": 5631,
      "IP": 5632,
      "MG": 5633,
      "OW": 5634,
      "PE": 5635,
      "St": 5636,
      "TA": 5637,
      "TS": 5638,
      "VOC": 5639,
      "ZHO": 5640,
      "cn": 5641,
      "ian": 5642,
      "iang": 5643,
      "impl": 5644,
      "lyc": 5645,
      "opment": 5646,
      "res": 5647,
      "ren": 5648,
      "tana": 5649,
      "watch": 5650,
      "ys": 5651,
      "zene": 5652,
      "£åĳĬ": 5653,
      "¥è¯Ĩ": 5654,
      "®è¶³éĩıæ¸©æ°´": 5655,
      "®ä¹¡": 5656,
      "¯åı£": 5657,
      "±¼": 5658,
      "±æķ": 5659,
      "³äºİ": 5660,
      "¶æĢģ": 5661,
      "¸¯åı£": 5662,
      "æŀĭ": 5663,
      "æļ´": 5664,
      "ĠçĶ±": 5665,
      "Ġä¼ĺå¼Ĥ": 5666,
      "Ġèĭ±": 5667,
      "ĠéĢļè¿ĩ": 5668,
      "Ġèº«ä½ĵéĺ²æĬ¤": 5669,
      "ĠåĲ¦": 5670,
      "Ġèĭıå·ŀ": 5671,
      "Ġä¹³": 5672,
      "Ġè¿ĲåĬ¨": 5673,
      "ĥé²ģ": 5674,
      "ħæĢĿ": 5675,
      "Ĭ¶æĢģ": 5676,
      "Ĳå°Ħ": 5677,
      "ĳæµĬ": 5678,
      "Ķç»Ĩ": 5679,
      "Ļéķĩ": 5680,
      "ĽçĥĪåıįåºĶ": 5681,
      "ľçĿ¡": 5682,
      "**ï¼Ľ": 5683,
      "**ï½ľ**": 5684,
      "åı¹åı·": 5685,
      "äººæ": 5686,
      "Ġæ¡¶": 5687,
      "å®£åĳĬ": 5688,
      "ï¼Ī>": 5689,
      "ĠçĬ¶æĢģ": 5690,
      "åº§": 5691,
      "çļĦæ··åĲĪçī©": 5692,
      "çļĦå»ºè®®": 5693,
      "çļĦåĮºåŁŁ": 5694,
      "çļĦçĶµæ°Ķ": 5695,
      "çĶ¨åĮĸåŃ¦åĵģ": 5696,
      "è§Ĵ": 5697,
      "çģŃ": 5698,
      "ä»Ķç»Ĩ": 5699,
      "åĲ¸æ²¹": 5700,
      "æ°´ç³»": 5701,
      "æ°´æŀ": 5702,
      "æ°´åĸ·éĽ¾": 5703,
      "åĴĮç»ı": 5704,
      "åĴĮçģ«èĬ±": 5705,
      "åĴĮæĺİçģ«": 5706,
      "åĴĮçľ¼æįŁä¼¤": 5707,
      "åĴĮèģļç¡ħæ°§çĥ·": 5708,
      "åı¯åĽºåĮĸ": 5709,
      "åı¯è¾¾": 5710,
      "åı¯è§ģ": 5711,
      "åı¯å½¢æĪĲçĪĨçĤ¸æĢ§æ··åĲĪçī©": 5712,
      "åī§": 5713,
      "å°¿": 5714,
      "æ³³": 5715,
      "|------|----------|": 5716,
      "æ°§æ°Ķ": 5717,
      "èĤĿ": 5718,
      "ä¼Ļéķĩ": 5719,
      "æĪĸçĪĨçĤ¸": 5720,
      "æĪĸä¸¥éĩį": 5721,
      "æĪĸä»İ": 5722,
      "æĪĸæŃ£åİĭèĩªç»Ļå¼ıåĳ¼åĲ¸åĻ¨": 5723,
      "æĪĸçļ®çĸ¹": 5724,
      "ä¸įæĺ¯": 5725,
      "ä¸įæĺİæĺ¾": 5726,
      "äº§åĵģæĢ§èĥ½": 5727,
      "äº§åĵģæĮĩæłĩ": 5728,
      "æ°Ķä¸Ń": 5729,
      "æ°Ķå¼ıéĿ¢ç½©": 5730,
      "éĩıå¹³åĿĩå®¹è®¸æµĵåº¦": 5731,
      "æİ¥çĿĢ": 5732,
      "æµĳæµĬ": 5733,
      "å¯®ä¹¡": 5734,
      "ä¸ŃçŃī": 5735,
      "ç³»æķ°": 5736,
      "å·Ŀ": 5737,
      "éħ¸ç±»": 5738,
      "å½¤": 5739,
      "çľ¼éĿ¢éĺ²æĬ¤": 5740,
      "çľ¼ç§ĳåĮ»çĶŁ": 5741,
      "çļ®èĤ¤æĪĸ": 5742,
      "ä¿Ŀç®¡": 5743,
      "ä½¿æĤ£èĢħ": 5744,
      "åħ¨éĿ¢": 5745,
      "åħ¨çĲĥ": 5746,
      "æī¬": 5747,
      "éģŃ": 5748,
      "éģ¿åħ": 5749,
      "ä¸ģä¼Ļéķĩ": 5750,
      "äºĮçĶ²": 5751,
      "çĲĨåĮĸçī¹æĢ§": 5752,
      "åį±éĻ©åıįåºĶ": 5753,
      "æ±ī": 5754,
      "åĢ¦": 5755,
      "åıĬå®īåħ¨": 5756,
      "åıĬåħ¶ä»ĸ": 5757,
      "åıĬçĶŁäº§åķĨ": 5758,
      "æĶ¿": 5759,
      "éħįæĸ¹ä¸Ń": 5760,
      "ĠPast": 5761,
      "æłĳèĦĤçłĶåıĳä¸Ńå¿ĥ": 5762,
      "åľ¨æ°´": 5763,
      "åľ¨å®ŀéªĮå®¤": 5764,
      "åĮĸåŃ¦å·¥ä¸ļåĮº": 5765,
      "éĢļæ°Ķå¼ıéĿ¢ç½©": 5766,
      "Ġç¬¬åįģ": 5767,
      "Ġç¬¬åħ«éĥ¨åĪĨ": 5768,
      "å¥¶": 5769,
      "æ¸ħæĸ°": 5770,
      "å¦Ĥçļ®èĤ¤": 5771,
      "å¦ĤåıĳçĶŁçļ®èĤ¤åĪºæ¿Ģ": 5772,
      "å¤§åŃ¦": 5773,
      "å®īåħ¨ä½¿çĶ¨": 5774,
      "æ¶²ä½ĵçĬ¶": 5775,
      "Ġ(>": 5776,
      "å¿½": 5777,
      "åıĳçĤİ": 5778,
      "Ġäº§åĵģæĬĢæľ¯æķ°æį®è¡¨": 5779,
      "å¯¹äººä½ĵ": 5780,
      "çľ¼çĿĽåĴĮ": 5781,
      "çľ¼çĿĽèĩ³å°ĳ": 5782,
      "æ¶ĤæĸĻä¸Ń": 5783,
      "æ¶ĤæĸĻå·¥ä¸ļ": 5784,
      "ä¾Ľè´§": 5785,
      "anuf": 5786,
      "é«ĺäºİ": 5787,
      "è¾Ĳå°Ħ": 5788,
      "èĴ¸æ°ĶåĴĮ": 5789,
      "èĩ´çªģåıĺæĢ§": 5790,
      "èĩ´è¿ĩæķıæĢ§": 5791,
      "ĠSol": 5792,
      "ĠSEC": 5793,
      "æ¡¥": 5794,
      "ä¼ļéĢłæĪĲ": 5795,
      "æĹłæľº": 5796,
      "æĹłæķĪ": 5797,
      "ç¡¬": 5798,
      "å¹¶ä½¿": 5799,
      "ä¸ºæ¶²ä½ĵçĬ¶": 5800,
      "ç¦»å¼Ģ": 5801,
      "è¿Ľåı£": 5802,
      "å¹²æĢ§": 5803,
      "èĢĲçĩĥ": 5804,
      "èĢĲç¢±": 5805,
      "æ¯ĴæĢ§èµĦæĸĻ": 5806,
      "å½¢çĬ¶": 5807,
      "enol": 5808,
      "âĦĥãĢģ": 5809,
      "âĦĥï¼Į": 5810,
      "âĦĥï¼Ľ": 5811,
      "éĽĦ": 5812,
      "éĽħæĢĿ": 5813,
      "Ġåį±éĻ©è¯´æĺİ": 5814,
      "æīĢè½½": 5815,
      "å¼Ĥä¸ģåŁº": 5816,
      "æĶ¾åħ¥": 5817,
      "å¼ķèµ·çļĦ": 5818,
      "-----------": 5819,
      "ĠDevel": 5820,
      "çĥ¯ç±»æłĳèĦĤ": 5821,
      "ĠThe": 5822,
      "ĠTiO": 5823,
      "ĠTIOXIDE": 5824,
      "æ¯Ķèī²è®¡": 5825,
      "ĠEU": 5826,
      "æĺ¯åĽºåĮĸåīĤ": 5827,
      "éģ¿åħįéĺ³åħīçĽ´å°Ħ": 5828,
      "æĵįä½ľå¤ĦçĲĨ": 5829,
      "ĠåĮĸåŃ¦åĵģä¸ŃæĸĩåĲįç§°": 5830,
      "altana": 5831,
      "çŃīçĹĩçĬ¶": 5832,
      "æµģéĢŁ": 5833,
      "è¡Įä¸º": 5834,
      "ĠAD": 5835,
      "ä½İä½į": 5836,
      "æ³Ħæ¼ıåĮºåŁŁ": 5837,
      "æ³Ħæ¼ıå¤ĦçĲĨæĸ¹æ³ķ": 5838,
      "è¿ĲéĢģ": 5839,
      "ĠReg": 5840,
      "å½ĵéĩı": 5841,
      "èĩªå¤ĩ": 5842,
      "èĩªå·±": 5843,
      "æĥ¯": 5844,
      "æĥ³": 5845,
      "èĥ¶åį°æ²¹å¢¨": 5846,
      "èģĶéĽħæĢĿ": 5847,
      "æľªç»ı": 5848,
      "æµ·æ´ĭæ±¡æŁĵçī©": 5849,
      "ç²ĺèĨľ": 5850,
      "Ġå¤ĸ": 5851,
      "äºĭä¸ļ": 5852,
      "Ġåį±éĻ©æĢ§æłĩè¯Ĩ": 5853,
      "éķ¿æĺ¥": 5854,
      "æľĢä½İ": 5855,
      "ä¿ĿæĬ¤è®¾å¤ĩ": 5856,
      "æīĢæľīçĤ¹çģ«æºĲ": 5857,
      "éľĢæ±Ĥ": 5858,
      "æĭ¿": 5859,
      "ĠKG": 5860,
      "ĠLEL": 5861,
      "äº§çĶŁçļĦ": 5862,
      "åİŁè£ħ": 5863,
      "åİŁä½ĵä½į": 5864,
      "ä¸¥éĩįçľ¼çĿĽæįŁä¼¤": 5865,
      "åĨħçļĦ": 5866,
      "rov": 5867,
      "è¯·èģĶç³»": 5868,
      "è¯·åĴ¨è¯¢": 5869,
      "åºĶçĶ¨èĮĥåĽ´": 5870,
      "é»Ħå±±å¸Ĥ": 5871,
      "GHSåį±å®³": 5872,
      "GHSæłĩåĩĨ": 5873,
      "ç§įç±»": 5874,
      "IARC": 5875,
      "å¸¸çļĦ": 5876,
      "æĸĩæ¡£æķ´çĲĨæĹ¥æľŁ": 5877,
      "ä¼łæĴŃ": 5878,
      "ĠçĶ¨æ°´åĨ²æ´Ĺ": 5879,
      "åĽ´åł": 5880,
      "è¿Ĳè¾ĵåĴĮ": 5881,
      "è¿Ĳè¾ĵä¿¡æģ¯": 5882,
      "Ġç»Ħ": 5883,
      "Ġç»ı": 5884,
      "æ·»åĬłçļĦ": 5885,
      "æ·»åĬłåĪ°": 5886,
      "èĤ¥çļĤåĨ²æ´Ĺ": 5887,
      "äºĮæ°§åĮĸç¢³æĪĸ": 5888,
      "å¤įåĲĪ": 5889,
      "å¤įåİŁä½ĵä½į": 5890,
      "å¼Ģå°ģ": 5891,
      "å¼Ģå¤§åŃ¦": 5892,
      "èĨľåİļ": 5893,
      "Ġåı¯çĶ¨äºİ": 5894,
      "æ°Ķåĳ³ä¸įæĺİæĺ¾": 5895,
      "éĢļé£İèī¯å¥½çļĦåľ°æĸ¹": 5896,
      "ĠåĲ¸åħ¥åį±å®³": 5897,
      "Ġç«ĭåį³çĶ¨": 5898,
      "è¿Ľè¡ĮåĪĨç±»": 5899,
      "å½¢æĪĲåı¯çĩĥ": 5900,
      "è¢«æ±¡æŁĵçļĦ": 5901,
      "è¢«çĤ¹çĩĥ": 5902,
      "å£«": 5903,
      "å¼ºç¢±": 5904,
      "å¼ºçĥĪåıįåºĶ": 5905,
      "æ¸©åº¦ä¸ĭ": 5906,
      "ACUR": 5907,
      "åįĹå¼Ģå¤§åŃ¦": 5908,
      "éĤ¦åĮĸå·¥æľīéĻĲåħ¬åı¸": 5909,
      "åĪĩå¿Į": 5910,
      "åīįåħĪ": 5911,
      "å¤´æĺı": 5912,
      "å¤´ä½İä½į": 5913,
      "ĠÂ·": 5914,
      "ç¦ģæŃ¢æİĴåħ¥": 5915,
      "æĸĩä»¶å¤¹": 5916,
      "åĮħè£ħç±»åĪ«": 5917,
      "åĮħè£ħè¢ĭ": 5918,
      "éĩĳå±ŀæ¶ĤæĸĻ": 5919,
      "ç¾ŁçĶ²åŁº": 5920,
      "å¹²ç²īæĪĸ": 5921,
      "ĠéĹ´æİ¥": 5922,
      "Ġæ¶Īéĺ²åĳĺ": 5923,
      "Ġå¯¹åıĶä¸ģåŁº": 5924,
      "Ġå¯¹æ°´çİ¯å¢ĥ": 5925,
      "åįķæ¬¡æİ¥è§¦": 5926,
      "çĶ¨å¤§éĩıæ°´åĨ²æ´Ĺ": 5927,
      "é¥°": 5928,
      "é¥±åĴĮ": 5929,
      "Ġæ°´éĽ¾": 5930,
      "ç®¡éģĵ": 5931,
      "åıĮä¸Ļéħ®": 5932,
      "ĠGBA": 5933,
      "Ġéģ¿åħįæİ¥è§¦": 5934,
      "å¯Ĩå°ģå®¹åĻ¨ä¸Ń": 5935,
      "æµĵåº¦èĮĥåĽ´": 5936,
      "æŁ±": 5937,
      "ANO": 5938,
      "ANY": 5939,
      "ĠåĽºåĮĸ": 5940,
      "åĽºä½ĵåĪĨ": 5941,
      "åĽºä½ĵçİ¯æ°§æłĳèĦĤ": 5942,
      "ĠUV": 5943,
      "Ġä¹ĻåŁºèĭ¯": 5944,
      "åĪĨæķ£ä½ĵ": 5945,
      "èģĶç³»æĸ¹å¼ı": 5946,
      "Ġå¼±": 5947,
      "ç§ĳéĤ¦åĮĸå·¥æľīéĻĲåħ¬åı¸": 5948,
      "Ġåį±å®³çī©æĪĲåĪĨ": 5949,
      "æĲº": 5950,
      "æ¶ĪéĻ¤": 5951,
      "åı¯èĥ½ä¼ļäº§çĶŁ": 5952,
      "åı¯èĥ½ä¼ļåĪºæ¿Ģåĳ¼åĲ¸ç³»ç»Ł": 5953,
      "Ġsec": 5954,
      "åı¯èĥ½å¼ķèµ·åĳ¼åĲ¸éģĵåĪºæ¿Ģ": 5955,
      "æµģåĬ¨æ¸ħæ°´åĨ²æ´Ĺ": 5956,
      "è½¬ç§»åĩºæ": 5957,
      "Ġçī©è´¨å®īåħ¨èµĦæĸĻè¡¨": 5958,
      "Ġçī©è´¨ä¸İåħ¬åı¸æłĩè¯Ĩ": 5959,
      "ECK": 5960,
      "Ġrpm": 5961,
      "æŃ¤ç±»": 5962,
      "è¾¾é¢ľæĸĻ": 5963,
      "Ġwarr": 5964,
      "åħĭèı²": 5965,
      "Ġä¸Ĭæµ·æħ§æĸ°åĮĸå·¥æľīéĻĲåħ¬åı¸": 5966,
      "èģļåĲĪçī©æľīéĻĲåħ¬åı¸": 5967,
      "ellus": 5968,
      "|--------------": 5969,
      "IOSH": 5970,
      "åĪºæ¿ĢæĢ§æ°Ķä½ĵ": 5971,
      "ĠæłĳèĦĤæº¶æ¶²": 5972,
      "å¾·ç²ĺåº¦": 5973,
      "è¯¥äº§åĵģä¸ºæ¶²ä½ĵçĬ¶": 5974,
      "æł¹æį®çĹĩçĬ¶": 5975,
      "ĠIndustrial": 5976,
      "ĠGHSåį±éĻ©æĢ§åĪĨç±»": 5977,
      "èĦ±æİīæ±¡æŁĵè¡£çī©": 5978,
      "æ°§åŁºä¹ĻéĨĩ": 5979,
      "æĿ¡ä»¶ä¸ĭåĤ¨åŃĺ": 5980,
      "æĿ¡ä»¶ä¸ĭç¨³å®ļ": 5981,
      "å¤±æĺİ": 5982,
      "éģĩçģ«æºĲ": 5983,
      "ä¸įè¦ģåĤ¬åĲĲ": 5984,
      "ä¸įè¦ģè¿Ľé£Ł": 5985,
      "Ġçī©çĲĨåį±éĻ©": 5986,
      "çĶ¨èĤ¥çļĤæ°´åıĬæ¸ħæ°´å½»åºķåĨ²æ´Ĺçļ®èĤ¤": 5987,
      "ç¼©åŃĶ": 5988,
      "ade": 5989,
      "Ġdata": 5990,
      "Ġæľªè¢«åĪĨç±»": 5991,
      "çº¢èĤ¿": 5992,
      "ĠCOMP": 5993,
      "ĠXn": 5994,
      "äºİéĺ´åĩīå¤Ħ": 5995,
      "èĬ³é¦Ļæ°Ķåĳ³": 5996,
      "æĪĳä»¬çļĦäº§åĵģ": 5997,
      "åĨ·åį´å®¹åĻ¨": 5998,
      "Ġinformation": 5999,
      "åħ±åĴĮ": 6000,
      "Ġä¸¥éĩįçľ¼çĿĽæįŁä¼¤": 6001,
      "æ±Łéĥ½": 6002,
      "èĭ±æĸĩåĲįç§°": 6003,
      "Ġä¼ģä¸ļåľ°åĿĢ": 6004,
      "çº¸è¢ĭ": 6005,
      "china": 6006,
      "Ġå¸ĥé²ģ": 6007,
      "ä¿ĿæĮģåĳ¼åĲ¸éģĵçķħéĢļ": 6008,
      "ropanol": 6009,
      "æļĤ": 6010,
      "ĠçĪ±æķ": 6011,
      "ä¹Ļéħ¸ä¸ģéħ¯": 6012,
      "ä¸Ńå¿ĥæĪĸå°±åĮ»": 6013,
      "å»¶éķ¿": 6014,
      "çģ«çĦ°åĴĮçģ«èĬ±": 6015,
      "æħ¢æĢ§çļĦå½±åĵį": 6016,
      "Ġæīĭéĥ¨éĺ²æĬ¤": 6017,
      "Ġè¿ľç¦»çģ«æºĲ": 6018,
      "Coæ¯Ķèī²è®¡": 6019,
      "Ġåİ»": 6020,
      "åİ¿æŀĭ": 6021,
      "è¯ķéªĮçļĦ": 6022,
      "ĠçĶ¨å¤§éĩıæ°´å½»åºķåĨ²æ´Ĺèĩ³å°ĳ": 6023,
      "ĠçŁ¥è¯Ĩ": 6024,
      "å°Ķå¾·ç²ĺåº¦": 6025,
      "åĲĪæĪĲæĿĲæĸĻæľīéĻĲåħ¬åı¸": 6026,
      "Ġéķ¿åħ´åĮĸåŃ¦å·¥ä¸ļ": 6027,
      "ulation": 6028,
      "ĠYas": 6029,
      "|------|------|------|---------|": 6030,
      "ç»ıæµİåĽŃ": 6031,
      "è¿Ľè¡Įäººå·¥åĳ¼åĲ¸æĪĸ": 6032,
      "igment": 6033,
      "å·¥ä¸ļåĮºå±ı": 6034,
      "Ġæ··åĲĪ": 6035,
      "Ġç¡®": 6036,
      "ĠJin": 6037,
      "ĠJiang": 6038,
      "Ġæ¼ĨèĨľ": 6039,
      "åĮºæ¸¯åı£": 6040,
      "ç½ĳåĿĢ": 6041,
      "ç´§éĹŃ": 6042,
      "Chemwatch": 6043,
      "GIES": 6044,
      "anty": 6045,
      "æĥ°æĢ§åĲ¸éĻĦæĿĲæĸĻåĲ¸æĶ¶": 6046,
      "actur": 6047,
      "Ġå¾®ç±³": 6048,
      "Ġæ¯ĴçĲĨåŃ¦èµĦæĸĻ": 6049,
      "ability": 6050,
      "phor": 6051,
      "åĲĪè§Ħå£°æĺİ": 6052,
      "çŃĳåł¤": 6053,
      "è¿Ľåħ¥ä¸ĭæ°´éģĵæĪĸ": 6054,
      "ĠçĶŁæ®ĸç»Ĩèĥŀ": 6055,
      "å½©èī²": 6056,
      "äºĮæ°§åĮĸç¡ħ": 6057,
      "irenol": 6058,
      "åįıåĬ©": 6059,
      "æ¬§æ´²": 6060,
      "Ġè¿ħéĢŁèĦ±ç¦»çİ°åľºç§»åĪ°ç©ºæ°Ķæĸ°é²ľå¤Ħ": 6061,
      "åĽ½éĻħè§Ħç«ł": 6062,
      "ertellus": 6063,
      "ç§¯èģļéĿĻçĶµ": 6064,
      "ETèĨľ": 6065,
      "ĠæĺĵçĩĥæĢ§": 6066,
      "ç«ĭåĪ»": 6067,
      "çİ¯å¢ĥä¿ĿæĬ¤æİªæĸ½": 6068,
      "ä¸Ńæ¯Ĵæİ§åĪ¶ä¸Ńå¿ĥæĪĸå°±åĮ»": 6069,
      "åĳ¨åĽ´çİ¯å¢ĥ": 6070,
      "quatic": 6071,
      "çīĽå¥¶": 6072,
      "åĴĮéŀĭåŃĲ": 6073,
      "åĮĸåŃ¦å·¥ä¸ļåĮºæ": 6074,
      "ä¼ļå¯¹åĻ¨å®ĺéĢłæĪĲæįŁå®³": 6075,
      "ĠçĶ²åŁºä¸Ļçĥ¯éħ¸": 6076,
      "ä¸ºæ·": 6077,
      "ä¸īåħĥåħ±èģļçī©": 6078,
      "çī©çĲĨåıĬåĮĸåŃ¦": 6079,
      "Ġä¸Ļçĥ¯éħ¸æłĳèĦĤ": 6080,
      "å»ºçŃĳ": 6081,
      "èĤ¾èĦı": 6082,
      "éĨĩéħ¸æłĳèĦĤ": 6083,
      "Ġå¦Ĥçļ®èĤ¤æ²¾æŁĵ": 6084,
      "éķ¿æľŁæİ¥è§¦åı¯èĥ½ä¼ļå¯¼èĩ´": 6085,
      "åĹľçĿ¡": 6086,
      "çļĦä¿ĿæĬ¤æīĭå¥Ĺ": 6087,
      "åı¯éĢłæĪĲéģĹä¼łæĢ§ç¼ºéĻ·": 6088,
      "å¤Ħäºİå¤įåİŁä½ĵä½į": 6089,
      "æİ¥è§¦æİ§åĪ¶åĴĮä¸ªä½ĵéĺ²æĬ¤": 6090,
      "å¾ªçİ¯ç»ıæµİåĽŃ": 6091,
      "å°¤åħ¶æĺ¯": 6092,
      "NFPA": 6093,
      "æĿ¾æ±Ł": 6094,
      "ä¸ģèħĪæ©¡èĥ¶": 6095,
      "é«ĺåĪĨåŃĲèģļéħ¯": 6096,
      "èģĶç»ľçĶµè¯Ŀ": 6097,
      "æĳĺè¦ģ": 6098,
      "OLOGIES": 6099,
      "Ġå¸¸å·ŀç§ĳéĤ¦åĮĸå·¥æľīéĻĲåħ¬åı¸": 6100,
      "çļĦéĺ²æĬ¤çľ¼ç½©": 6101,
      "æĺĨå±±å¸Ĥ": 6102,
      "Ġé¥®è¶³éĩıæ¸©æ°´": 6103,
      "åĲ¸åħ¥åį±å®³ç±»åĪ«": 6104,
      "éļĶç¦»": 6105,
      "ĠLIQU": 6106,
      "ä¹ĭåīįåĪĩåĭ¿": 6107,
      "éĺ²èĮĥæİªæĸ½ä¹ĭåīįåĪĩåĭ¿": 6108,
      "å¿ħé¡»ä½¿çĶ¨éĢļæ°Ķå¼ıéĿ¢ç½©": 6109,
      "Ġä¸ĻäºĮéĨĩçĶ²éĨļéĨĭéħ¸éħ¯": 6110,
      "Email": 6111,
      "çģ«åĬ¿èĶĵå»¶": 6112,
      "åĮĸåŃ¦å®īåħ¨éĺ²æĬ¤çľ¼éķľ": 6113,
      "å®īåħ¨ç®¡çĲĨæĿ¡ä¾ĭ": 6114,
      "åĽ½éļĨæłĳèĦĤçłĶåıĳä¸Ńå¿ĥ": 6115,
      "éĵĤèģĶéĽħæĢĿ": 6116,
      "è¯·æŁ¥éĺħ": 6117,
      "¸ç¦»çĶ²éĨĽåĲ«éĩı": 6118,
      "ĠåĬ©åīĤçĶ¨éĩı": 6119,
      "çĮĽçĥĪåıįåºĶ": 6120,
      "åįĬéĿ¢ç½©": 6121,
      "çģĮè£ħ": 6122,
      "æĬĳåĪ¶": 6123,
      "æĹŃéĺ³": 6124,
      "æĺİç¤ºæĪĸæļĹ": 6125,
      "å°ıäºİä¸ĬéĻĲ": 6126,
      "åįĹéĢļå¸Ĥç»ıæµİæĬĢæľ¯å¼ĢåıĳåĮºæ¸¯åı£": 6127,
      "å±ıåįĹå·¥ä¸ļåĮºå±ı": 6128,
      "è®Ńç»ĥçļĦäººåĳĺ": 6129,
      "Ġå®īå¾½çľģé»Ħå±±å¸Ĥ": 6130,
      "AMMA": 6131,
      "ĠRHE": 6132,
      "Ġæŀģ": 6133,
      "åĴĮèģļåĲĪçī©æ¶Ĥå±Ĥ": 6134,
      "çļ®èĤ¤çģ¼ä¼¤åĴĮçľ¼æįŁä¼¤": 6135,
      "æ¯ķåħĭåĬ©åīĤ": 6136,
      "oldt": 6137,
      "è·Ŀç¦»": 6138,
      "æ»¡è¶³": 6139,
      "Ġçº³ç±³æ°§åĮĸéĵģçº¢": 6140,
      "å®¶åħ·æ¶ĤæĸĻ": 6141,
      "æĸ½æķĳèĢħçļĦ": 6142,
      "±¡æŁĵåĮº": 6143,
      "âĹĭ": 6144,
      "çħ®": 6145,
      "Ġether": 6146,
      "ĠçĤ¹çģ«æ¸©åº¦": 6147,
      "çĶŁæķĪæĹ¥æľŁ": 6148,
      "æ²¿åľ°éĿ¢": 6149,
      "å¤§è±Ĩæ²¹": 6150,
      "æīĢåĲ«ä¿¡æģ¯": 6151,
      "æīĢæľīå®īåħ¨éĺ²èĮĥæİªæĸ½ä¹ĭåīįåĪĩåĭ¿": 6152,
      "æĽ´å¤ļä¿¡æģ¯": 6153,
      "æ»ĳçĪ½æĢ§": 6154,
      "çģ«åľºä¸ŃçļĦå®¹åĻ¨": 6155,
      "ORMATION": 6156,
      "ĠåĬ¨æĢģç²ĺåº¦": 6157,
      "ĠæŁĶéŁ§æĢ§": 6158,
      "èĭ¯å¹¶èĥįèĥº": 6159,
      "ĠTECHNOLOGIES": 6160,
      "å¿ĥèĤºå¤įèĭıæľ¯": 6161,
      "ZHOU": 6162,
      "Ġè¿ĲåĬ¨é»ıåº¦": 6163,
      "æ°´æŀª": 6164,
      "å¯®ä¹¡å±ıåįĹå·¥ä¸ļåĮºå±ı": 6165,
      "ä½¿æĤ£èĢħå¤Ħäºİå¤įåİŁä½ĵä½į": 6166,
      "åıĬçĶŁäº§åķĨèµĦæĸĻ": 6167,
      "ĠPaste": 6168,
      "anufactur": 6169,
      "ĠSECTION": 6170,
      "ĠDevelopment": 6171,
      "åĽ´åłµ": 6172,
      "ACURE": 6173,
      "åĪĩå¿Įæ··åĤ¨": 6174,
      "ĠéĹ´æİ¥é£Łåĵģæ·»åĬłåīĤ": 6175,
      "åıĮä¸Ļéħ®éĨĩ": 6176,
      "è½¬ç§»åĩºæ±¡æŁĵåĮº": 6177,
      "Ġwarranty": 6178,
      "åħĭèı²å°Ķå¾·ç²ĺåº¦": 6179,
      "ĠCOMPANY": 6180,
      "Ġå¸ĥé²ģåħĭèı²å°Ķå¾·ç²ĺåº¦": 6181,
      "ĠçĪ±æķ¬": 6182,
      "åİ¿æŀĭå¯®ä¹¡å±ıåįĹå·¥ä¸ļåĮºå±ı": 6183,
      "ĠçŁ¥è¯Ĩåºĵ": 6184,
      "éķ¿æľŁæİ¥è§¦åı¯èĥ½ä¼ļå¯¼èĩ´æħ¢æĢ§çļĦå½±åĵį": 6185,
      "ĠLIQUID": 6186,
      "å¿ħé¡»ä½¿çĶ¨éĢļæ°Ķå¼ıéĿ¢ç½©æĪĸæŃ£åİĭèĩªç»Ļå¼ıåĳ¼åĲ¸åĻ¨": 6187,
      "éĵĤèģĶéĽħæĢĿè¾¾é¢ľæĸĻ": 6188,
      "åįĹéĢļå¸Ĥç»ıæµİæĬĢæľ¯å¼ĢåıĳåĮºæ¸¯åı£å·¥ä¸ļ": 6189,
      "ä½¿æĤ£èĢħå¤Ħäºİå¤įåİŁä½ĵä½įå¹¶å°±åĮ»": 6190,
      "åİ¿æŀĭå¯®ä¹¡å±ıåįĹå·¥ä¸ļåĮºå±ıåįĹè·¯": 6191,
      "-(": 6192,
      "-:|": 6193,
      ":|------|": 6194,
      "Aç±»": 6195,
      "DG": 6196,
      "Dynoadd": 6197,
      "HC": 6198,
      "IM": 6199,
      "IEC": 6200,
      "NI": 6201,
      "NIOSH": 6202,
      "OEL": 6203,
      "PBT": 6204,
      "RE": 6205,
      "SM": 6206,
      "ST": 6207,
      "Shamrock": 6208,
      "The": 6209,
      "UL": 6210,
      "Un": 6211,
      "UCA": 6212,
      "YM": 6213,
      "amin": 6214,
      "dit": 6215,
      "em": 6216,
      "eat": 6217,
      "ear": 6218,
      "fo": 6219,
      "ib": 6220,
      "iu": 6221,
      "lid": 6222,
      "pos": 6223,
      "phen": 6224,
      "qiu": 6225,
      "rol": 6226,
      "su": 6227,
      "san": 6228,
      "ust": 6229,
      "vPvB": 6230,
      "¡æł¸": 6231,
      "§è¡Į": 6232,
      "³åĹ": 6233,
      "·å¤Ħ": 6234,
      "¹åĸĦ": 6235,
      "¿ä»£": 6236,
      "âĨ": 6237,
      "æĩ": 6238,
      "ĠÎ": 6239,
      "Ġæľ¬": 6240,
      "ĠåĲįç§°": 6241,
      "Ġæĸ°": 6242,
      "Ġæľīå®³": 6243,
      "ĠåıįåºĶ": 6244,
      "Ġåħ·æľī": 6245,
      "ĠæľĪ": 6246,
      "Ġèģļéħ¯": 6247,
      "Ġth": 6248,
      "Ġä¿¡åı·è¯į": 6249,
      "Ġä»¥ä¸ĭ": 6250,
      "ĠéĻįä½İ": 6251,
      "Ġèĥ¶ç²ĺåīĤ": 6252,
      "ĠåĲįå½ķ": 6253,
      "ĠæľīæķĪ": 6254,
      "Ġåı£æľį": 6255,
      "ĠçĶ±äºİ": 6256,
      "Ġè±¡å½¢åĽ¾": 6257,
      "Ġè¯¦": 6258,
      "ĤæīĢæľīå®īåħ¨éĺ²èĮĥæİªæĸ½ä¹ĭåīįåĪĩåĭ¿": 6259,
      "ĪæĿĥ": 6260,
      "ıåı·": 6261,
      "ĺæ¼Ĩ": 6262,
      "łåĳĬ": 6263,
      "ŃçŁ³": 6264,
      "ï¼ģ": 6265,
      "ä¸´": 6266,
      "åĲ¨": 6267,
      "åħ¼": 6268,
      "æĸĳ": 6269,
      "æĸŃçģ«": 6270,
      "Ġå¥": 6271,
      "Ġåĸ": 6272,
      "Ġæ£Ģ": 6273,
      "ï¼ī*": 6274,
      "ï¼ī.": 6275,
      "ï¼īï½ľ": 6276,
      "Ġç«ĭ": 6277,
      "éħĲ": 6278,
      "çļĦåĪºæ¿Ģ": 6279,
      "çļĦäºº": 6280,
      "çļĦèĸĦèĨľ": 6281,
      "æİ¨": 6282,
      "éĻ¢": 6283,
      "åĪĨåĪĨæŀĲ": 6284,
      "åį§": 6285,
      "éĺ²æ¸Ĺ": 6286,
      "éĺ²æ½®": 6287,
      "åĮĸæ°¢": 6288,
      "åĴĻ": 6289,
      "åĴ³åĹ": 6290,
      "**ï¼ļ(": 6291,
      "è¿ª": 6292,
      "Ġé¦": 6293,
      "æ°´æµģ": 6294,
      "åı¯ä½ľ": 6295,
      "åı¯æĬĹ": 6296,
      "åı¯æĶ¹åĸĦ": 6297,
      "è¡¡": 6298,
      "åĳĪ": 6299,
      "æĹ¦": 6300,
      "æĹ·å¤Ħ": 6301,
      "æ³¢": 6302,
      "å¼¹æĢ§": 6303,
      "çľĭ": 6304,
      "æĪĸæĮģç»Ń": 6305,
      "æĪĸåıįå¤į": 6306,
      "æĪĸåķĨä¸ļ": 6307,
      "æĪĸä¸Ńæ¯Ĵæİ§åĪ¶ä¸Ńå¿ĥ": 6308,
      "æĪĸæµĵåº¦èĮĥåĽ´": 6309,
      "åºĶå¤ĩ": 6310,
      "èĥ½åľ¨": 6311,
      "èĥ½ä¸İç©ºæ°Ķå½¢æĪĲçĪĨçĤ¸æĢ§æ··åĲĪçī©": 6312,
      "çİ»çĴĥ": 6313,
      "ä¸įçĩĥ": 6314,
      "äº§åĵģæķ°æį®è¡¨": 6315,
      "äº§åĵģæııè¿°": 6316,
      "äº§åĵģè¿Ľåħ¥ä¸ĭæ°´éģĵ": 6317,
      "å·´": 6318,
      "æ¶²æĢģ": 6319,
      "çļ®éĿ©": 6320,
      "åĨ³äºİ": 6321,
      "æľ¬æĸĩæ¡£": 6322,
      "å¤Ħæī©æķ£åĪ°çĽ¸å½ĵè¿ľ": 6323,
      "æİ¥è§¦çľ¼çĿĽ": 6324,
      "çļ®èĤ¤ä¸Ĭ": 6325,
      "äºİå¤ĸæ³Ħ": 6326,
      "éħįæĪ´": 6327,
      "åŁİ": 6328,
      "éĨĩæ³¡æ²«": 6329,
      "æº¶æ³¡æ²«": 6330,
      "æº¶çº¤": 6331,
      "çĶµæ³³": 6332,
      "åĳ¼åĲ¸è®¾å¤ĩ": 6333,
      "åĪºæ¿Ģç±»åĪ«": 6334,
      "éģ®çĽĸåĬĽ": 6335,
      "ä½¿çĶ¨ä¸įä¼ļ": 6336,
      "ä¸İå®īåħ¨æĬĢæľ¯è¯´æĺİä¹¦": 6337,
      "åĲįæĸ¯": 6338,
      "åıĬåħ¶": 6339,
      "åıĬçģŃçģ«åīĤ": 6340,
      "åıĬæĵįä½ľå¤ĦçĲĨ": 6341,
      "ĠCE": 6342,
      "ĠCR": 6343,
      "ĠPU": 6344,
      "ĠPVC": 6345,
      "åĮĸåŃ¦èĤ¡ä»½æľīéĻĲåħ¬åı¸": 6346,
      "åŀĭåı·": 6347,
      "æĹ¶ä¼ļ": 6348,
      "æĹ¶çļĦéĢļé£İ": 6349,
      "çĥĺçĥ¤æĿ¡ä»¶": 6350,
      "åĲ¸åħ¥æīĢ": 6351,
      "äººèº«": 6352,
      "è£Ļ": 6353,
      "å¦Ĥåı¯èĥ½": 6354,
      "å¦Ĥåĩºçİ°": 6355,
      "å¦Ĥæ²Ļ": 6356,
      "åŁºæľ¬ä¿¡æģ¯": 6357,
      "å®īåħ¨åĮºåŁŁ": 6358,
      "åľ°çĤ¹": 6359,
      "åľ°æĸ¹æ³ķ": 6360,
      "Ġ(%": 6361,
      "æĹ¥èµ·": 6362,
      "éķ¿åħ´": 6363,
      "å¿łåĳĬ": 6364,
      "åĤ¨åŃĺæ³¨æĦıäºĭé¡¹": 6365,
      "åį±å®³æ°´çĶŁçİ¯å¢ĥ": 6366,
      "åıĳæĹ¥æľŁ": 6367,
      "åıĳçº¢": 6368,
      "åıĳå±ķ": 6369,
      "Ġäº§åĵģè¯´æĺİ": 6370,
      "çģŃçģ«ç²īæľ«": 6371,
      "ç©ºè¿Ĳ": 6372,
      "ç©ºæĹ·å¤Ħ": 6373,
      "çľ¼çĿĽåĪºæ¿ĢæĢ§": 6374,
      "ç£ģ": 6375,
      "å®¹åĻ¨åĨ·åį´": 6376,
      "å®¹åĻ¨åĴĮæİ¥æĶ¶è®¾å¤ĩæİ¥åľ°": 6377,
      "éĢłæĪĲä¸¥éĩįçľ¼åĪºæ¿Ģ": 6378,
      "ä¹ĻåŁº": 6379,
      "ä¹ĻéĨļ": 6380,
      "ä¹Ļçĥ·": 6381,
      "ĠSM": 6382,
      "ĠSTM": 6383,
      "ä¼ļçł´": 6384,
      "æĹłåį±å®³": 6385,
      "æĹłçģ«èĬ±": 6386,
      "æĹłå·²çŁ¥": 6387,
      "ç¡Ŀ": 6388,
      "æº¶åīĤä¸º": 6389,
      "æº¶åīĤçļĦä¿ĿæĬ¤æīĭå¥Ĺ": 6390,
      "å¹¶æĮģç»Ń": 6391,
      "ä¸ºå¤§äºİæĪĸçŃīäºİä¸ĭéĻĲ": 6392,
      "æĬĢæľ¯æĶ¯æĮģ": 6393,
      "çĥŃåıįåºĶæĢ§": 6394,
      "åĮºåºĶå¤ĩ": 6395,
      "ĠGer": 6396,
      "ĠGlid": 6397,
      "è§£å°ģ": 6398,
      "ĠNCO": 6399,
      "ĠNAN": 6400,
      "ĠNaphtha": 6401,
      "âĦĥ,": 6402,
      "æĿĲæĸĻçļĦ": 6403,
      "Ġåį±éĻ©çº§åĪ«": 6404,
      "ĠBel": 6405,
      "ä¿ĿæĮģçģ«åľº": 6406,
      "ä¿ĿæĮģå¤´ä½İä½į": 6407,
      "ĠMA": 6408,
      "ĠMel": 6409,
      "ĠMEK": 6410,
      "ĠManufactur": 6411,
      "æ²¹æ¼Ĩ": 6412,
      "èµĦæĸĻè¡¨": 6413,
      "ĠDesmo": 6414,
      "åĪĨç±»åĴĮ": 6415,
      "æ¸©ä¸ĭ": 6416,
      "ĠTM": 6417,
      "ĠTown": 6418,
      "Ġä¸įå±ŀäºİ": 6419,
      "è®¾è®¡": 6420,
      "æĺ¯é¢ľæĸĻ": 6421,
      "æĺ¯åĲ¦": 6422,
      "æĵįä½ľæ³¨æĦıäºĭé¡¹": 6423,
      "ĠåĮĸåŃ¦åĵģä¸ŃæĸĩåĲį": 6424,
      "ç¼ĸçłģ": 6425,
      "ales": 6426,
      "çŃīè¦ĨçĽĸ": 6427,
      "è¿ľç§ĳæĬĢ": 6428,
      "æµģåıĺ": 6429,
      "ĠAPP": 6430,
      "åĲİåıĳçĶŁ": 6431,
      "åĲİæīį": 6432,
      "ä¼ģä¸ļåľ°åĿĢ": 6433,
      "çļ®èĤ¤æİ¥è§¦æĪĸ": 6434,
      "èĦ±éĻ¤": 6435,
      "äººåĳĺéĺ²æĬ¤": 6436,
      "åĮĸåŃ¦åĵģçĻ»è®°ä¸Ńå¿ĥ": 6437,
      "åģ¶": 6438,
      "èĩªåĲ¸": 6439,
      "ĠæĹłæķ°æį®": 6440,
      "ĠæĹłçĽ¸åħ³": 6441,
      "åıĸä»£": 6442,
      "åıĸå¾Ĺ": 6443,
      "åıĸåĨ³äºİ": 6444,
      "æľªæıĲä¾Ľ": 6445,
      "ç§»èµ°": 6446,
      "ç²ĺè¿ŀ": 6447,
      "Ġå¤Ħ": 6448,
      "Ġå®¢æĪ·": 6449,
      "Ġåºıåı·": 6450,
      "è§Ĥå¯Ł": 6451,
      "ĠæĪĲåĪĨåĲįç§°": 6452,
      "ĠæĬĺ": 6453,
      "ä¿ĿæĬ¤æīĭå¥Ĺ": 6454,
      "ä¿ĿæĬ¤æĸ½æķĳèĢħçļĦ": 6455,
      "æīĢæľīè¢«æ±¡æŁĵçļĦè¡£çī©": 6456,
      "æ¶Īéĺ²æ°´": 6457,
      "æ¶Īéĺ²æľį": 6458,
      "æ¶Īéĺ²åĳĺ": 6459,
      "éľĢéĩĩåıĸ": 6460,
      "åºķæĿĲ": 6461,
      "éĽ¾çĬ¶æ°´": 6462,
      "ĠLC": 6463,
      "å°ģåı£": 6464,
      "é¢Ħæµ¸æ³¡": 6465,
      "é¢Ħç¼©åĲĪ": 6466,
      "å»ºè®®çļĦ": 6467,
      "ä¸ŃåĽ½åºĶæĢ¥çĶµè¯Ŀ": 6468,
      "æľºå¯Ĩ": 6469,
      "ç²īå°ĺåı¯èĥ½": 6470,
      "IATA": 6471,
      "ä¸īæľ¨": 6472,
      "å¸¸çĶ¨": 6473,
      "ä¼ĺåĬ¿": 6474,
      "çĻ½åīĤ": 6475,
      "çĻ½èī²ç²īæľ«": 6476,
      "çĹĩçĬ¶åı¯èĥ½ä¼ļ": 6477,
      "åĿĩä¸Ģ": 6478,
      "åĽ´è£Ļ": 6479,
      "Ġç»ıåı£": 6480,
      "æ³¡æ²«çģŃçģ«": 6481,
      "ç¨³å®ļæĢ§åĴĮåıįåºĶæĢ§": 6482,
      "æ³¡èģļåĲĪçī©": 6483,
      "åĽºåĮĸåĲİ": 6484,
      "éĶ¦": 6485,
      "ä¿®è¡¥": 6486,
      "ç©¿çĿĢ": 6487,
      "ç©¿å¯ĨéĹŃ": 6488,
      "æĻ¶": 6489,
      "åĸ·æºħ": 6490,
      "ĠåĲ¸åħ¥æľīå®³": 6491,
      "ENE": 6492,
      "åıĳçĶŁçģ«çģ¾æĹ¶": 6493,
      "éĤ¦": 6494,
      "åĪĩæĸŃ": 6495,
      "åĪĩæĸŃçģ«": 6496,
      "Ġgu": 6497,
      "æ°´çĶŁçī©": 6498,
      "æ°´çĶŁæ¯ĴæĢ§": 6499,
      "ĠFH": 6500,
      "åĴĮèĴ¸æ°Ķæĺĵçĩĥ": 6501,
      "å¯ĨéĹŃå®¹åĻ¨": 6502,
      "åĪĹåĩº": 6503,
      "åİĭæ°´æŀª": 6504,
      "éĩĳå±ŀæ¡¶": 6505,
      "æµĭå®ļ": 6506,
      "çħ§å°Ħ": 6507,
      "ä¸įéĢĤæĦŁ": 6508,
      "ä¹ĭæ°Ķä½ĵ": 6509,
      "çī¹æ®ĬçģŃçģ«ç¨ĭåºı": 6510,
      "éĺ´åĩīå¹²çĩ¥å¤Ħ": 6511,
      "çĶ¨å¤§éĩıèĤ¥çļĤåĴĮ": 6512,
      "çĶ¨å¤§éĩıèĤ¥çļĤæ°´åĴĮ": 6513,
      "è¯ģæį®": 6514,
      "Ġçļ®èĤ¤éĺ²æĬ¤": 6515,
      "æİ¨èįĲä½¿çĶ¨": 6516,
      "æİ¨èįĲæ·»åĬłéĩı": 6517,
      "iliz": 6518,
      "Ġä½¿çĶ¨æĮĩåįĹ": 6519,
      "çľ¼åĪºæ¿Ģç±»åĪ«": 6520,
      "èĮĥåĽ´ä¸ºå¤§äºİæĪĸçŃīäºİä¸ĭéĻĲ": 6521,
      "Ġå®īåħ¨æķ°æį®è¡¨": 6522,
      "Ġå®īåħ¨çľ¼éķľ": 6523,
      "Ġå®īåħ¨èµĦæĸĻè¡¨": 6524,
      "çĶ¨æ°´æ¼±åı£": 6525,
      "å¾®éĩı": 6526,
      "ĠæŃ¤": 6527,
      "åĽ°åĢ¦": 6528,
      "å¯Ĩå°ģèĥ¶": 6529,
      "å¯Ĩå°ģä¿ĿåŃĺ": 6530,
      "edi": 6531,
      "ä¸ľåİ¿æŀĭå¯®ä¹¡å±ıåįĹå·¥ä¸ļåĮºå±ıåįĹè·¯": 6532,
      "å¹³è¡¡": 6533,
      "ANG": 6534,
      "ida": 6535,
      "çĶ²åŁºçİ¯": 6536,
      "ĠUSA": 6537,
      "ç§ĳæħķ": 6538,
      "å¸¦æľī": 6539,
      "Ġåį±å®³çī©è´¨": 6540,
      "Ġåį±å®³ç±»åŀĭ": 6541,
      "ä¸Ĭæµ·å¸Ĥ": 6542,
      "owder": 6543,
      "ĠWHMIS": 6544,
      "Ġspec": 6545,
      "åıĺèī²": 6546,
      "ĠComp": 6547,
      "Ġæİ¨èįĲçĶ¨éĩı": 6548,
      "ESTAN": 6549,
      "Ġåľ°åĮº": 6550,
      "çĽ´èĩ³": 6551,
      "çĽ´æµģæ°´": 6552,
      "ĠæŃ£å¸¸": 6553,
      "æŃ¤ä»½": 6554,
      "æħİ": 6555,
      "æĬĹæº¶æ³¡æ²«": 6556,
      "ĠåĮħè£ħçŃīçº§": 6557,
      "Ġä¸Ĭæµ·åĮĸåŃ¦å·¥ä¸ļåĮºæ": 6558,
      "æŀģæĢ§": 6559,
      "æŀģä½³": 6560,
      "åĴ¨è¯¢ä¸ĵ": 6561,
      "ODA": 6562,
      "æĢ»å±Ģ": 6563,
      "ä»ħä¾ĽåıĤèĢĥ": 6564,
      "Ġæµĵåº¦æĪĸæµĵåº¦èĮĥåĽ´": 6565,
      "äº¤è´§": 6566,
      "åı¯çĩĥæ°Ķä½ĵ": 6567,
      "å¾·åĮº": 6568,
      "æĶ¶éĽĨäºİ": 6569,
      "æĶ¶éĽĨåĪ°": 6570,
      "è¯¥äº§åĵģçļĦ": 6571,
      "åħħè¶³": 6572,
      "çī©çĲĨåĴĮåĮĸåŃ¦åį±éĻ©": 6573,
      "Ġèī²çĽ¸": 6574,
      "æĺĵçĩĥåĽºä½ĵ": 6575,
      "æ¸Ĺæ¼ı": 6576,
      "åĳ¼åĲ¸ç³»ç»Łéĺ²æĬ¤": 6577,
      "ä¸ģåŁºæº¶çº¤": 6578,
      "å¢ŀå¼º": 6579,
      "ethoxy": 6580,
      "å°ıæĹ¶åºĶæĢ¥çĶµè¯Ŀ": 6581,
      "ĠçĽ¸åħ³": 6582,
      "è¢ĭè£ħ": 6583,
      "åĪĩåĭ¿åĲ¸åħ¥æīĢ": 6584,
      "æŁĶéŁ§": 6585,
      "éĩĬæĶ¾ä¹ĭæ°Ķä½ĵ": 6586,
      "èĩªç»Ļå¼ıåĳ¼åĲ¸åĻ¨åĴĮ": 6587,
      "ä»İèĢĮ": 6588,
      "æ¶Īéĺ²äººåĳĺçī¹æ®Ĭ": 6589,
      "æ¶Īéĺ²äººåĳĺå¿ħé¡»ä½¿çĶ¨éĢļæ°Ķå¼ıéĿ¢ç½©æĪĸæŃ£åİĭèĩªç»Ļå¼ıåĳ¼åĲ¸åĻ¨": 6590,
      "åºŁå¼ĥçī©": 6591,
      "ĠæĹłèī²éĢıæĺİ": 6592,
      "Ġdioxide": 6593,
      "ĠæľªåĪĨç±»": 6594,
      "æĺĵäº§çĶŁçģ«èĬ±çļĦ": 6595,
      "å¹¿å·ŀ": 6596,
      "ä¸Ģæ¬¡æİ¥è§¦ç±»åĪ«": 6597,
      "æľºæ¢°æĢ§èĥ½": 6598,
      "æľºæ¢°è®¾å¤ĩåĴĮ": 6599,
      "ĠéĿŀåĪºæ¿ĢæĢ§": 6600,
      "ĠéĿŀæµ®åŀĭ": 6601,
      "æ£ĢéªĮ": 6602,
      "åĪ©äºİ": 6603,
      "ester": 6604,
      "Ġæİ¥è§¦æİ§åĪ¶ä¸İ": 6605,
      "Ġçĥĥ": 6606,
      "Ġçĥĺçĥ¤": 6607,
      "æ·ĭæ´Ĺ": 6608,
      "ĠXX": 6609,
      "æĺ¾ç¤º": 6610,
      "å¦ĤæľīåĪºæ¿Ģ": 6611,
      "å¦Ĥæľīå¿ħè¦ģ": 6612,
      "èŃ¦åĳĬè®¯": 6613,
      "lear": 6614,
      "ĠOB": 6615,
      "åħĪæµ¸æ³¡": 6616,
      "çī©æĸĻå¦Ĥæ²Ļ": 6617,
      "åı¯çĶ¨ä½ľ": 6618,
      "åĽłä¸º": 6619,
      "ä½ľä¸ļåľºæīĢ": 6620,
      "çļ®èĤ¤åĴĮå¤´åıĳ": 6621,
      "ç§»èĩ³ç©ºæĹ·å¤Ħ": 6622,
      "ĠResins": 6623,
      "æĶ¹æĢ§çļĦ": 6624,
      "ĠçŃ¾": 6625,
      "ä¼ĳæģ¯å§¿åĬ¿": 6626,
      "å»¶åĲİåıĳçĶŁ": 6627,
      "éŀĭåŃĲ": 6628,
      "Ġè§Ħæł¼åıĤæķ°": 6629,
      "è§£æ¯ĴåīĤ": 6630,
      "åıªèĥ½ä½¿çĶ¨ä¸įäº§çĶŁçģ«èĬ±çļĦå·¥åħ·": 6631,
      "åıªèĥ½åľ¨å®¤å¤ĸæĪĸéĢļé£İèī¯å¥½ä¹ĭå¤Ħä½¿çĶ¨": 6632,
      "å½ĵåľ°çļĦ": 6633,
      "reat": 6634,
      "çī¹å®ļçĶ¨éĢĶ": 6635,
      "Ġå¯¹æ°´çĶŁçĶŁçī©æľīå®³å¹¶åħ·æľīéķ¿æľŁæĮģç»Ńå½±åĵį": 6636,
      "Ġå·¥ä¸ļæĪĸåķĨä¸ļ": 6637,
      "çĨĶçĤ¹": 6638,
      "åĪĿç¼ĸåĪ¶æĹ¥æľŁ": 6639,
      "Ġå±ı": 6640,
      "éĢĤåĲĪçļĦ": 6641,
      "èº«ä½ĵåģ¥åº·": 6642,
      "ä½¿çĶ¨éĺ²çĪĨåŀĭ": 6643,
      "ĠçĻ½èī²ç²īæľ«": 6644,
      "ä¿ĿæĮģåĳ¼åĲ¸çķħéĢļ": 6645,
      "çĿĢçģ«åĽŀçĩĥ": 6646,
      "åĲŀé£Łæľīå®³": 6647,
      "æĮīçħ§å½ĵåľ°": 6648,
      "èĦ±æİīæīĢæľīæ²¾æŁĵçļĦè¡£æľį": 6649,
      "ĠçĪĨçĤ¸æŀģéĻĲ": 6650,
      "Ġéķ¿æľŁæ°´çĶŁåį±å®³": 6651,
      "many": 6652,
      "Ġå½ĵ": 6653,
      "ç½ĳç«Ļ": 6654,
      "çĽ¸å½ĵäºİ": 6655,
      "ĠçĽ¸å¯¹æ¯Ķéĩį": 6656,
      "ĠæıĲèµ·çľ¼çĿĳ": 6657,
      "ialty": 6658,
      "Ġæ¾Ħæ¸ħæ¶²ä½ĵ": 6659,
      "çĶ¨æĪ·èĩªè¡Į": 6660,
      "Ġç«ĭåį³çĶ¨å¤§éĩıçļĦ": 6661,
      "ĠChemicals": 6662,
      "Ġæ¹ĸ": 6663,
      "ĠéŁ©åĽ½å·¥åİĤ": 6664,
      "èĤ¿èĥĢ": 6665,
      "é¼»åŃĲ": 6666,
      "egman": 6667,
      "Ġéĺ²æŃ¢äº§åĵģè¿Ľåħ¥ä¸ĭæ°´éģĵ": 6668,
      "ä¼ļå¼ķèµ·çģ«åĬ¿èĶĵå»¶": 6669,
      "Ġçİ¯æ°§æłĳèĦĤ": 6670,
      "æ²¾æŁĵçļĦè¡£æľįæ¸ħæ´ĹåĲİæĸ¹åı¯éĩįæĸ°ä½¿çĶ¨": 6671,
      "gium": 6672,
      "ĠæĢ§èĥ½é¡¹çĽ®": 6673,
      "åĪ¶åīĤåıĬ": 6674,
      "ersion": 6675,
      "æµ¸æ³¡æĹ¶éĹ´": 6676,
      "astman": 6677,
      "çļĦå®īåħ¨çľ¼éķľ": 6678,
      "ä¸įéĢĤçĶ¨çļĦçģŃçģ«ä»ĭè´¨": 6679,
      "åĤ¨åŃĺç¨³å®ļæĢ§èĩ³å°ĳ": 6680,
      "çº¯åĵģ": 6681,
      "åĸīåĴĻ": 6682,
      "çħ§æĺİè®¾å¤ĩ": 6683,
      "|------------|---------|-------------------|": 6684,
      "æĲħæĭĮåĿĩåĮĢ": 6685,
      "ppear": 6686,
      "Ġä¸ģéĨļåĮĸ": 6687,
      "Ġcoatings": 6688,
      "ĠèĦ±åİ»æ±¡æŁĵçļĦè¡£çĿĢ": 6689,
      "ĠçĶ¨èĤ¥çļĤåĴĮæ°´æ¸ħæ´Ĺ": 6690,
      "Ġä¹ĻäºĮéĨĩä¸ģéĨļ": 6691,
      "Ġæ³¨æĦıäºĭé¡¹": 6692,
      "Ġæ³¨æĦıæĵįä½ľåıĬè´®åŃĺ": 6693,
      "æ½®æ°Ķ": 6694,
      "Ġä½©å¸¦èĢĲæº¶åīĤ": 6695,
      "Ġä½©å¸¦ä¿ĿæĬ¤çľ¼éķľ": 6696,
      "POKUKDO": 6697,
      "ä¸įçĽ¸å®¹æĿĲæĸĻ": 6698,
      "åıĳå¸ĥæĹ¥æľŁ": 6699,
      "ä½Ļçī©": 6700,
      "çŁŃæľŁ": 6701,
      "Ġçģ«çĦ°": 6702,
      "çłĤåľŁæīĳ": 6703,
      "çĶ¨æµģåĬ¨æ¸ħæ°´æĪĸçĶŁçĲĨçĽĲæ°´åĨ²æ´Ĺ": 6704,
      "èģļéħ¯éĩĳé»Ħä½ĵç³»æł·æľ¬èģļéħ¯éĩĳé»Ħ": 6705,
      "echnologies": 6706,
      "Ġåħīæ³½åº¦": 6707,
      "ĠæĶ¹æĢ§": 6708,
      "ĠæĶ¹åĸĦ": 6709,
      "è¯»æĩ": 6710,
      "æĵįä½ľæĹ¶è¯·åĭ¿": 6711,
      "ç«ĭåį³åĳ¼åı«åĮ»çĶŁæĪĸä¸Ńæ¯Ĵæİ§åĪ¶ä¸Ńå¿ĥ": 6712,
      "ize": 6713,
      "Ġfin": 6714,
      "ä»£è¡¨æĪĸ": 6715,
      "å°Ĩå®¹åĻ¨ä»İçģ«åľº": 6716,
      "ĠåĬ¨åĬĽ": 6717,
      "ä¸¥ç¦ģåĲ¸çĥŁ": 6718,
      "ä¿ĿæĮģåĳ¼åĲ¸èĪĴéĢĤçļĦ": 6719,
      "Ġæ¬§çĽŁ": 6720,
      "åħ¨éĥ¨æ¯Ķä¾ĭ": 6721,
      "ç´«å¤ĸ": 6722,
      "Ġå¦Ĥè¯¯åĲŀåĴ½": 6723,
      "Ġchlor": 6724,
      "Ġé«ĺåĪĨåŃĲéĩıèģļéħ¯æłĳèĦĤ": 6725,
      "ä¿Ŀæļĸä¼ĳæģ¯": 6726,
      "ĠSpecialty": 6727,
      "Ġçī¹å®ļçĽ®æłĩåĻ¨å®ĺæ¯ĴæĢ§": 6728,
      "èĽĭ": 6729,
      "èĽŃçŁ³": 6730,
      "æ±Łèĭıåįİä¼¦åĮĸå·¥æľīéĻĲåħ¬åı¸": 6731,
      "ä¼ļå½±åĵįèº«ä½ĵåģ¥åº·": 6732,
      "é¢ĦæľŁçĶ¨éĢĶ": 6733,
      "å¡«æĸĻ": 6734,
      "Ġçİ»çĴĥè½¬": 6735,
      "æĲ¬åĬ¨": 6736,
      "ĠæĿĲæĸĻå®īåħ¨æķ°æį®è¡¨": 6737,
      "Ġå±±ä¸ľ": 6738,
      "Ġå±±ä¸ľçľģ": 6739,
      "æī¹åĩĨçļĦ": 6740,
      "éģµå®Īæĵįä½ľ": 6741,
      "Desmodur": 6742,
      "ydro": 6743,
      "è¿Łåıĳ": 6744,
      "ĠâĹİ": 6745,
      "çººç»ĩåĵģ": 6746,
      "Ġæµ·åĲįæĸ¯": 6747,
      "ĠåĲ¸åħ¥æĢ§H": 6748,
      "èĭ¥åıĳçĶŁåĳķåĲĲ": 6749,
      "çĶ¨å¤§éĩıçļĦæ°´åĨ²æ´Ĺçľ¼çĿĽèĩ³å°ĳ": 6750,
      "Ġç¾ŁåŁº": 6751,
      "Ġç¢ĺ": 6752,
      "æ³¥çŃīè¦ĨçĽĸ": 6753,
      "æĪĸéĩįå¤įæİ¥è§¦": 6754,
      "åį±éĻ©çļĦåĪĨè§£äº§çī©": 6755,
      "ĠTechnolog": 6756,
      "åıĸä¸ĭéļĲå½¢çľ¼éķľ": 6757,
      "ç¦ģæŃ¢ä½¿çĶ¨æĺĵäº§çĶŁçģ«èĬ±çļĦ": 6758,
      "æİĴæ°ĶéĢļé£İ": 6759,
      "ĠUnidisp": 6760,
      "Ġå®¹åĻ¨åĴĮæİ¥æĶ¶è®¾å¤ĩæİ¥åľ°": 6761,
      "FICATION": 6762,
      "Ġåħ·å¤ĩ": 6763,
      "Ġä¿ĿæĮģéĢļé£İ": 6764,
      "ĠåĪĨè§£æ¸©åº¦": 6765,
      "Ġç£ħ": 6766,
      "æĺŁéĵĤèģĶéĽħæĢĿè¾¾é¢ľæĸĻ": 6767,
      "å¦ĤåĲ¸åħ¥ä¼ļå½±åĵįèº«ä½ĵåģ¥åº·": 6768,
      "ĠéĿŀæĮ¥åıĳåĪĨ": 6769,
      "é©¬æĿ¥éħ¸": 6770,
      "Ġå½¢æĢģ": 6771,
      "Ġçģ«çģ¾æĹ¶ä½¿çĶ¨": 6772,
      "ĠæĴĳå¼Ģçľ¼çĿĳ": 6773,
      "Butanol": 6774,
      "ĠéľĢ": 6775,
      "åĴĮçĪĨçĤ¸çļĦåį±éĻ©": 6776,
      "èĢĲåĪ®æĵ¦": 6777,
      "Ġé«ĺåº¦æĺĵçĩĥæ¶²ä½ĵåĴĮèĴ¸æ°Ķ": 6778,
      "ĠæĹłèī²èĩ³æ·¡é»Ħèī²": 6779,
      "ĠèģļéĨļæĶ¹æĢ§èģļäºĮçĶ²åŁºç¡ħæ°§çĥ·æº¶æ¶²": 6780,
      "è¾ĥä½İå¤Ħæī©æķ£åĪ°çĽ¸å½ĵè¿ľ": 6781,
      "ĠçŃĽåĪĨåĪĨæŀĲ": 6782,
      "ä½Ľå±±å¸Ĥé¡ºå¾·åĮº": 6783,
      "ç´§å¯Ĩè´´åĲĪ": 6784,
      "Ġè½¯åĮĸçĤ¹": 6785,
      "çĶ³è¯·": 6786,
      "Ġå¢ŀ": 6787,
      "åĪ¶å®ļæłĩåĩĨ": 6788,
      "å¦ĤæĹłåĳ¼åĲ¸": 6789,
      "å¦Ĥä»įè§īçľ¼åĪºæ¿Ģ": 6790,
      "æº¶åīĤé¢ĦåħĪæµ¸æ³¡": 6791,
      "ĠæºĲæĸĩä»¶åıĳå¸ĥæĹ¶éĹ´": 6792,
      "åĸ·æ°´æĪĸæ°´éĽ¾": 6793,
      "Ġåı¯èĥ½å¯¼èĩ´çļ®èĤ¤è¿ĩæķıåıįåºĶ": 6794,
      "å¤ļåħĥéĨĩ": 6795,
      "ä»ħéĢĤçĶ¨äºİå¤§çģ«": 6796,
      "éľĢè¦ģæĽ´éķ¿çļĦæµ¸æ³¡æĹ¶éĹ´": 6797,
      "åĤ¨åŃĺåľ¨å¹²çĩ¥éĢļé£İå¤Ħ": 6798,
      "lycol": 6799,
      "åĲ¸æ²¹éĩı": 6800,
      "äºĮçĶ²éħ¸äºĮ": 6801,
      "èĩ´è¿ĩæķıæĢ§åıįåºĶ": 6802,
      "èĢĲçĩĥçī©æĸĻå¦Ĥæ²Ļ": 6803,
      "æīĢè½½ä¿¡æģ¯": 6804,
      "å¼Ĥä¸ģåŁºéħ®": 6805,
      "ĠRegulation": 6806,
      "Ġå¤ĸçĬ¶": 6807,
      "æĭ¿å¤§": 6808,
      "ĠçĶ¨æ°´åĨ²æ´Ĺåı£èħĶ": 6809,
      "ç¾ŁçĶ²åŁºä¸Ļçĥ·": 6810,
      "åĪºæ¿ĢæĢ§æ°Ķä½ĵåĴĮèĴ¸æ°Ķ": 6811,
      "æĿ¡ä»¶ä¸ĭåĤ¨åŃĺç¨³å®ļ": 6812,
      "ĠYasida": 6813,
      "æĺİç¤ºæĪĸæļĹç¤ºçļĦ": 6814,
      "IECSC": 6815,
      "UCAT": 6816,
      "ĤæīĢæľīå®īåħ¨éĺ²èĮĥæİªæĸ½ä¹ĭåīįåĪĩåĭ¿æĲ¬åĬ¨": 6817,
      "Ġç«ĭåĪ»": 6818,
      "åĴ³åĹ½": 6819,
      "åı¯æĬĹæº¶åīĤçļĦä¿ĿæĬ¤æīĭå¥Ĺ": 6820,
      "æĪĸåıįå¤įåĲ¸åħ¥": 6821,
      "èĥ½åľ¨è¾ĥä½İå¤Ħæī©æķ£åĪ°çĽ¸å½ĵè¿ľ": 6822,
      "äºİå¤ĸæ³Ħä½įç½®": 6823,
      "æĹ¶çļĦéĢļé£İæĥħåĨµ": 6824,
      "åĮºåºĶå¤ĩæľī": 6825,
      "ĠGermany": 6826,
      "ĠGlidd": 6827,
      "è§£å°ģæ¸©åº¦": 6828,
      "ĠNANOS": 6829,
      "ĠBelgium": 6830,
      "ĠManufacturing": 6831,
      "ĠAPPLI": 6832,
      "Ġå®¢æĪ·æľįåĬ¡": 6833,
      "ä¿ĿæĬ¤æĸ½æķĳèĢħçļĦå¿łåĳĬ": 6834,
      "çĹĩçĬ¶åı¯èĥ½ä¼ļå»¶åĲİåıĳçĶŁ": 6835,
      "åĪĩæĸŃçģ«æºĲ": 6836,
      "çĶ¨å¤§éĩıèĤ¥çļĤåĴĮæ°´æ¸ħæ´Ĺ": 6837,
      "ç§ĳæħķåħ¬åı¸": 6838,
      "ESTANAT": 6839,
      "Ġä¸Ĭæµ·åĮĸåŃ¦å·¥ä¸ļåĮºæĻ®å·¥è·¯": 6840,
      "æĢ»å±ĢåĮĸåŃ¦åĵģçĻ»è®°ä¸Ńå¿ĥ": 6841,
      "ä¸ģåŁºæº¶çº¤åīĤ": 6842,
      "åĪĩåĭ¿åĲ¸åħ¥æīĢéĩĬæĶ¾ä¹ĭæ°Ķä½ĵ": 6843,
      "æľºæ¢°è®¾å¤ĩåĴĮå·¥åħ·": 6844,
      "èŃ¦åĳĬè®¯æģ¯": 6845,
      "Ġå·¥ä¸ļæĪĸåķĨä¸ļåºĶçĶ¨ä¸Ń": 6846,
      "ppearance": 6847,
      "Ġæ³¨æĦıæĵįä½ľåıĬè´®åŃĺæĹ¶çļĦéĢļé£İæĥħåĨµ": 6848,
      "çłĤåľŁæīĳæķĳ": 6849,
      "è¯»æĩĤæīĢæľīå®īåħ¨éĺ²èĮĥæİªæĸ½ä¹ĭåīįåĪĩåĭ¿æĲ¬åĬ¨": 6850,
      "æĵįä½ľæĹ¶è¯·åĭ¿é¥®é£Ł": 6851,
      "å°Ĩå®¹åĻ¨ä»İçģ«åľºç§»èĩ³ç©ºæĹ·å¤Ħ": 6852,
      "æ³¥çŃīè¦ĨçĽĸäºİå¤ĸæ³Ħä½įç½®": 6853,
      "ç¦ģæŃ¢ä½¿çĶ¨æĺĵäº§çĶŁçģ«èĬ±çļĦæľºæ¢°è®¾å¤ĩåĴĮå·¥åħ·": 6854,
      "èĥ½åľ¨è¾ĥä½İå¤Ħæī©æķ£åĪ°çĽ¸å½ĵè¿ľçļĦåľ°æĸ¹": 6855,
      "(âĦĥ)": 6856,
      ")ãĢģ": 6857,
      "BPA": 6858,
      "CE": 6859,
      "CI": 6860,
      "Can": 6861,
      "Dra": 6862,
      "EQ": 6863,
      "EPOKUKDO": 6864,
      "Kg": 6865,
      "KCS": 6866,
      "LS": 6867,
      "LAMMA": 6868,
      "Mail": 6869,
      "MTREC": 6870,
      "No": 6871,
      "NCO": 6872,
      "NAL": 6873,
      "ON": 6874,
      "OCH": 6875,
      "OID": 6876,
      "OPO": 6877,
      "PC": 6878,
      "SE": 6879,
      "SR": 6880,
      "Sp": 6881,
      "TY": 6882,
      "UV": 6883,
      "UX": 6884,
      "Vestolit": 6885,
      "bia": 6886,
      "de": 6887,
      "do": 6888,
      "ee": 6889,
      "ff": 6890,
      "gen": 6891,
      "iv": 6892,
      "ive": 6893,
      "mL": 6894,
      "mer": 6895,
      "op": 6896,
      "omo": 6897,
      "resist": 6898,
      "rhechem": 6899,
      "so": 6900,
      "ues": 6901,
      "wb": 6902,
      "wh": 6903,
      "wt": 6904,
      "xwb": 6905,
      "ye": 6906,
      "yang": 6907,
      "yeong": 6908,
      "zol": 6909,
      "zho": 6910,
      "¤åĮº": 6911,
      "§åħī": 6912,
      "©åº¦": 6913,
      "ª¬": 6914,
      "°æĸ°æĿĲæĸĻç§ĳæĬĢæľīéĻĲåħ¬åı¸": 6915,
      "´æ³¡èģļåĲĪçī©": 6916,
      "¸ı": 6917,
      "ºåŁŁ": 6918,
      "æ¢°": 6919,
      "æ¾Ħæ¸ħ": 6920,
      "æª¬": 6921,
      "èĲ": 6922,
      "éī´": 6923,
      "ĠéĨĩ": 6924,
      "ĠçĶµ": 6925,
      "Ġéĩį": 6926,
      "Ġè¯¥": 6927,
      "Ġèĥº": 6928,
      "ĠéĻĲåĢ¼": 6929,
      "Ġä½ľä¸º": 6930,
      "ĠåıįåºĶæĢ§": 6931,
      "Ġä»ħ": 6932,
      "ĠèĦ±æİī": 6933,
      "ĠOH": 6934,
      "Ġè¶ħ": 6935,
      "Ġas": 6936,
      "ĠèŃ¦ç¤ºè¯į": 6937,
      "ĠåĲĪæĪĲ": 6938,
      "Ġèº«ä½ĵ": 6939,
      "Ġä½İæ¸©": 6940,
      "ĠèĦĤèĤªæĹı": 6941,
      "Ġä¿ĿåŃĺåľ¨": 6942,
      "Ġè¡¨éĿ¢åĬ©åīĤ": 6943,
      "Ġæ°¨åŁºæłĳèĦĤ": 6944,
      "Ġä½ľä¸ļåĲİå½»åºķæ¸ħæ´Ĺ": 6945,
      "Ġåıĳå¸ĥæĹ¥æľŁ": 6946,
      "ĠçĶ³è¯·": 6947,
      "Ġxwb": 6948,
      "Ģä»ĭ": 6949,
      "ĤåķĨ": 6950,
      "Ħç§¯": 6951,
      "ĩåįİ": 6952,
      "Īļ": 6953,
      "īè´": 6954,
      "īåıĬ": 6955,
      "ĭäºĪ": 6956,
      "Ĳæ°´": 6957,
      "ĳŀ": 6958,
      "ķè¾": 6959,
      "ĸıæķ£": 6960,
      "ĻåĮ»çĶŁ": 6961,
      "łæĥ¯": 6962,
      "łæª¬": 6963,
      "--:|:--------": 6964,
      "ãĢĢ": 6965,
      "ä¸¤": 6966,
      "åı³": 6967,
      "ĠæīĢ": 6968,
      "Ġæ£Ģæµĭ": 6969,
      "å®Ŀ": 6970,
      "ï¼Ī[": 6971,
      "ï¼īâĢĶ": 6972,
      "Ġç®": 6973,
      "ĠçĹ": 6974,
      "Ġç±³": 6975,
      "Ġçĸıæķ£": 6976,
      "æĢ§çļĦ": 6977,
      "æĢ§å¥½": 6978,
      "çļĦåį±å®³": 6979,
      "çļĦå±Ĥ": 6980,
      "çļĦé¢Ħéĺ²æİªæĸ½": 6981,
      "çļĦå®¹åĻ¨ä¸Ń": 6982,
      "çļĦçī©æĸĻ": 6983,
      "çļĦçº¸": 6984,
      "çļĦæľīåħ³": 6985,
      "çļĦåĩĨç¡®": 6986,
      "çļĦè®¤è¯Ĩ": 6987,
      "çļĦåľ°çĤ¹": 6988,
      "æĪĴ": 6989,
      "çĶ¨æ¸©æ°´": 6990,
      "çĶ¨å¹²æ²Ļ": 6991,
      "éĢĢ": 6992,
      "æİ§": 6993,
      "æİĪæĿĥ": 6994,
      "åĵģåĴĮ": 6995,
      "åĵģç§į": 6996,
      "åĵģçīĮ": 6997,
      "æ¶īåıĬ": 6998,
      "éĺ²å°ĺ": 6999,
      "éĺ²æ²»": 7000,
      "çģ¯": 7001,
      "æľīå¼ķèµ·çĩĥçĥ§": 7002,
      "æľīå¸¸çĨŁ": 7003,
      "çī©æĢ§": 7004,
      "æķĻåĮ»çĶŁ": 7005,
      "åĲ¸å°ĺ": 7006,
      "äº§ä¸ļ": 7007,
      "Ġé¡": 7008,
      "Ġéī´": 7009,
      "æ°´ä»½": 7010,
      "æ°´é¢Ĺç²Ĵ": 7011,
      "åĴĮé«ĺ": 7012,
      "åĴĮåºĶæĢ¥": 7013,
      "åĴĮå»ºè®®": 7014,
      "åĴĮä¸įéĢĤ": 7015,
      "åĴĮé£Łåĵģ": 7016,
      "åĴĮçº¸": 7017,
      "åĴĮèĢĲç£¨": 7018,
      "åĴĮåĲĦç§į": 7019,
      "åĴĮèĬ³é¦ĻæĹı": 7020,
      "åĴĮè§ĨåĬĽæ¨¡ç³Ĭ": 7021,
      "åĴĮèĤ¥çļĤåĨ²æ´Ĺ": 7022,
      "åĴĮå®¶åħ·æ¶ĤæĸĻ": 7023,
      "åı¯èĩ´": 7024,
      "åı¯æıĲä¾Ľ": 7025,
      "åı¯æıĲåıĸ": 7026,
      "æĸĻä¸Ń": 7027,
      "|------|------|------|": 7028,
      "|------|-----": 7029,
      "åĲĪèĤ¥": 7030,
      "åīĤçļĦ": 7031,
      "å¼¥": 7032,
      "èĤł": 7033,
      "çģ«ä¼ļ": 7034,
      "æĪĸæįŁå®³": 7035,
      "æĪĸçĪĨçĤ¸åį±éĻ©": 7036,
      "æĪĸåĬłéĩį": 7037,
      "åºĶåľ¨": 7038,
      "åºĶçĶ¨äºİ": 7039,
      "åºĶä¸İæ°§åĮĸåīĤ": 7040,
      "èĥ½å½¢æĪĲçĪĨçĤ¸æĢ§æ··åĲĪçī©": 7041,
      "ä¸įå¯¹": 7042,
      "ä¸įæİĴ": 7043,
      "ä¸įå¿ħè¦ģ": 7044,
      "ä¸įä½¿çĶ¨æĹ¶": 7045,
      "ä¸įè¢«åĪĨç±»ä¸º": 7046,
      "ä¸įæī¿æĭħä»»ä½ķ": 7047,
      "äº§åĵģåı¯": 7048,
      "äº§åĵģåľ¨": 7049,
      "äº§åĵģåıĬçĶŁäº§åķĨèµĦæĸĻ": 7050,
      "äº§åĵģä¸įè¢«åĪĨç±»ä¸º": 7051,
      "æ°Ķå¼ıåĳ¼åĲ¸åĻ¨": 7052,
      "å®¹çī©": 7053,
      "æµĵ": 7054,
      "èĦ²": 7055,
      "ä¸ŃåĴĮ": 7056,
      "ä¸Ńäº§çĶŁ": 7057,
      "ä¸ŃéĹ´": 7058,
      "çļ®çĤİ": 7059,
      "æĪĲèĨľ": 7060,
      "éĺ²æĬ¤æ¶Ĥå±Ĥ": 7061,
      "å¤Ħåľ¨": 7062,
      "æĢ¥æĢ§åĴĮ": 7063,
      "æĺİç¡®": 7064,
      "ä¹°": 7065,
      "ä¹±": 7066,
      "ä¹İ": 7067,
      "ä¹Ĳ": 7068,
      "ä¹łæĥ¯": 7069,
      "åĻ¨æ¢°": 7070,
      "IRENOL": 7071,
      "æĮĸ": 7072,
      "æ´¥": 7073,
      "DSL": 7074,
      "åı¯èĥ½æľī": 7075,
      "åı¯èĥ½ä¸į": 7076,
      "åı¯èĥ½äº§çĶŁ": 7077,
      "åı¯èĥ½åĩºçİ°": 7078,
      "éĥ¨åıĳ": 7079,
      "éĥ¨éĹ¨": 7080,
      "ä¸ģéħ®": 7081,
      "ä½¿çĶ¨åĴĮ": 7082,
      "ä½¿çĶ¨æĿ¡ä»¶": 7083,
      "ä½¿çĶ¨åĲĪéĢĤçļĦ": 7084,
      "åĮ»å¸": 7085,
      "èµĶ": 7086,
      "èµĭäºĪ": 7087,
      "ä¸İæ°´": 7088,
      "ä¸İåħ¶ä»ĸ": 7089,
      "ä¸İä¿Ŀè´¨æľŁ": 7090,
      "ä¸İé«ĺåĪĨåŃĲéĩıçİ¯æ°§æłĳèĦĤ": 7091,
      "|-----------|": 7092,
      "ä½ĵç³»çļĦ": 7093,
      "åĢį": 7094,
      "æ··åĲĪæº¶åīĤ": 7095,
      "åıĬéĺ´åĩī": 7096,
      "åıĬæłĩå¿Ĺ": 7097,
      "åı·æ¥¼": 7098,
      "ĠCon": 7099,
      "ĠCRAYVALLAC": 7100,
      "ĠPE": 7101,
      "ĠPOL": 7102,
      "ĠPhenolic": 7103,
      "ĠPigment": 7104,
      "åľ¨äº§åĵģçļĦ": 7105,
      "åĪ¶åº¦": 7106,
      "åĮĸåŃ¦åĲįç§°": 7107,
      "åĮĸåŃ¦æĬ¤çĽ®éķľ": 7108,
      "åĮĸåŃ¦äºĭæķħåºĶæĢ¥åĴ¨è¯¢çĶµè¯Ŀ": 7109,
      "æ²ī": 7110,
      "åŀĭéĺ²æĬ¤è¡£": 7111,
      "éĢļåĪĻ": 7112,
      "éĢļæ±Łä¸Ńè·¯": 7113,
      "æ¼Ĥ": 7114,
      "ä¸Ģæ¬¡": 7115,
      "ä¸Ģç³»åĪĹ": 7116,
      "ä¸ĢæĹ¦": 7117,
      "æĹ¶åºĶçĶ¨": 7118,
      "æĹ¶éĩıå¹³åĿĩå®¹è®¸æµĵåº¦": 7119,
      "åħ¬è·¯": 7120,
      "åĲ¸åħ¥çĥŁéĽ¾": 7121,
      "ç©¶": 7122,
      "äººéĢł": 7123,
      "ä¿¡æģ¯å¹¶éĿŀ": 7124,
      "æ¸ħåįķ": 7125,
      "èī²çļĦ": 7126,
      "èī²æ¼Ĩ": 7127,
      "è£ķè¾": 7128,
      "å¦ĤçĶ²èĭ¯": 7129,
      "å¦Ĥå¤±åİ»çŁ¥è§ī": 7130,
      "è¡¨ç¤º": 7131,
      "åħ¬åı¸ä¿¡æģ¯": 7132,
      "åħ¬åı¸åĲįç§°": 7133,
      "éĩįå¤§": 7134,
      "ĠHMIS": 7135,
      "ĠHegman": 7136,
      "å¤§å¤ļæķ°": 7137,
      "å®īåħ¨æķ°æį®": 7138,
      "å®īåħ¨æĵįä½ľ": 7139,
      "å®īåħ¨æ·ĭæµ´": 7140,
      "å®īåħ¨æ³Ħ": 7141,
      "å®īåħ¨è§Ħç¨ĭ": 7142,
      "æĸĩåĲįç§°": 7143,
      "æ¶²ä½ĵæ²¹å¢¨": 7144,
      "è£ħé¥°": 7145,
      "Ġ(Â°": 7146,
      "èľ¡åĴĮ": 7147,
      "èĴ¸åıĳ": 7148,
      "èĴ¸çħ®": 7149,
      "æĸ°è·¯": 7150,
      "æĸ°åĮĹ": 7151,
      "æĸ°è¿ľç§ĳæĬĢ": 7152,
      "ĠåĮºåŁŁ": 7153,
      "åĿĳ": 7154,
      "Ġäº§åĵģè§Ħæł¼": 7155,
      "é¢ĺ": 7156,
      "æľīéĻĲæĪĸ": 7157,
      "å¯¹åºĶ": 7158,
      "å¯¹çī¹å®ļ": 7159,
      "å¯¹èº«ä½ĵ": 7160,
      "åĽ½åĽºä½ĵ": 7161,
      "ä¾Ľæ°Ķå¼ıåĳ¼åĲ¸åĻ¨": 7162,
      "åħ·åį±éĻ©æĢ§": 7163,
      "å®¹åĻ¨åĨħ": 7164,
      "å®¹åĻ¨æ¸Ĺæ¼ı": 7165,
      "é«ĺåħīæ³½": 7166,
      "é«ĺåīªåĪĩåĬĽ": 7167,
      "è¾¹": 7168,
      "ç½®äºİéĺ´åĩī": 7169,
      "å°±åĮ»æ²»çĸĹ": 7170,
      "èĴ¸æ°Ķä¸İç©ºæ°Ķ": 7171,
      "èĴ¸æ°Ķä¸İç©ºæ°Ķå½¢æĪĲçĪĨçĤ¸æĢ§æ··åĲĪçī©": 7172,
      "åį³åı¯": 7173,
      "éĿ¢éĥ¨": 7174,
      "Ġmon": 7175,
      "ĠSX": 7176,
      "ĠSh": 7177,
      "ĠShe": 7178,
      "èµ·å§ĭ": 7179,
      "ä¼ļæįŁå®³åĻ¨å®ĺ": 7180,
      "æĹłéĻĲ": 7181,
      "æĹłåĳ³": 7182,
      "æĹłåħ³": 7183,
      "æĹłç»ĵåĿĹ": 7184,
      "æº¶åīĤæ²¹": 7185,
      "åħ¶ä¿Ŀæļĸä¼ĳæģ¯": 7186,
      "ĠåĮĸåŃ¦åį±éĻ©çī©åĵģ": 7187,
      "æĬĢæľ¯æĿ¡ä»¶": 7188,
      "çĥŃåĽºæĢ§": 7189,
      "èĩ³å®īåħ¨": 7190,
      "å¹²åĮĸåŃ¦": 7191,
      "éĢļé£İåıĬéĺ´åĩī": 7192,
      "èĢĲæ²¹": 7193,
      "èĢĲåıĹ": 7194,
      "ç£·éħ¸çĽĲ": 7195,
      "ä»¥éĺ²æŃ¢": 7196,
      "olub": 7197,
      "åĮºéĢļæ±Łä¸Ńè·¯": 7198,
      "æ¯ĴæĢ§éĿŀå¸¸": 7199,
      "æĪ´åĮĸåŃ¦å®īåħ¨éĺ²æĬ¤çľ¼éķľ": 7200,
      "ĠGr": 7201,
      "ĠGyeong": 7202,
      "ere": 7203,
      "eriliz": 7204,
      "å¼ķèĩ´è¿ĩæķıæĢ§åıįåºĶ": 7205,
      "onic": 7206,
      "ĠNV": 7207,
      "Ġåį±éĻ©è´§çī©": 7208,
      "æīĢä½¿çĶ¨çļĦ": 7209,
      "æīĢåĮħåĲ«çļĦä¿¡æģ¯æĺ¯": 7210,
      "ĠBPA": 7211,
      "ĠButyl": 7212,
      "ä¿ĿæĮģå¯Ĩå°ģ": 7213,
      "å¤Ħç½®ç¨ĭåºı": 7214,
      "æĶ¾ç½®": 7215,
      "æĶ¾åĩº": 7216,
      "ĠMor": 7217,
      "åĪ°å®īåħ¨åĮºåŁŁ": 7218,
      "|---------|-------|": 7219,
      "èµĦæĸĻæīĢæıĲä¾ĽçļĦ": 7220,
      "ĠDa": 7221,
      "ĠDES": 7222,
      "ĠDorf": 7223,
      "åĩºå·¥ä½ľ": 7224,
      "ĠTitanium": 7225,
      "ç±»åŀĭèģļéħ¯": 7226,
      "å¤§éĩıæ¸ħæ°´": 7227,
      "å¤§éĩıæ°´åĨ²æ´Ĺèĩ³å°ĳ": 7228,
      "å¤§éĩıåĴĮç»ı": 7229,
      "çİ¯å¢ĥé¢Ħéĺ²æİªæĸ½": 7230,
      "çİ¯å¢ĥäº§çĶŁæľīå®³": 7231,
      "çİ¯å¢ĥæľīå®³çī©è´¨": 7232,
      "çİ¯å¢ĥéĺ²æ²»": 7233,
      "éģ¿åħįçİ¯å¢ĥ": 7234,
      "éģ¿åħįéĩĬæĶ¾åĪ°çİ¯å¢ĥä¸Ń": 7235,
      "ĠåĮĸåŃ¦åĵģåĲį": 7236,
      "ç¼ĸåĨĻ": 7237,
      "alues": 7238,
      "ĠIN": 7239,
      "ĠINF": 7240,
      "Â®ãĢģ": 7241,
      "è¿ľå¤Ħ": 7242,
      "æ±¡æŁĵåĮº": 7243,
      "æ±¡æŁĵéĥ¨ä½į": 7244,
      "æ±¡æŁĵçİ¯å¢ĥéĺ²æ²»": 7245,
      "æµģéĩıçļĦ": 7246,
      "æıĲèµ·": 7247,
      "ĠæĹ¶": 7248,
      "ĠAquatic": 7249,
      "èį§åħī": 7250,
      "éĵ¸": 7251,
      "éĵħ": 7252,
      "éļı": 7253,
      "èĦ±ä¸ĭ": 7254,
      "ĠRA": 7255,
      "ĠRes": 7256,
      "äººåĳĺæĪ´": 7257,
      "åĮĸåŃ¦åĵģè§Ħå®ļ": 7258,
      "åĮĸåŃ¦åĵģä¸İåİĤåķĨèµĦæĸĻ": 7259,
      "è·µ": 7260,
      "å½ĵæ³ķè§Ħ": 7261,
      "æ¼Ĩéħįæĸ¹": 7262,
      "èĩªåĬ¨": 7263,
      "èĩªæĲº": 7264,
      "ĠæĹłéľĢ": 7265,
      "ĠæĹłåĳ³": 7266,
      "ĠæĹłGHSåį±å®³": 7267,
      "å·¥ä¸ļåį«çĶŁ": 7268,
      "çĸ¾": 7269,
      "å½±åĵįæĪĸæįŁå®³": 7270,
      "æľªè¢«": 7271,
      "æľªå¢ŀå¡ĳ": 7272,
      "æµ·è¿Ĳ": 7273,
      "é¡¾": 7274,
      "ĠæµĨ": 7275,
      "Ġå®¡æł¸": 7276,
      "éĩĳçº¢": 7277,
      "ç¤ºæ": 7278,
      "Ġæķ´åĲĪ": 7279,
      "Ġpropert": 7280,
      "ä¸ĻäºĮéĨĩçĶ²éĨļ": 7281,
      "åĻ¨å®ĺéĢłæĪĲæįŁå®³": 7282,
      "ety": 7283,
      "etone": 7284,
      "æ¶Īéĺ²åºĶæĢ¥çĶµè¯Ŀ": 7285,
      "éĻĦè¿ĳ": 7286,
      "èħ¹": 7287,
      "ĠKOLO": 7288,
      "éĺ²æŃ¢åĮħè£ħ": 7289,
      "éĺ²æŃ¢éĺ³åħī": 7290,
      "éĺ²æŃ¢å®¹åĻ¨æ¸Ĺæ¼ı": 7291,
      "åĮ»çĶŁæĮĩå¯¼": 7292,
      "éĹ´æİ¥": 7293,
      "åİŁæĿĲæĸĻ": 7294,
      "åıĹæ±¡æŁĵè¡£çī©": 7295,
      "è½¬çľ¼çĿĳ": 7296,
      "å»ºè®®æĪĸ": 7297,
      "å»ºè®®åºĶæĢ¥å¤ĦçĲĨ": 7298,
      "çģ«èĬ±åĴĮæĺİçģ«": 7299,
      "è¯·ä½¿çĶ¨": 7300,
      "è¯·æķĻåĮ»çĶŁ": 7301,
      "é»Ħåıĺ": 7302,
      "ĠæĬĢæľ¯éĥ¨": 7303,
      "ç¦ģå¿Į": 7304,
      "IALS": 7305,
      "å¸¸å·ŀå¸Ĥ": 7306,
      "éĻ¤åİ»": 7307,
      "éĻ¤å¤§éĩıåĴĮç»ı": 7308,
      "çĶŁäº§è¿ĩç¨ĭ": 7309,
      "å¹²çĩ¥çļĦçİ¯å¢ĥ": 7310,
      "ĠçĶ¨èĢĲçĩĥçī©æĸĻå¦Ĥæ²Ļ": 7311,
      "åħ·æľīä»¥ä¸ĭ": 7312,
      "æĥħè¯·æŁ¥éĺħ": 7313,
      "è¿Ĳè¾ĵåĮħè£ħ": 7314,
      "åĬ¨çī©": 7315,
      "æ³¡æ²«çģŃçģ«åĻ¨": 7316,
      "éĢĤçĶ¨æ³ķè§Ħ": 7317,
      "æ°°éħ¸éħ¯": 7318,
      "æ°°åĮĸæ°¢": 7319,
      "äºĮæ°§åĮĸç¢³çģŃçģ«åĻ¨": 7320,
      "å¼Ģè£Ĥ": 7321,
      "æĽĿ": 7322,
      "åĮĸå·¥èĤ¡ä»½æľīéĻĲåħ¬åı¸": 7323,
      "èŃ¦æĪĴ": 7324,
      "Ġåı¯æº¶äºİ": 7325,
      "ĠåĲ¸åħ¥åı¯èĥ½å¯¼èĩ´è¿ĩæķıæĪĸåĵ®åĸĺçĹħçĹĩçĬ¶æĪĸåĳ¼åĲ¸åĽ°éļ¾": 7326,
      "åģ¥åº·åĴĮå®īåħ¨": 7327,
      "Ġç«ĭåį³å°±åĮ»": 7328,
      "ä»»ä½ķä¸ĵåĪ©": 7329,
      "è¿Ľè¡Įæ²»çĸĹ": 7330,
      "è¢«è®¤ä¸º": 7331,
      "TERIALS": 7332,
      "åıĳçĶŁçģ«çģ¾": 7333,
      "Ġglycol": 7334,
      "ĠFO": 7335,
      "ĠFe": 7336,
      "ĠFLAMMA": 7337,
      "çľŁç©º": 7338,
      "ä¸ªäººä¿ĿæĬ¤": 7339,
      "ä¸ªäººæ³¨æĦıäºĭé¡¹": 7340,
      "åĪĹæĺİ": 7341,
      "åİĭåĬĽ": 7342,
      "åİĭè£ħç½®": 7343,
      "ä¹Ļçĥ¯åŁº": 7344,
      "éĩĳå±ŀæ°§åĮĸçī©": 7345,
      "é¡»å°±åĮ»": 7346,
      "çħ§é¡¾": 7347,
      "éĿŀåı¯çĩĥæĢ§": 7348,
      "Ġå¯¹åĻ¨å®ĺéĢłæĪĲæįŁå®³": 7349,
      "ĠåĤ¬": 7350,
      "èĭ¥å·²": 7351,
      "æıĲä¾Ľä¸ĢèĪ¬": 7352,
      "ĠæĢ¥æĢ§åĲ¸åħ¥": 7353,
      "åĲŀåĴ½åıĬè¿Ľåħ¥åĳ¼åĲ¸éģĵåı¯èĥ½èĩ´åĳ½": 7354,
      "PRO": 7355,
      "Ġ[%]": 7356,
      "Ġcon": 7357,
      "Ġcps": 7358,
      "æ°¯ä¹Ļçĥ·": 7359,
      "Ġçļ®èĤ¤åĴĮ": 7360,
      "Ġçļ®èĤ¤è¿ĩæķı": 7361,
      "æİ¨èįĲçĶ¨äºİ": 7362,
      "éĻĦçĿĢæĢ§": 7363,
      "ĠVESTANAT": 7364,
      "Ġä½¿çĶ¨æľ¬äº§åĵģæĹ¶": 7365,
      "ĠçĽĲæ°´": 7366,
      "åĪĨè§£çī©": 7367,
      "åľºåľ°": 7368,
      "Ġå®īåħ¨ä¸İ": 7369,
      "åıĮæīĭ": 7370,
      "åıĮç»ĦåĪĨ": 7371,
      "ç»ĵåĲĪ": 7372,
      "å¦ĤæŀľåĪºæ¿ĢæĮģç»Ń": 7373,
      "æĢ§è´¨ä¸įä½ľ": 7374,
      "å¯Ĩå°ģæīĭå¥Ĺ": 7375,
      "éŁ³": 7376,
      "éĤ®ç®±": 7377,
      "ANCO": 7378,
      "éĢĤçĶ¨äºİæº¶åīĤåŀĭ": 7379,
      "è½»åº¦": 7380,
      "åĽºä½ĵæłĳèĦĤ": 7381,
      "åĽºä½ĵåĲ«éĩı": 7382,
      "åĽºä½ĵä»½": 7383,
      "æĦŁåı¹åı·": 7384,
      "å±±è·¯": 7385,
      "æİĴé£İ": 7386,
      "çĶ²åŁºèĭ¯éħļ": 7387,
      "ä½©æĪ´åĲĪéĢĤçļĦ": 7388,
      "åĲĪéĢĤçļĦæĶ¶å®¹": 7389,
      "Ġä¹ĻéĨĩ": 7390,
      "Ġæĵįä½ľä¸İåĤ¨åŃĺ": 7391,
      "æĪ·å¤ĸ": 7392,
      "ä¸Ĭæµ·å·¥åİĤ": 7393,
      "ower": 7394,
      "æ¶Īæ¯Ĵ": 7395,
      "æ¶ĪéĻ¤æīĢæľīçģ«æºĲ": 7396,
      "ĠWK": 7397,
      "åıĺæĽ´": 7398,
      "è½¬ç§»èĩ³": 7399,
      "Ġçī©è´¨åĲįç§°": 7400,
      "åŃĺæĶ¾åľ¨": 7401,
      "éĺ²çĪĨåŀĭ": 7402,
      "æķ´ä¸ª": 7403,
      "éĵĿç²ī": 7404,
      "éĵĿçīĩ": 7405,
      "å¿ħé¡»é©¬ä¸Ĭ": 7406,
      "å£°éŁ³": 7407,
      "çī¹åĪ«æĮĩç¤º": 7408,
      "çŁ³åŀĭ": 7409,
      "Ġre": 7410,
      "Ġæµĭè¯ķæĿ¡ä»¶": 7411,
      "Ġwax": 7412,
      "Ġé«ĺæ¸©": 7413,
      "Ġé«ĺæµģéĩıçļĦ": 7414,
      "æŀģä½İ": 7415,
      "èĦ±åİ»æ±¡æŁĵçļĦè¡£çĿĢ": 7416,
      "å¼Ĥæ°°éħ¸éħ¯èĴ¸æ°ĶåĴĮ": 7417,
      "æ²¾æŁĵè¡£æľį": 7418,
      "åį°æĹ¥æľŁ": 7419,
      "åıįåºĶæĢ§åıĬå®īåħ¨": 7420,
      "Ġç»ĦåĪĨåĲįç§°": 7421,
      "è´®åŃĺåıĬæĵįä½ľå¤ĦçĲĨ": 7422,
      "å®¹åĻ¨ä¸Ńå¤ĦçĲĨ": 7423,
      "èĢĮè¢«çĤ¹çĩĥ": 7424,
      "å¾·åĽ½": 7425,
      "Ġçī¹å¼ĤæĢ§éĿ¶åĻ¨å®ĺæľīæ¯Ĵ": 7426,
      "å½»åºķåĨ²æ´Ĺæ±¡æŁĵéĥ¨ä½į": 7427,
      "åħħè¡Ģ": 7428,
      "ä¸ŃçļĦç§¯ç´¯": 7429,
      "ä¸ŃçļĦå»ºè®®æĪĸ": 7430,
      "ĠIntern": 7431,
      "ç«¯": 7432,
      "ELCR": 7433,
      "éĩįéĩıçļĦ": 7434,
      "ational": 7435,
      "ĠGHSåĪĨç±»": 7436,
      "ĠGHSæłĩçŃ¾è¦ģç´ł": 7437,
      "æĸ°é²ľç©ºæ°ĶåĮº": 7438,
      "ç²Ĵå¾ĦåĪĨå¸ĥ": 7439,
      "ĠèĴ¸æ°Ķåı¯èĥ½": 7440,
      "å®ĥå¯¹çī¹å®ļ": 7441,
      "å¢ŀçĻ½åīĤ": 7442,
      "åĮħæĭ¬å¤±æĺİ": 7443,
      "å®ŀè·µ": 7444,
      "Ġæłĩè¯Ĩ": 7445,
      "ä¸įå¾Ĺè¯±å¯¼åĳķåĲĲ": 7446,
      "åı¯èĥ½éĢłæĪĲåĳ¼åĲ¸éģĵåĪºæ¿Ģ": 7447,
      "ä¸ĢèĪ¬æĮĩå¯¼": 7448,
      "åŁºäºİåľ¨äº§åĵģçļĦ": 7449,
      "éĩĬæĶ¾åĩº": 7450,
      "éĩĬæĶ¾åĪºæ¿ĢæĢ§æ°Ķä½ĵåĴĮèĴ¸æ°Ķ": 7451,
      "Ġçī©çĲĨåĴĮ": 7452,
      "Ġè¿Ĳè¾ĵæ³¨æĦıäºĭé¡¹": 7453,
      "Ġè¿Ĳè¾ĵåį±éĻ©çŃīçº§": 7454,
      "Ġçģ°": 7455,
      "å¤©çĦ¶": 7456,
      "ĠæĪ´çĭ¬": 7457,
      "æķ´çĲĨèĩª": 7458,
      "ĠçĻ¾åĪĨæ¯Ķ": 7459,
      "åĳ¼åĲ¸éĺ²æĬ¤åħ·": 7460,
      "çĽ¸åħ³è¦ģæ±Ĥ": 7461,
      "çĽ¸åħ³ç¡®å®ļçĶ¨éĢĶ": 7462,
      "éĩĩçĶ¨éĺ²çĪĨåŀĭ": 7463,
      "æ£ĢæŁ¥": 7464,
      "åĪ©çĶ¨": 7465,
      "åĲĮæĹ¶": 7466,
      "åıĮéħļAåŀĭ": 7467,
      "å°±è¯Ĭçľ¼ç§ĳåĮ»çĶŁ": 7468,
      "ĠXIV": 7469,
      "åı¯èĥ½å¯¼èĩ´éĩĬæĶ¾åĪºæ¿ĢæĢ§æ°Ķä½ĵåĴĮèĴ¸æ°Ķ": 7470,
      "ĠOEL": 7471,
      "çī©åĵģåĲįç§°": 7472,
      "çī©åĵģä¸İåİĤåķĨèµĦæĸĻ": 7473,
      "ĠåħŃäºļçĶ²åŁº": 7474,
      "rizol": 7475,
      "åı¯çĶ¨æ³¡æ²«": 7476,
      "ä½ľä¸ļå®īåħ¨è§Ħç¨ĭ": 7477,
      "åľ¨éĢļé£İèī¯å¥½å¤Ħ": 7478,
      "ä¹Łåı¯ä»¥": 7479,
      "åįİäººæ°ĳ": 7480,
      "è®¸åı¯": 7481,
      "åħ·ä½ĵçļĦ": 7482,
      "åħ·ä½ĵä¿¡æģ¯": 7483,
      "çĥŃè¡¨éĿ¢åĴĮçĤ¹çģ«æºĲ": 7484,
      "åºĶéģ¿åħįçī©åĵģ": 7485,
      "æµİåįĹ": 7486,
      "æ³Ħæ¼ıçī©åı¯èĥ½å¯¹": 7487,
      "ĠåĽºä½ĵä»½": 7488,
      "ä¸įåĲ«VOC": 7489,
      "ified": 7490,
      "Ġéĺ²æĬ¤ç±»åĪ«": 7491,
      "Ġéĺ²æĬ¤é¡¹çĽ®": 7492,
      "ä¸»è¦ģçĹĩçĬ¶": 7493,
      "ç«ĭåį³åĳ¼åı«æĢ¥æķĳä¸Ńå¿ĥ": 7494,
      "ç¡®ä¿ĿåħħåĪĨ": 7495,
      "Ġåı¯èĥ½éĢłæĪĲåĳ¼åĲ¸éģĵåĪºæ¿Ģ": 7496,
      "å¡ĳæĸĻæ¡¶": 7497,
      "å¡ĳæĸĻäºĭä¸ļ": 7498,
      "Ġåħ¶ä»ĸä¿¡æģ¯": 7499,
      "Ġåħ¶ä»ĸåį±å®³": 7500,
      "ĠçĨĶèŀį": 7501,
      "åĽĽç¡ħæ°§çĥ·": 7502,
      "è´§çĽĺ": 7503,
      "|---|---|---|---|---|": 7504,
      "éĺ²æŃ¢éĿĻçĶµç§¯èģļ": 7505,
      "é£Łåĵģæİ¥è§¦çļĦçº¸": 7506,
      "ä¼ĳæģ¯åīį": 7507,
      "æµ®èī²": 7508,
      "è§£æ¯Ĵä¸Ńå¿ĥ": 7509,
      "Ġæīĭéĥ¨": 7510,
      "Ġæ¶ĤæĸĻçĶ¨": 7511,
      "Ġè¿ľç¦»æĺİçģ«": 7512,
      "çĶ¨æµģåĬ¨æ¸ħæ°´æ¸ħæ´Ĺ": 7513,
      "åĽ¾å½¢": 7514,
      "åŃĺåĤ¨æĿ¡ä»¶": 7515,
      "Ġä¸Ńåº¦æ°¢éĶ®åŁºæº¶åīĤ": 7516,
      "Ġä¸Ńåįİäººæ°ĳ": 7517,
      "ĠåİĤåķĨ": 7518,
      "ĠåŁºæľ¬": 7519,
      "åħ¶å®ĥä¿¡æģ¯": 7520,
      "Ġåħ«çĶ²åŁºçİ¯": 7521,
      "Ġå¼Ĥæ°°éħ¸éħ¯": 7522,
      "Ġå¾·": 7523,
      "è¿Ļä¸įæİĴ": 7524,
      "ç»´æĮģ": 7525,
      "Ġæ¯ĴæĢ§": 7526,
      "éĶĢåĶ®è§Ħæł¼": 7527,
      "Ġæ¶²ä½ĵåĴĮèĴ¸æ°Ķæĺĵçĩĥ": 7528,
      "åħįè´¹": 7529,
      "å®ľè´®åŃĺäºİ": 7530,
      "ĠéĤ»": 7531,
      "Ġæ²¸çĤ¹èĮĥåĽ´": 7532,
      "Ġå°ĨæĤ£èĢħè½¬ç§»åĩºæ±¡æŁĵåĮº": 7533,
      "ORM": 7534,
      "ult": 7535,
      "åį±éĻ©åĵģå®£åĳĬ": 7536,
      "æĸ°æĿĲæĸĻæľīéĻĲåħ¬åı¸": 7537,
      "åłĨ": 7538,
      "æ¶Ĥè£ħä½ľä¸ļå®īåħ¨è§Ħç¨ĭ": 7539,
      "éĢļé£İèī¯å¥½å¤Ħæĵįä½ľ": 7540,
      "è½»å¾®çļ®èĤ¤åĪºæ¿Ģ": 7541,
      "Ġæ¸ħéĻ¤æīĢæľīçĤ¹çģ«æºĲ": 7542,
      "ĠçĶŁäº§éĥ¨": 7543,
      "åį«çĶŁæİªæĸ½": 7544,
      "ç²¾æ²¹": 7545,
      "éĥ½åĮĸå·¥": 7546,
      "å¯¹æ°´çĶŁçĶŁçī©æľīæ¯Ĵå¹¶åħ·æľīéķ¿æľŁæĮģç»Ńå½±åĵį": 7547,
      "Ġæ±ŁèĭıçľģæĺĨå±±å¸Ĥ": 7548,
      "ĠçĪĨçĤ¸çķĮ": 7549,
      "æĢĢçĸĳåı¯éĢłæĪĲéģĹä¼łæĢ§ç¼ºéĻ·": 7550,
      "æĿ¯æ°´": 7551,
      "|-----------|---------|": 7552,
      "çĿĢèī²åĬĽ": 7553,
      "çļĦéĢļé£İç³»ç»Ł": 7554,
      "æ°´åĸ·æ´Ĵ": 7555,
      "ç³ĬæłĳèĦĤ": 7556,
      "æ¶ĤæĸĻä½ĵç³»ä¸Ń": 7557,
      "ä½ıåıĭçĶµæľ¨é«ĺæĢ§èĥ½": 7558,
      "æĥ°æĢ§åĲ¸æĶ¶æĿĲæĸĻ": 7559,
      "Ġæł¹æį®GHSæłĩåĩĨ": 7560,
      "çĽ´æİ¥æİ¥è§¦": 7561,
      "Ġç½Ĳå¤´": 7562,
      "Ġå¾®ç²ī": 7563,
      "åĲĪè§Ħä¿¡æģ¯": 7564,
      "æĿ¿ç»ĦåĪĨ": 7565,
      "éĢļçĶ¨å·¥ä¸ļæ¶ĤæĸĻ": 7566,
      "éĢļçĶ¨æĬĢæľ¯æĿ¡ä»¶": 7567,
      "åºŁçī©æ±¡æŁĵçİ¯å¢ĥéĺ²æ²»": 7568,
      "ä»įçĦ¶": 7569,
      "å¿«éĢŁ": 7570,
      "æİĴåħ¥æİĴæ°´æ²Ł": 7571,
      "Ġä¹Ļéħ¸æŃ£ä¸ģéħ¯": 7572,
      "sia": 7573,
      "çĶŁæĢģèµĦæĸĻ": 7574,
      "æĿĲæĸĻåĲ¸æĶ¶æº¢åĩºçī©": 7575,
      "Ġå®īå®ļ": 7576,
      "Ġå¹¿ä¸ľçľģ": 7577,
      "åŁºæĿĲæ¶¦æ¹¿": 7578,
      "ä¿ĿåŃĺæľŁ": 7579,
      "Ġåı¯èĥ½å¼ķèµ·æľºæ¢°æĢ§åĪºæ¿Ģ": 7580,
      "çĶ±äºİåıĹçĥŃ": 7581,
      "è¶³å¤Łé«ĺçļĦ": 7582,
      "Ġé£Łåĵģæİ¥è§¦æ³ķè§Ħ": 7583,
      "Ġcoating": 7584,
      "ĠèĦ±åİ»æ±¡æŁĵè¡£æľį": 7585,
      "Ġéĩįéĩıä»½": 7586,
      "èģļåĲĪåıįåºĶ": 7587,
      "çº³ç±³": 7588,
      "å¹¶åı¯å¼ķèĩ´è¿ĩæķıæĢ§åıįåºĶ": 7589,
      "Ġçļ®èĤ¤èĩ´æķıçī©": 7590,
      "Ġä¹ĻäºĮéĨĩä¹ĻéĨļ": 7591,
      "Ġä½©å¸¦åı¯æĬĹæº¶åīĤçļĦä¿ĿæĬ¤æīĭå¥Ĺ": 7592,
      "æĢ§åıĬåıįåºĶæĢ§": 7593,
      "ä¸įçĽ¸å®¹çī©è´¨": 7594,
      "Ġå¹²çĩ¥": 7595,
      "Ġå¹²ç²īæľ«": 7596,
      "æ°´åĴĮèĤ¥çļĤå½»åºķåĨ²æ´Ĺæ±¡æŁĵéĥ¨ä½į": 7597,
      "è¯Ħä¼°è¿ĻäºĽ": 7598,
      "ç«ĭä¾Ľæ°Ķå¼ıåĳ¼åĲ¸åĻ¨": 7599,
      "Ġâĸ³": 7600,
      "ä¾µåħ¥": 7601,
      "Ġç«ĭåį³èĦ±åİ»æīĢæľīè¢«æ±¡æŁĵçļĦè¡£çī©": 7602,
      "æ°´çĶŁåį±å®³ç±»åĪ«": 7603,
      "åĳ¨åĽ´çİ¯å¢ĥä¸Ń": 7604,
      "OSS": 7605,
      "Ġéĺ²æ¸ĹéĢı": 7606,
      "æ°ĳéĽĦ": 7607,
      "éĺ²æĬ¤è£ħå¤ĩåĴĮåºĶæĢ¥": 7608,
      "åĤ¨åŃĺäºİå¯ĨéĹŃå®¹åĻ¨ä¸Ń": 7609,
      "é«ĺåº¦æĺĵçĩĥæ¶²ä½ĵåĴĮèĴ¸æ°Ķ": 7610,
      "åħ¶èĴ¸æ°Ķæ¯Ķç©ºæ°Ķéĩį": 7611,
      "æĵįä½ľæĹ¶åĪĩåĭ¿åĲ¸çĥŁ": 7612,
      "ç»ĻäºĪåĲ¸æ°§": 7613,
      "éĿŀå¸¸å¥½çļĦ": 7614,
      "Ġcontain": 7615,
      "å¢ŀå¡ĳåīĤ": 7616,
      "èİ·åıĸçī¹åĪ«æĮĩç¤º": 7617,
      "TIC": 7618,
      "èĦ¸éĥ¨éĺ²æĬ¤": 7619,
      "Ġæ²¹æ¼Ĩ": 7620,
      "å¦Ĥæľīä¸įéĢĤå°±åĮ»": 7621,
      "ĠåİŁæĸĻ": 7622,
      "ĠåİŁæĸĩä»¶": 7623,
      "ĠCHEMTREC": 7624,
      "ä¿ĿæĮģåĳ¼åĲ¸èĪĴéĢĤä½ĵä½į": 7625,
      "ubrizol": 7626,
      "çĵ·": 7627,
      "Ġvalues": 7628,
      "Ġåħ¬åı¸åĲįç§°": 7629,
      "ĠæŁłæª¬": 7630,
      "èĢĲåĮĸåŃ¦åĵģæĢ§": 7631,
      "ĠæĺĨå±±å¸Ĥ": 7632,
      "éķ¿æĹ¶éĹ´åĨ²æ´Ĺ": 7633,
      "Ġé«ĺåĪĨåŃĲéĩıèģļéħ¯": 7634,
      "ĠæıĲé«ĺèī¯å¥½": 7635,
      "ĠæıĲé«ĺæ¶ĤèĨľ": 7636,
      "Ġéĩĩåıĸéĺ²æŃ¢éĿĻçĶµæĶ¾çĶµçļĦæİªæĸ½": 7637,
      "ĠHYC": 7638,
      "èĢĲæº¶åīĤæĢ§": 7639,
      "Ġå¤§éĩıæ³Ħæ¼ı": 7640,
      "Ġå®Įåħ¨çĽ¸å®¹": 7641,
      "Ġæº¶äºİæľīæľºæº¶åīĤ": 7642,
      "ĠæĮīçħ§": 7643,
      "æľ¨åĻ¨åĴĮå®¶åħ·æ¶ĤæĸĻ": 7644,
      "Ġå°ĨæĤ£èĢħç§»èĩ³æĸ°é²ľç©ºæ°ĶåĮº": 7645,
      "Ġæ´»æĢ§å®ĺèĥ½åĽ¢": 7646,
      "EAA": 7647,
      "YLOID": 7648,
      "æ§½è½¦": 7649,
      "çļĦåĪĨç±»åıĬæłĩå¿Ĺ": 7650,
      "éħ¸äºĮçĶ²éħ¯": 7651,
      "æ¶ĤæĸĻçļĦåĽºåĮĸåīĤ": 7652,
      "ĠçĶ¨æ°´å°ıå¿ĥåĨ²æ´ĹåĩłåĪĨéĴŁ": 7653,
      "æ°¯åĮĸæ°¢": 7654,
      "Ġçİ»çĴĥåĮĸ": 7655,
      "åį°åĪ·æ²¹å¢¨åĴĮ": 7656,
      "Ġå¸¸å·ŀè¯ºå½©åĮĸå·¥æľīéĻĲåħ¬åı¸": 7657,
      "Desmophen": 7658,
      "PHA": 7659,
      "Ġåıªèĥ½ä½¿çĶ¨ä¸įäº§çĶŁçģ«èĬ±çļĦå·¥åħ·": 7660,
      "åĪĴä¼¤": 7661,
      "éĺ»æŃ¢": 7662,
      "è¿ĺåİŁ": 7663,
      "è´Ńä¹°": 7664,
      "åĢ¾åĢĴ": 7665,
      "æ²³æµģ": 7666,
      "æīĢæıĲä¾ĽçļĦä¸ĢèĪ¬æĮĩå¯¼": 7667,
      "ĠåĲ¸åħ¥æĢ§åį±å®³": 7668,
      "Ġå¼ºåº¦æ°¢éĶ®åŁºæº¶åīĤ": 7669,
      "Ġæº¶è§£åº¦åıĤæķ°": 7670,
      ":|:-------------:|:---": 7671,
      "Ġç¿»å¼Ģä¸Ĭä¸ĭçľ¼çĿĳ": 7672,
      "Ġç¿»è½¬çľ¼çĿĳ": 7673,
      "åį±éĻ©åĮĸåŃ¦åĵģçļĦåĪĨç±»åıĬæłĩå¿Ĺ": 7674,
      "ĠTSY": 7675,
      "ĠAluminum": 7676,
      "ĠåĽ½å®¶": 7677,
      "æ°¯ä¸ģæ©¡èĥ¶": 7678,
      "Ġæ·»åĬłéĩı": 7679,
      "Ġä¸Ĭæµ·å¸ĤæĿ¾æ±Ł": 7680,
      "æģĴè£ķè¾": 7681,
      "Ġç³»åĪĹäº§åĵģ": 7682,
      "afety": 7683,
      "Ġè½»èĬ³çĥĥæº¶åīĤçŁ³èĦĳæ²¹": 7684,
      "åı¦æľīå¸¸çĨŁ": 7685,
      "Ġçł´æ³¡èģļåĲĪçī©": 7686,
      "ä¸įä½ľä¸ºåį±éĻ©åĵģ": 7687,
      "ĠMSPI": 7688,
      "ä¸¥éĩįçļĦçľ¼çĿĽåĪºæ¿Ģ": 7689,
      "åıĤè§ģç¬¬": 7690,
      "é¦ıåĪĨ": 7691,
      "çłĶç£¨æĸĻä¸Ń": 7692,
      "BCF": 7693,
      "Chinese": 7694,
      "__(": 7695,
      "èĵĦç§¯": 7696,
      "åħģè®¸æĹ¶": 7697,
      "åı¯éĿłçļĦ": 7698,
      "ä¸įå®ľè¶ħè¿ĩ": 7699,
      "å·¦åı³": 7700,
      "åľ¨æŃ£å¸¸æĿ¡ä»¶ä¸ĭåĤ¨åŃĺç¨³å®ļ": 7701,
      "Ġä¸įåı¯åĤ¬åĲĲ": 7702,
      "ĠæĹ¥æľ¬": 7703,
      "ĠæŃ£ä¸ģåŁºéĨļåĮĸ": 7704,
      "èĩªç»Ļå¼ıåĳ¼åĲ¸è£ħç½®": 7705,
      "åıĹå®³èĢħä¿Ŀæļĸ": 7706,
      "å¯»æ±ĤåĮ»çĸĹæķĳæĬ¤": 7707,
      "ĠåĵģçīĮæĸ¹": 7708,
      "çģ«èĬ±æĪĸçģ«çĦ°èĢĮè¢«çĤ¹çĩĥ": 7709,
      "ĠåĲĮä¹ī": 7710,
      "ä»ĵåºĵ": 7711,
      "åĬ³éĥ¨åıĳ": 7712,
      "è´Łè´£": 7713,
      "æ²¸ç¨ĭ": 7714,
      "éĢłæĪĲä¸¥éĩįçļ®èĤ¤çģ¼ä¼¤åĴĮçľ¼æįŁä¼¤": 7715,
      "æĹłåı¯çĶ¨ä¿¡æģ¯": 7716,
      "ç¼ĵåĴĮ": 7717,
      "ä¿®æĶ¹æĹ¥æľŁ": 7718,
      "|---------|:-------------------": 7719,
      "Ġwith": 7720,
      "å¹¿ä¸ľçľģä½Ľå±±å¸Ĥé¡ºå¾·åĮº": 7721,
      "åĲ¦åĪĻä¼ļå¼ķèµ·çģ«åĬ¿èĶĵå»¶": 7722,
      "Ġå·¥ä½ľåľºæīĢå®īåħ¨ä½¿çĶ¨": 7723,
      "åĤ¨åŃĺåĴĮä½¿çĶ¨ä¸ŃçļĦç§¯ç´¯": 7724,
      "±¼ç±»": 7725,
      "æļ´æĻĴ": 7726,
      "Ġèĭ±å¯¸": 7727,
      "Ġä¹³éħ¸": 7728,
      "è§ĴèĨľ": 7729,
      "åĴĮèģļç¡ħæ°§çĥ·æº¶æ¶²": 7730,
      "å°¿ç´ł": 7731,
      "èĤĿèĦı": 7732,
      "æĪĸä»İå®īåħ¨æ³Ħ": 7733,
      "åħ¨éĿ¢éĢļé£İ": 7734,
      "å¹¶ä½¿åħ¶ä¿Ŀæļĸä¼ĳæģ¯": 7735,
      "å¸¸çļĦæ³Ħæ¼ıçī©åı¯èĥ½å¯¹": 7736,
      "è¿Ĳè¾ĵåĴĮæĵįä½ľ": 7737,
      "Ġç»ĦæĪĲ": 7738,
      "å½¢æĪĲåı¯çĩĥç²īå°ĺ": 7739,
      "Ġå¼±åº¦æ°¢éĶ®åŁºæº¶åīĤ": 7740,
      "ECKOPO": 7741,
      "åħ±åĴĮåĽ½åĽºä½ĵ": 7742,
      "Ġåİ»ç¦»åŃĲæ°´": 7743,
      "è¿Ľè¡Įäººå·¥åĳ¼åĲ¸æĪĸç»Ļæ°§": 7744,
      "Ġç¡®ä¿Ŀ": 7745,
      "ĠJinan": 7746,
      "ĠJiangsu": 7747,
      "ĠçĶŁæ®ĸç»Ĩèĥŀèĩ´çªģåıĺæĢ§": 7748,
      "åĽ½éĻħè§Ħç«łå¤Ħç½®åĨħè£ħçī©": 7749,
      "çī©çĲĨåıĬåĮĸåŃ¦å±ŀæĢ§": 7750,
      "ĠRHEBL": 7751,
      "Ġçº³ç±³æ°§åĮĸéĵģçº¢æµĨ": 7752,
      "çģ«åľºä¸ŃçļĦå®¹åĻ¨èĭ¥å·²": 7753,
      "ĠçĪ±æķ¬åĮĸåŃ¦æłªå¼ıä¼ļç¤¾": 7754,
      "vPvBçī©è´¨": 7755,
      "Ġthis": 7756,
      "Ġè¯¦æĥħè¯·æŁ¥éĺħ": 7757,
      "Ġåĸ·": 7758,
      "Ġæ£ĢéªĮ": 7759,
      "åľ°æĸ¹æ³ķè§Ħ": 7760,
      "éķ¿åħ´æĿĲæĸĻå·¥ä¸ļ": 7761,
      "ä¼ļçł´åĿı": 7762,
      "ĠMATERIALS": 7763,
      "ĠDesmodur": 7764,
      "åĪĨç±»åĴĮæłĩçŃ¾": 7765,
      "èĩªåĲ¸è¿ĩæ»¤å¼ıéĺ²æ¯ĴéĿ¢åħ·": 7766,
      "ç²ĺè¿ŀæĢ§èĥ½": 7767,
      "å¸¸çĶ¨åį±éĻ©åĮĸåŃ¦åĵģçļĦåĪĨç±»åıĬæłĩå¿Ĺ": 7768,
      "ä¿®è¡¥æ¼Ĩ": 7769,
      "ç©¿å¯ĨéĹŃåŀĭéĺ²æĬ¤è¡£": 7770,
      "Ġåį±å®³çī©è´¨æĪĲåĪĨ": 7771,
      "åıĺèī²æĪĸä»İå®īåħ¨æ³Ħ": 7772,
      "æŃ¤ä»½èµĦæĸĻæīĢæıĲä¾ĽçļĦ": 7773,
      "åĪ©äºİåĳ¼åĲ¸": 7774,
      "Ġå±ıä¸ľåİ¿æŀĭå¯®ä¹¡å±ıåįĹå·¥ä¸ļåĮºå±ıåįĹè·¯": 7775,
      "Ġç«ĭåį³çĶ¨å¤§éĩıçļĦæ°´åĴĮèĤ¥çļĤå½»åºķåĨ²æ´Ĺæ±¡æŁĵéĥ¨ä½į": 7776,
      "Ġæ¹ĸåĮĹ": 7777,
      "èĤ¿èĥĢåĴĮè§ĨåĬĽæ¨¡ç³Ĭ": 7778,
      "Ġä½©å¸¦èĢĲæº¶åīĤä¿ĿæĬ¤æīĭå¥Ĺ": 7779,
      "izeè¯ķéªĮ": 7780,
      "ç´«å¤ĸçº¿": 7781,
      "Ġchloride": 7782,
      "Ġçİ»çĴĥè½¬åĮĸçĤ¹": 7783,
      "Ġç¢ĺèī²": 7784,
      "ĠTechnology": 7785,
      "Ġåħ·å¤ĩèī¯å¥½": 7786,
      "ç´§å¯Ĩè´´åĲĪçļĦéĺ²æĬ¤çľ¼ç½©": 7787,
      "åĮºåºĶå¤ĩæľīæ³Ħæ¼ıåºĶæĢ¥å¤ĦçĲĨ": 7788,
      "Ġå·¥ä¸ļæĪĸåķĨä¸ļåºĶçĶ¨ä¸Ńæ¶ĤæĸĻçļĦåĽºåĮĸåīĤ": 7789,
      "Draizeè¯ķéªĮ": 7790,
      "resistant": 7791,
      "zhou": 7792,
      "ĠéĨĩæº¶": 7793,
      "ĩåįİåĮĸåŃ¦": 7794,
      "īè´¤åĮº": 7795,
      "çļĦæľīåħ³åģ¥åº·åĴĮå®īåħ¨": 7796,
      "çļĦè®¤è¯ĨæīĢæıĲä¾ĽçļĦä¸ĢèĪ¬æĮĩå¯¼": 7797,
      "çĶ¨æ¸©æ°´éķ¿æĹ¶éĹ´åĨ²æ´Ĺ": 7798,
      "åĴĮçº¸æĿ¿ç»ĦåĪĨ": 7799,
      "åĴĮèĬ³é¦ĻæĹıæº¶åīĤ": 7800,
      "äº§åĵģä¸įè¢«åĪĨç±»ä¸ºçİ¯å¢ĥæľīå®³çī©è´¨": 7801,
      "ä¸Ńäº§çĶŁå£°éŁ³": 7802,
      "å¤Ħåľ¨çģ«åľºä¸ŃçļĦå®¹åĻ¨èĭ¥å·²": 7803,
      "åĮ»å¸Ī": 7804,
      "æĹ¶åºĶçĶ¨æ°´åĸ·æ´Ĵ": 7805,
      "ä¿¡æģ¯å¹¶éĿŀäº§åĵģæĮĩæłĩ": 7806,
      "æĸ°åĮĹåĮºéĢļæ±Łä¸Ńè·¯": 7807,
      "æĸ°è¿ľç§ĳæĬĢèĤ¡ä»½æľīéĻĲåħ¬åı¸": 7808,
      "å¯¹èº«ä½ĵæľīå®³": 7809,
      "ĠSheet": 7810,
      "ĠåĮĸåŃ¦åį±éĻ©çī©åĵģå®īåħ¨ç®¡çĲĨæĿ¡ä¾ĭ": 7811,
      "éĢļé£İåıĬéĺ´åĩīåľ°åĮº": 7812,
      "æ¯ĴæĢ§éĿŀå¸¸å¤§": 7813,
      "erilization": 7814,
      "Ġåį±éĻ©è´§çī©è¿Ĳè¾ĵåĮħè£ħ": 7815,
      "æīĢåĮħåĲ«çļĦä¿¡æģ¯æĺ¯åŁºäºİåľ¨äº§åĵģçļĦ": 7816,
      "ĠMorr": 7817,
      "çİ¯å¢ĥäº§çĶŁæľīå®³å½±åĵįæĪĸæįŁå®³": 7818,
      "ĠINFORMATION": 7819,
      "èį§åħīå¢ŀçĻ½åīĤ": 7820,
      "å½ĵæ³ķè§Ħåħģè®¸æĹ¶": 7821,
      "æľªå¢ŀå¡ĳéħļéĨĽæłĳèĦĤ": 7822,
      "éĩĳçº¢çŁ³åŀĭ": 7823,
      "Ġæķ´åĲĪæĸĩæ¡£": 7824,
      "ĠKOLON": 7825,
      "éĺ²æŃ¢éĺ³åħīæļ´æĻĴ": 7826,
      "åĮ»çĶŁæĮĩå¯¼ä¸ĭ": 7827,
      "å¸¸å·ŀå¸Ĥæĸ°åĮĹåĮºéĢļæ±Łä¸Ńè·¯": 7828,
      "éĻ¤å¤§éĩıåĴĮç»ıå¸¸çļĦæ³Ħæ¼ıçī©åı¯èĥ½å¯¹": 7829,
      "ĠFLAMMABLE": 7830,
      "åİĭè£ħç½®ä¸Ńäº§çĶŁå£°éŁ³": 7831,
      "éĿŀåı¯çĩĥæĢ§æĿĲæĸĻåĲ¸æĶ¶æº¢åĩºçī©": 7832,
      "æıĲä¾Ľä¸ĢèĪ¬æĶ¯æĮģ": 7833,
      "æĢ§è´¨ä¸įä½ľæĭħä¿Ŀ": 7834,
      "åĲĪéĢĤçļĦæĶ¶å®¹æĿĲæĸĻ": 7835,
      "Ġé«ĺæµģéĩıçļĦæ°´åĸ·å°Ħ": 7836,
      "åıįåºĶæĢ§åıĬå®īåħ¨æĢ§": 7837,
      "ĠInternational": 7838,
      "ELCROSS": 7839,
      "å®ĥå¯¹çī¹å®ļæĢ§è´¨ä¸įä½ľæĭħä¿Ŀ": 7840,
      "ĠæĪ´çĭ¬ç«ĭä¾Ľæ°Ķå¼ıåĳ¼åĲ¸åĻ¨": 7841,
      "ç¡®ä¿ĿåħħåĪĨçļĦéĢļé£İ": 7842,
      "å¡ĳæĸĻäºĭä¸ļéĥ¨": 7843,
      "é£Łåĵģæİ¥è§¦çļĦçº¸åĴĮçº¸æĿ¿ç»ĦåĪĨ": 7844,
      "Ġä¸Ńåįİäººæ°ĳåħ±åĴĮåĽ½åĽºä½ĵ": 7845,
      "Ġåħ«çĶ²åŁºçİ¯åĽĽç¡ħæ°§çĥ·": 7846,
      "è¿Ļä¸įæİĴéĻ¤å¤§éĩıåĴĮç»ıå¸¸çļĦæ³Ħæ¼ıçī©åı¯èĥ½å¯¹": 7847,
      "å®ľè´®åŃĺäºİéĢļé£İåıĬéĺ´åĩīåľ°åĮº": 7848,
      "ä½ıåıĭçĶµæľ¨é«ĺæĢ§èĥ½å¡ĳæĸĻäºĭä¸ļéĥ¨": 7849,
      "æĥ°æĢ§åĲ¸æĶ¶æĿĲæĸĻè¦ĨçĽĸ": 7850,
      "åºŁçī©æ±¡æŁĵçİ¯å¢ĥéĺ²æ²»æ³ķ": 7851,
      "è¶³å¤Łé«ĺçļĦåīªåĪĩåĬĽ": 7852,
      "è¯Ħä¼°è¿ĻäºĽå»ºè®®": 7853,
      "éĺ²æĬ¤è£ħå¤ĩåĴĮåºĶæĢ¥å¤Ħç½®ç¨ĭåºı": 7854,
      "ĠæŁłæª¬éħ¸": 7855,
      "æģĴè£ķè¾°æĸ°æĿĲæĸĻç§ĳæĬĢæľīéĻĲåħ¬åı¸": 7856,
      "|---------|:-------------------:|------|": 7857,
      "Ġå·¥ä½ľåľºæīĢå®īåħ¨ä½¿çĶ¨åĮĸåŃ¦åĵģè§Ħå®ļ": 7858,
      "åĤ¨åŃĺåĴĮä½¿çĶ¨ä¸ŃçļĦç§¯ç´¯çļĦæľīåħ³åģ¥åº·åĴĮå®īåħ¨": 7859,
      "ECKOPOX": 7860,
      "åıĺèī²æĪĸä»İå®īåħ¨æ³Ħåİĭè£ħç½®ä¸Ńäº§çĶŁå£°éŁ³": 7861,
      "æŃ¤ä»½èµĦæĸĻæīĢæıĲä¾ĽçļĦä¿¡æģ¯å¹¶éĿŀäº§åĵģæĮĩæłĩ": 7862,
      "å¤Ħåľ¨çģ«åľºä¸ŃçļĦå®¹åĻ¨èĭ¥å·²åıĺèī²æĪĸä»İå®īåħ¨æ³Ħåİĭè£ħç½®ä¸Ńäº§çĶŁå£°éŁ³": 7863,
      "Ġåį±éĻ©è´§çī©è¿Ĳè¾ĵåĮħè£ħéĢļçĶ¨æĬĢæľ¯æĿ¡ä»¶": 7864,
      "æīĢåĮħåĲ«çļĦä¿¡æģ¯æĺ¯åŁºäºİåľ¨äº§åĵģçļĦæĵįä½ľ": 7865,
      "Ġä¸Ńåįİäººæ°ĳåħ±åĴĮåĽ½åĽºä½ĵåºŁçī©æ±¡æŁĵçİ¯å¢ĥéĺ²æ²»æ³ķ": 7866,
      "è¿Ļä¸įæİĴéĻ¤å¤§éĩıåĴĮç»ıå¸¸çļĦæ³Ħæ¼ıçī©åı¯èĥ½å¯¹çİ¯å¢ĥäº§çĶŁæľīå®³å½±åĵįæĪĸæįŁå®³": 7867,
      "åĤ¨åŃĺåĴĮä½¿çĶ¨ä¸ŃçļĦç§¯ç´¯çļĦæľīåħ³åģ¥åº·åĴĮå®īåħ¨çļĦè®¤è¯ĨæīĢæıĲä¾ĽçļĦä¸ĢèĪ¬æĮĩå¯¼": 7868,
      ")_": 7869,
      ".:**": 7870,
      "AB": 7871,
      "Ac": 7872,
      "Ad": 7873,
      "Amin": 7874,
      "ATE": 7875,
      "Appearance": 7876,
      "CL": 7877,
      "Céħįæĸ¹": 7878,
      "CCS": 7879,
      "CRAYVALLAC": 7880,
      "EW": 7881,
      "FE": 7882,
      "FT": 7883,
      "Fan": 7884,
      "HD": 7885,
      "Holdt": 7886,
      "JIA": 7887,
      "KG": 7888,
      "King": 7889,
      "KOH": 7890,
      "Mn": 7891,
      "MBI": 7892,
      "Methoxy": 7893,
      "Nit": 7894,
      "NATE": 7895,
      "PDS": 7896,
      "RB": 7897,
      "RD": 7898,
      "RDS": 7899,
      "RENOL": 7900,
      "SX": 7901,
      "Su": 7902,
      "Simpl": 7903,
      "TBL": 7904,
      "Tyzor": 7905,
      "UC": 7906,
      "Vin": 7907,
      "Vertellus": 7908,
      "Xylene": 7909,
      "ao": 7910,
      "cheon": 7911,
      "da": 7912,
      "ew": 7913,
      "fR": 7914,
      "fur": 7915,
      "gth": 7916,
      "group": 7917,
      "hu": 7918,
      "ik": 7919,
      "iRENOL": 7920,
      "ka": 7921,
      "lo": 7922,
      "ok": 7923,
      "pr": 7924,
      "rit": 7925,
      "ram": 7926,
      "sity": 7927,
      "scat": 7928,
      "wa": 7929,
      "xan": 7930,
      "¡çļĦ": 7931,
      "¢å¼ĥ": 7932,
      "£äºĽ": 7933,
      "¥ç¦»": 7934,
      "¥åĳĬ": 7935,
      "¦ä¾§": 7936,
      "¨å·Ŀ": 7937,
      "ªæ¶ĤæĸĻ": 7938,
      "«åĪ°": 7939,
      "¬åŁºéħ¯": 7940,
      "°ç«": 7941,
      "¹è®Ń": 7942,
      "½Ĳ": 7943,
      "½ŀ": 7944,
      "¾å¸": 7945,
      "¾èĳĹ": 7946,
      "âĢ": 7947,
      "âī": 7948,
      "å¦": 7949,
      "å¦Ĩ": 7950,
      "çĺ": 7951,
      "ç¿»": 7952,
      "é½Ĳ": 7953,
      "ï½ŀ": 7954,
      "Ġ\"": 7955,
      "ĠåıĬ": 7956,
      "ĠåĪ¶": 7957,
      "Ġä¿¡æģ¯": 7958,
      "Ġè¡¨": 7959,
      "Ġèľ¡": 7960,
      "Ġon": 7961,
      "Ġhe": 7962,
      "Ġè¿Ľåħ¥": 7963,
      "Ġä¿®è®¢": 7964,
      "ĠèħĲèļĢ": 7965,
      "ĠæĢ»": 7966,
      "ĠèĬĤ": 7967,
      "ĠçĶ²æ°§åŁº": 7968,
      "Ġä¹Ł": 7969,
      "Ġè¾ĥ": 7970,
      "ĠèŃ¦ç¤ºè¯Ń": 7971,
      "ĠåĪ«åĲį": 7972,
      "Ġè½¬ç§»èĩ³æĸ°é²ľç©ºæ°Ķå¤Ħ": 7973,
      "ĠèĦ±æ°´åīĤ": 7974,
      "Ġåı°æ¹¾": 7975,
      "Ġè§£å°ģæ¸©åº¦": 7976,
      "ĢåĶ®": 7977,
      "ĩçĬ¶": 7978,
      "ıåº¦": 7979,
      "ĳåħī": 7980,
      "Ĺçľ¼": 7981,
      "ĺåı": 7982,
      "ĺæķ£": 7983,
      "ļæĢ§": 7984,
      "ļé¼ł": 7985,
      "ľç®Ķ": 7986,
      "Ŀåıį": 7987,
      "ŀĦ": 7988,
      "ŀå¸Ĥ": 7989,
      "łç®¡": 7990,
      "ä¸ĺ": 7991,
      "ä¸¢å¼ĥ": 7992,
      "åĪļæĢ§": 7993,
      "Ġåī": 7994,
      "ĠåķĨ": 7995,
      "ĠæĲ": 7996,
      "Ġæ½ľåľ¨": 7997,
      "ĠæĻ®å·¥è·¯": 7998,
      "å®¾": 7999,
      "ï¼Ī<": 8000,
      "ï¼ī<": 8001,
      "æĢ§ç©ºéĹ´": 8002,
      "æĢ§æĳĺè¦ģ": 8003,
      "åºĨ": 8004,
      "çļĦæ¶ĤæĸĻ": 8005,
      "çļĦå¤Ħç½®": 8006,
      "çļĦåĻ¨å®ĺ": 8007,
      "çļĦåºĶçĶ¨": 8008,
      "çļĦæĥħåĨµ": 8009,
      "çļĦè¡¨éĿ¢": 8010,
      "çļĦæº¶æ¶²": 8011,
      "çļĦèģļåĲĪçī©": 8012,
      "çļĦå·¥ä½ľæľį": 8013,
      "çļĦéĺ²æĬ¤çľ¼éķľ": 8014,
      "çļĦåħ¶ä»ĸåį±å®³": 8015,
      "çļĦæ´Ĺçľ¼": 8016,
      "çļĦå°ģéĹŃåŀĭèĦĤèĤªæĹıèģļå¼Ĥæ°°éħ¸éħ¯": 8017,
      "çļĦåĿĩä¸Ģ": 8018,
      "çĶ¨ä½ľ": 8019,
      "çĶ¨æ¶ĤæĸĻ": 8020,
      "çĶ¨åħ·": 8021,
      "çĶ¨æ³¡æ²«": 8022,
      "å¤«": 8023,
      "éĢĨ": 8024,
      "éĺĪ": 8025,
      "åĵģè´¨": 8026,
      "æ¶¤": 8027,
      "éĺ²çģ«èĬ±": 8028,
      "éĺ²èħĲ": 8029,
      "æĬĬ": 8030,
      "æĬĺåı": 8031,
      "åĮĸèĭ¯ä»£ä¸īèģļæ°°èĥºçĶ²éĨĽæłĳèĦĤ": 8032,
      "åĮĸå¦Ĩ": 8033,
      "æľīæľºæ": 8034,
      "æľīéķ¿æľŁæĮģç»Ńå½±åĵį": 8035,
      "æľīçº¯": 8036,
      "æľīä¸įéĢĤæĦŁ": 8037,
      "è¿Ŀåıį": 8038,
      "çī©åį°åĪ·": 8039,
      "åĲ¸æ¹¿": 8040,
      "ĠéĽ": 8041,
      "Ġé©¬": 8042,
      "æ°´ç³»ç»Ł": 8043,
      "æ°´æĢ§åĴĮ": 8044,
      "æ°´éķĩ": 8045,
      "æ°´çİ¯å¢ĥåį±å®³": 8046,
      "æ°´çļĦæ´Ĺçľ¼": 8047,
      "åĴĮçİ¯æ°§": 8048,
      "åĴĮæķ°": 8049,
      "åĴĮä¿¡æģ¯": 8050,
      "åĴĮåĲ«": 8051,
      "åĴĮçİ¯å¢ĥ": 8052,
      "åĴĮä¿ĿæĬ¤": 8053,
      "åĴĮè¿Ĳè¾ĵ": 8054,
      "åĴĮéĺ²çĪĨ": 8055,
      "åĴĮåĳķåĲĲ": 8056,
      "åĴĮèĴ¸æ±½": 8057,
      "åĴĮåĨį": 8058,
      "åĴĮæº¶åīĤåŀĭ": 8059,
      "åĴĮçĥŃè¡¨éĿ¢": 8060,
      "åĴĮåĳ¨åĽ´çİ¯å¢ĥ": 8061,
      "åĴĮæ¶Īæ¯Ĵ": 8062,
      "åı¯ä½ľä¸º": 8063,
      "åı¯éĻįä½İ": 8064,
      "åı¯æıĲé«ĺ": 8065,
      "åī²": 8066,
      "åī¥ç¦»": 8067,
      "è¡°ç«": 8068,
      "RFORM": 8069,
      "åĬŀ": 8070,
      "åĲĪä¸Ģ": 8071,
      "åĲĪè®¡": 8072,
      "ï¼Ľ+": 8073,
      "å¼±": 8074,
      "å¼¯æĽ²": 8075,
      "ä¼´": 8076,
      "ä¼¸": 8077,
      "æĬ¤çĲĨ": 8078,
      "æĪĸçĶ¨": 8079,
      "æĪĸçļ®èĤ¤æİ¥è§¦": 8080,
      "æĪĸå¾®": 8081,
      "æĪĸæŃ£å¸¸": 8082,
      "æĪĸå¿ħè¦ģæĹ¶": 8083,
      "æĪĸæĥ°æĢ§åĲ¸éĻĦæĿĲæĸĻåĲ¸æĶ¶": 8084,
      "åºĶç«ĭåį³": 8085,
      "åºĶè¯¥": 8086,
      "èĥ½ä¸İ": 8087,
      "èĥ½åıĳçĶŁ": 8088,
      "èĥ½å¤Ł": 8089,
      "èĥ½æ²¿åľ°éĿ¢": 8090,
      "çİīç±³çīĩåŀĭ": 8091,
      "ä¸įæ¸ħ": 8092,
      "ä¸įèī¯": 8093,
      "ä¸įå½ĵ": 8094,
      "ä¸įåı¯çĩĥ": 8095,
      "ä¸įçĽ¸å®¹æĢ§": 8096,
      "ä¸įæİ¨èįĲä½¿çĶ¨": 8097,
      "æ°ĶéĽ¾": 8098,
      "åħ¥å½¢å¼ı": 8099,
      "ĠĠĠ": 8100,
      "èĦĨ": 8101,
      "è´¸": 8102,
      "ince": 8103,
      "ä¸Ńæº¶è§£åº¦": 8104,
      "å·¨å·Ŀ": 8105,
      "¡æĦı": 8106,
      "åĨ»": 8107,
      "åĨ³å®ļ": 8108,
      "æľ¬çī©è´¨": 8109,
      "æľ¬æĬ¥åĳĬ": 8110,
      "æŃ¦": 8111,
      "éĺ²æĬ¤éĿ¢ç½©": 8112,
      "æ·Ħ": 8113,
      "åĪ«çī¹å¾ģ": 8114,
      "çĿ¡æĦı": 8115,
      "çļ®èĤ¤åıįåºĶ": 8116,
      "æ¸¯": 8117,
      "æ¸¸ç¦»çĶ²éĨĽåĲ«éĩı": 8118,
      "åĻ¨æĿĲ": 8119,
      "åĻ¨åĨħ": 8120,
      "éħįçļĦéĺ²æĬ¤çľ¼éķľ": 8121,
      "IRI": 8122,
      "çĽ®åīį": 8123,
      "æ´¼": 8124,
      "åĩ»æĢ§": 8125,
      "ä¿ĿçķĻ": 8126,
      "åŁ¹è®Ń": 8127,
      "é£ĺæķ£": 8128,
      "éĿĴ": 8129,
      "ä½¿èĥĥ": 8130,
      "åĬłæ°¢": 8131,
      "åı¯èĥ½æĺ¯": 8132,
      "æī§è¡Į": 8133,
      "çĶµè·¯": 8134,
      "åĳ¼åĲ¸éĿ¢åħ·": 8135,
      "ä½¿çĶ¨æ°´": 8136,
      "ä½¿çĶ¨å¸¦": 8137,
      "ä½¿çĶ¨æľ¬äº§åĵģæĹ¶": 8138,
      "åĮ»åĬ¡": 8139,
      "åį±éĻ©åĮºåŁŁ": 8140,
      "ä¸İåŃĺåĤ¨": 8141,
      "ä¸İäº¤ä»ĺå½¢å¼ı": 8142,
      "æ±ĩ": 8143,
      "æ´Ĺè¡£": 8144,
      "æ´Ĺåı£èħĶ": 8145,
      "æ´Ĺæ¶¤": 8146,
      "æİªæĸ½éĺ²æŃ¢": 8147,
      "åıĬçļ®èĤ¤": 8148,
      "åıĬçĥŃ": 8149,
      "åıĬå·¥ä½ľ": 8150,
      "åıĬéĻĲåĪ¶çĶ¨éĢĶ": 8151,
      "åıĬåħ¬åı¸æłĩè¯Ĩ": 8152,
      "åıĬä¿Ŀç®¡": 8153,
      "ĠCity": 8154,
      "ĠCont": 8155,
      "ĠChin": 8156,
      "ĠChr": 8157,
      "ĠCyc": 8158,
      "ĠCao": 8159,
      "ĠPL": 8160,
      "ĠPP": 8161,
      "ĠPa": 8162,
      "ĠPDS": 8163,
      "ĠPAS": 8164,
      "ĠProp": 8165,
      "ĠPropert": 8166,
      "ĠProv": 8167,
      "ĠPETèĨľ": 8168,
      "æłĳèĦĤåĴĮèģļåĲĪçī©æ¶Ĥå±Ĥ": 8169,
      "åľ¨åĪ¶éĢł": 8170,
      "åľ¨å¯ĨéĹŃ": 8171,
      "åľ¨æŃ¤": 8172,
      "åľ¨ä¸Ĭé£İåĲĳ": 8173,
      "åĮĸåŃ¦ç¨³å®ļæĢ§": 8174,
      "éĢļæĬ¥": 8175,
      "æ¼«åĪ°": 8176,
      "æľŁéĹ´": 8177,
      "ä¸Ģçī©è´¨": 8178,
      "ä¸ĢåĪĩ": 8179,
      "æĹ¶æıĲèµ·": 8180,
      "åİ¦": 8181,
      "Ġç¬¬ä¹Ŀ": 8182,
      "æłĩçļĦåĻ¨å®ĺ": 8183,
      "çĥĺçĥ¤åĲİ": 8184,
      "åĲ¸åħ¥èĴ¸æ±½": 8185,
      "äººç±»": 8186,
      "Ġåį°": 8187,
      "ä¿¡æģ¯æĹłéľĢ": 8188,
      "å¦Ĥæİ¥è§¦åĪ°æĪĸæľīçĸĳèĻĳ": 8189,
      "çī¹ç§į": 8190,
      "çī¹æķĪ": 8191,
      "ĠHe": 8192,
      "ĠHiRENOL": 8193,
      "å¤§åĪ©": 8194,
      "å¤§åİ¦": 8195,
      "éħ¯æº¶æĢ§": 8196,
      "è£ħæľīçº¯": 8197,
      "è£ħéħįçļĦéĺ²æĬ¤çľ¼éķľ": 8198,
      "æ³ķå¤Ħç½®": 8199,
      "åĿļ": 8200,
      "åĿªæ¶ĤæĸĻ": 8201,
      "ä¸ĭçļĦ": 8202,
      "åķĨåĬ¡": 8203,
      "å®ļæľŁ": 8204,
      "åĨ²åĴĮæ¶Īæ¯Ĵ": 8205,
      "åĨ²åĩ»æĢ§": 8206,
      "åį±å®³æķĪåºĶ": 8207,
      "åį±å®³èŃ¦åĳĬè®¯æģ¯": 8208,
      "åıĳè¡Į": 8209,
      "åıĳèĬ±": 8210,
      "åıĳæ³¡": 8211,
      "Ġäº§åĵģåĲį": 8212,
      "Ġäº§åĵģæłĩè¯Ĩ": 8213,
      "Ġäº§åĵģæİ¨èįĲ": 8214,
      "çģŃçģ«ç»ĵæĿŁ": 8215,
      "æŀ¶": 8216,
      "å¯¹åħ¶": 8217,
      "å¯¹éĿĻçĶµ": 8218,
      "å¯¹çħ§": 8219,
      "å¯¹åĺ´": 8220,
      "å¯¹ä¿ĿæĬ¤æĸ½æķĳèĢħçļĦå¿łåĳĬ": 8221,
      "å¯ĨçĿĢ": 8222,
      "åĽ½åĨħ": 8223,
      "çľ¼çĿĽä¿ĿæĬ¤": 8224,
      "Ġä¸ĩåįİåĮĸåŃ¦": 8225,
      "çĶµè¯Ŀè¯·": 8226,
      "ĠĠĠĠĠ": 8227,
      "é«ĺéģ®çĽĸåĬĽ": 8228,
      "é«ĺåİĭæ°´æŀª": 8229,
      "èĴ¸æ°Ķåı¯": 8230,
      "èĴ¸æ°Ķæ³Ħæ¼ı": 8231,
      "èĴ¸æ°Ķå½¢æĪĲ": 8232,
      "çŃĴ": 8233,
      "ĠSD": 8234,
      "ĠSI": 8235,
      "ĠSU": 8236,
      "ĠSAN": 8237,
      "ĠShin": 8238,
      "ĠSeo": 8239,
      "è¿ĩåº¦": 8240,
      "èµ·å¹¶": 8241,
      "ä¼ļåĩºçİ°": 8242,
      "æĹłçī¹æķĪ": 8243,
      "æº¶åīĤéĹªçĤ¹": 8244,
      "æº¶åīĤæł·æ°Ķåĳ³": 8245,
      "å¹¶çĶ¨": 8246,
      "å¹¶æł¹æį®çĹĩçĬ¶": 8247,
      "å¹¶åĤ¨åŃĺäºİå¯ĨéĹŃå®¹åĻ¨ä¸Ń": 8248,
      "ä¸ºéħįæĸ¹": 8249,
      "ä¸ºéĩįéĩıçĻ¾åĪĨæ¯Ķ": 8250,
      "ç©ºæ°Ķæµģ": 8251,
      "ç©ºæ°Ķæ··åĲĪçī©": 8252,
      "ç©ºæ°Ķä¸ŃçļĦ": 8253,
      "ç©ºæ°Ķæ¸ħæĸ°": 8254,
      "çĥŃåĽºåĮĸ": 8255,
      "çĥŃçĨĶ": 8256,
      "éĢļé£İç³»ç»Ł": 8257,
      "éĢļé£İè®¾æĸ½": 8258,
      "ä»¥ç¡®ä¿Ŀ": 8259,
      "çī©è´¨å®īåħ¨èµĦæĸĻè¡¨": 8260,
      "æľįçĶ¨": 8261,
      "åĮºåįĹ": 8262,
      "æ¯ĴæĢ§æķ°æį®": 8263,
      "æĪ´æ©¡èĥ¶": 8264,
      "ĠGra": 8265,
      "çĪ±": 8266,
      "ener": 8267,
      "erfor": 8268,
      "å¼ķçĩĥ": 8269,
      "éģĵèĩ´æķı": 8270,
      "ä¸ĬçļĦ": 8271,
      "ä¸Ĭè¡¨": 8272,
      "Ġæĺ¾èĳĹ": 8273,
      "æĿĲæĸĻåĴĮ": 8274,
      "æīĢçŁ¥": 8275,
      "ĠBen": 8276,
      "ĠBox": 8277,
      "ĠBECKOPOX": 8278,
      "ĠBfR": 8279,
      "ä¿ĿæĮģçİĩ": 8280,
      "ä¿ĿæĮģåĪ©äºİåĳ¼åĲ¸": 8281,
      "å¼Ĥå£": 8282,
      "å¼ķèµ·ä¸¥éĩį": 8283,
      "èĭ¯åŁº": 8284,
      "æľīå®³åĪĨè§£äº§çī©": 8285,
      "ĠMF": 8286,
      "ĠMal": 8287,
      "ĠMeth": 8288,
      "ĠMPA": 8289,
      "æ²¹æº¶åīĤ": 8290,
      "åĪ°å·¥ä½ľåľºæīĢ": 8291,
      "ĠDv": 8292,
      "ĠData": 8293,
      "åĩºåħ¥": 8294,
      "åĩºåı£": 8295,
      "åĩºèī²çļĦ": 8296,
      "ĠTr": 8297,
      "ĠTyzor": 8298,
      "æĸ¹æ³ķåıĬçģŃçģ«åīĤ": 8299,
      "ç±»åŀĭéħļéĨĽ": 8300,
      "ç±»åŀĭä¸Ļçĥ¯éħ¸": 8301,
      "æīĭéĥ¨": 8302,
      "æīĭåĨĮ": 8303,
      "æĺ¯æł¹æį®": 8304,
      "åĲ«éĩıä¸ºéĩįéĩıçĻ¾åĪĨæ¯Ķ": 8305,
      "å¤§éĩıé¥®æ°´": 8306,
      "Ġæ¶¦": 8307,
      "çİ¯å¢ĥæ³¨æĦıäºĭé¡¹": 8308,
      "éģ¿åħįä¸İ": 8309,
      "éģ¿åħįåĲ¸åħ¥ç²īå°ĺ": 8310,
      "æĵįä½ľçİ°åľº": 8311,
      "çĿĢçģ«æºĲ": 8312,
      "ĠIr": 8313,
      "ĠIso": 8314,
      "çŃīæ°¸": 8315,
      "ç«ĭåį³è¿Ľè¡Į": 8316,
      "ç«ĭåį³åİ»": 8317,
      "ç«ĭåį³èĦ±æİī": 8318,
      "ĠAR": 8319,
      "ĠAn": 8320,
      "åĲİæľīä¸įéĢĤæĦŁ": 8321,
      "ä½İç²ĺåº¦": 8322,
      "ä½İåīªåĪĩåĬĽ": 8323,
      "æ³Ħæ¼ıæĪĸ": 8324,
      "æ³Ħæ¼ıæºĲ": 8325,
      "æ³Ħæ¼ıæ±¡æŁĵåĮº": 8326,
      "arb": 8327,
      "arn": 8328,
      "ary": 8329,
      "arant": 8330,
      "éĵ²": 8331,
      "éĵĭ": 8332,
      "éĵľç®Ķ": 8333,
      "çĽ¸å¯¹": 8334,
      "ĠRB": 8335,
      "ĠRE": 8336,
      "ĠRe": 8337,
      "ĠRed": 8338,
      "ĠRESIN": 8339,
      "æ³¨çī©è´¨": 8340,
      "æĦıå¤ĸ": 8341,
      "èĩªçĶŁäº§": 8342,
      "èĩªèº«": 8343,
      "ĠæĹłåºĶçĶ¨": 8344,
      "çĸı": 8345,
      "èģĶåīĤ": 8346,
      "èģĶå¾·": 8347,
      "æľªå¼Ģå°ģ": 8348,
      "ç§»åĬ¨": 8349,
      "ort": 8350,
      "Ġå¤ļ": 8351,
      "Ġæµħ": 8352,
      "hexan": 8353,
      "åħ¶ä»ĸæİªæĸ½": 8354,
      "TED": 8355,
      "ç»Ńæ£Ģæµĭ": 8356,
      "Ġå®ŀ": 8357,
      "Ġåºķ": 8358,
      "TMP": 8359,
      "ç»ĻåıĹå®³èĢħä¿Ŀæļĸ": 8360,
      "éĩĳè·¯": 8361,
      "éĩĳæ¹¾": 8362,
      "ĠæĪĲåĪĨä¿¡æģ¯": 8363,
      "çĥŁæ°Ķ": 8364,
      "ĠæĬ¥åĳĬ": 8365,
      "æľĢæĸ°": 8366,
      "Ġph": 8367,
      "Ġpl": 8368,
      "Ġphr": 8369,
      "Ġpart": 8370,
      "sterilization": 8371,
      "æīĢæľīçģ«æºĲ": 8372,
      "æīĢæľīæº¶åīĤåŀĭ": 8373,
      "etern": 8374,
      "æ¶Īéĺ²åĻ¨æĿĲ": 8375,
      "its": 8376,
      "æĭŃ": 8377,
      "ç¾İ": 8378,
      "æĮĩæķ°": 8379,
      "éĻĦåĬł": 8380,
      "ĠKOR": 8381,
      "ĠKane": 8382,
      "éĺ²æŃ¢æ³Ħæ¼ıçī©": 8383,
      "éĺ²æŃ¢æº¢åĩºçī©": 8384,
      "éĺ²æŃ¢ç¼©åŃĶ": 8385,
      "éĺ²æŃ¢èĴ¸æ°Ķæ³Ħæ¼ı": 8386,
      "INE": 8387,
      "äº§çĶŁåĴĮ": 8388,
      "äº§çĶŁæľīæ¯Ĵ": 8389,
      "å°ıçļĦäº§åĵģ": 8390,
      "Ġçī©æĢģ": 8391,
      "åİŁåĮħè£ħ": 8392,
      "åİŁå®¹åĻ¨ä¸Ń": 8393,
      "åİŁåĽł": 8394,
      "çİ°è±¡": 8395,
      "ä¸¥éĩįæįŁä¼¤": 8396,
      "åıĹæ±¡æŁĵçļĦ": 8397,
      "ichem": 8398,
      "å»ºè®®çĶ¨éĢĶ": 8399,
      "å»ºè®®ä½©æĪ´": 8400,
      "rom": 8401,
      "æľºèĥ½": 8402,
      "å¸Ĥä¸ģä¼Ļéķĩ": 8403,
      "å¸Ĥéĩĳæ¹¾": 8404,
      "ĠæĬĢæľ¯æķ°æį®": 8405,
      "ĠæĬĢæľ¯åįıåĬ©": 8406,
      "GHSåį±éĻ©æĢ§åĪĨç±»": 8407,
      "ç¦ģéħįçī©": 8408,
      "ä¸īæĸ¹": 8409,
      "éĻ¤éĿŀ": 8410,
      "æĸĩæ¡£æĹ¥æľŁ": 8411,
      "çĻ½æ³¡æ²«çģŃçģ«": 8412,
      "eld": 8413,
      "els": 8414,
      "ä¼łç»Ł": 8415,
      "çĶŁäº§çļĦ": 8416,
      "çĹĩçĬ¶åĩºçİ°": 8417,
      "ĠçĶ¨éĿŀåı¯çĩĥæĢ§æĿĲæĸĻåĲ¸æĶ¶æº¢åĩºçī©": 8418,
      "åħ·æľīæĿĢèıĮ": 8419,
      "åĿĩåĪĹäºİ": 8420,
      "åĽ´åł¤": 8421,
[...]
