{
  "version": "1.0",
  "truncation": null,
  "padding": null,
  "added_tokens": [
    {
      "id": 0,
      "content": "<|pad|>",
      "single_word": false,
      "lstrip": false,
      "rstrip": false,
      "normalized": false,
      "special": true
    },
    {
      "id": 1,
      "content": "<|im_start|>",
      "single_word": false,
      "lstrip": false,
      "rstrip": false,
      "normalized": false,
      "special": true
    },
    {
      "id": 2,
      "content": "<|im_end|>",
      "single_word": false,
      "lstrip": false,
      "rstrip": false,
      "normalized": false,
      "special": true
    }
  ],
  "normalizer": null,
  "pre_tokenizer": {
    "type": "ByteLevel",
    "add_prefix_space": false,
    "trim_offsets": true,
    "use_regex": true
  },
  "post_processor": null,
  "decoder": {
    "type": "ByteLevel",
    "add_prefix_space": true,
    "trim_offsets": true,
    "use_regex": true
  },
  "model": {
    "type": "BPE",
    "dropout": null,
    "unk_token": null,
    "continuing_subword_prefix": null,
    "end_of_word_suffix": null,
    "fuse_unk": false,
    "byte_fallback": false,
    "ignore_merges": false,
    "vocab": {
      "<|pad|>": 0,
      "<|im_start|>": 1,
      "<|im_end|>": 2,
      "!": 3,
      "\"": 4,
      "#": 5,
      "$": 6,
      "%": 7,
      "&": 8,
      "'": 9,
      "(": 10,
      ")": 11,
      "*": 12,
      "+": 13,
      ",": 14,
      "-": 15,
      ".": 16,
      "/": 17,
      "0": 18,
      "1": 19,
      "2": 20,
      "3": 21,
      "4": 22,
      "5": 23,
      "6": 24,
      "7": 25,
      "8": 26,
      "9": 27,
      ":": 28,
      ";": 29,
      "<": 30,
      "=": 31,
      ">": 32,
      "?": 33,
      "@": 34,
      "A": 35,
      "B": 36,
      "C": 37,
      "D": 38,
      "E": 39,
      "F": 40,
      "G": 41,
      "H": 42,
      "I": 43,
      "J": 44,
      "K": 45,
      "L": 46,
      "M": 47,
      "N": 48,
      "O": 49,
      "P": 50,
      "Q": 51,
      "R": 52,
      "S": 53,
      "T": 54,
      "U": 55,
      "V": 56,
      "W": 57,
      "X": 58,
      "Y": 59,
      "Z": 60,
      "[": 61,
      "\\": 62,
      "]": 63,
      "^": 64,
      "_": 65,
      "`": 66,
      "a": 67,
      "b": 68,
      "c": 69,
      "d": 70,
      "e": 71,
      "f": 72,
      "g": 73,
      "h": 74,
      "i": 75,
      "j": 76,
      "k": 77,
      "l": 78,
      "m": 79,
      "n": 80,
      "o": 81,
      "p": 82,
      "q": 83,
      "r": 84,
      "s": 85,
      "t": 86,
      "u": 87,
      "v": 88,
      "w": 89,
      "x": 90,
      "y": 91,
      "z": 92,
      "{": 93,
      "|": 94,
      "}": 95,
      "~": 96,
      "¡": 97,
      "¢": 98,
      "£": 99,
      "¤": 100,
      "¥": 101,
      "¦": 102,
      "§": 103,
      "¨": 104,
      "©": 105,
      "ª": 106,
      "«": 107,
      "¬": 108,
      "®": 109,
      "¯": 110,
      "°": 111,
      "±": 112,
      "²": 113,
      "³": 114,
      "´": 115,
      "µ": 116,
      "¶": 117,
      "·": 118,
      "¸": 119,
      "¹": 120,
      "º": 121,
      "»": 122,
      "¼": 123,
      "½": 124,
      "¾": 125,
      "¿": 126,
      "À": 127,
      "Á": 128,
      "Â": 129,
      "Ã": 130,
      "Ä": 131,
      "Å": 132,
      "Æ": 133,
      "Ç": 134,
      "È": 135,
      "É": 136,
      "Ê": 137,
      "Ë": 138,
      "Ì": 139,
      "Í": 140,
      "Î": 141,
      "Ï": 142,
      "Ð": 143,
      "Ñ": 144,
      "Ò": 145,
      "Ó": 146,
      "Ô": 147,
      "Õ": 148,
      "Ö": 149,
      "×": 150,
      "Ø": 151,
      "Ù": 152,
      "Ú": 153,
      "Û": 154,
      "Ü": 155,
      "Ý": 156,
      "Þ": 157,
      "ß": 158,
      "à": 159,
      "á": 160,
      "â": 161,
      "ã": 162,
      "ä": 163,
      "å": 164,
      "æ": 165,
      "ç": 166,
      "è": 167,
      "é": 168,
      "ê": 169,
      "ë": 170,
      "ì": 171,
      "í": 172,
      "î": 173,
      "ï": 174,
      "ð": 175,
      "ñ": 176,
      "ò": 177,
      "ó": 178,
      "ô": 179,
      "õ": 180,
      "ö": 181,
      "÷": 182,
      "ø": 183,
      "ù": 184,
      "ú": 185,
      "û": 186,
      "ü": 187,
      "ý": 188,
      "þ": 189,
      "ÿ": 190,
      "Ā": 191,
      "ā": 192,
      "Ă": 193,
      "ă": 194,
      "Ą": 195,
      "ą": 196,
      "Ć": 197,
      "ć": 198,
      "Ĉ": 199,
      "ĉ": 200,
      "Ċ": 201,
      "ċ": 202,
      "Č": 203,
      "č": 204,
      "Ď": 205,
      "ď": 206,
      "Đ": 207,
      "đ": 208,
      "Ē": 209,
      "ē": 210,
      "Ĕ": 211,
      "ĕ": 212,
      "Ė": 213,
      "ė": 214,
      "Ę": 215,
      "ę": 216,
      "Ě": 217,
      "ě": 218,
      "Ĝ": 219,
      "ĝ": 220,
      "Ğ": 221,
      "ğ": 222,
      "Ġ": 223,
      "ġ": 224,
      "Ģ": 225,
      "ģ": 226,
      "Ĥ": 227,
      "ĥ": 228,
      "Ħ": 229,
      "ħ": 230,
      "Ĩ": 231,
      "ĩ": 232,
      "Ī": 233,
      "ī": 234,
      "Ĭ": 235,
      "ĭ": 236,
      "Į": 237,
      "į": 238,
      "İ": 239,
      "ı": 240,
      "Ĳ": 241,
      "ĳ": 242,
      "Ĵ": 243,
      "ĵ": 244,
      "Ķ": 245,
      "ķ": 246,
      "ĸ": 247,
      "Ĺ": 248,
      "ĺ": 249,
      "Ļ": 250,
      "ļ": 251,
      "Ľ": 252,
      "ľ": 253,
      "Ŀ": 254,
      "ŀ": 255,
      "Ł": 256,
      "ł": 257,
      "Ń": 258,
      "--": 259,
      "ï¼": 260,
      "Ġ|": 261,
      "ãĢ": 262,
      "**": 263,
      "ãĢģ": 264,
      "ä¸": 265,
      "----": 266,
      "%ãĢģ": 267,
      "ï¼ļ": 268,
      "åı": 269,
      "åĪ": 270,
      "ï¼Į": 271,
      "çĶ": 272,
      "æľ": 273,
      "ãĢĤ": 274,
      "åĲ": 275,
      "åħ": 276,
      "æ°": 277,
      "æĢ": 278,
      "æĸ": 279,
      "##": 280,
      "äº": 281,
      "ä½": 282,
      "Ġå": 283,
      "çļ": 284,
      "Ġæ": 285,
      "å®": 286,
      "ï¼Ī": 287,
      "ï¼ī": 288,
      "Ġ**": 289,
      "Ġç": 290,
      "æĢ§": 291,
      "éħ": 292,
      "åĮ": 293,
      "åº": 294,
      "çļĦ": 295,
      "æĪ": 296,
      "çĶ¨": 297,
      "00": 298,
      "å¤": 299,
      "---": 300,
      "éĢ": 301,
      "çĥ": 302,
      "çī": 303,
      "åĵ": 304,
      "æİ": 305,
      "éĺ": 306,
      "è§": 307,
      "è¯": 308,
      "åŃ": 309,
      "éĻ": 310,
      "åĪĨ": 311,
      "éĩ": 312,
      "Ġ1": 313,
      "|----": 314,
      "åį": 315,
      "åĵģ": 316,
      "æł": 317,
      "æ¶": 318,
      "éĺ²": 319,
      "10": 320,
      "çģ": 321,
      "æĬ": 322,
      "åĮĸ": 323,
      "ä»": 324,
      "åĴ": 325,
      "æľī": 326,
      "ä½ĵ": 327,
      "**ï¼ļ": 328,
      "è¿": 329,
      "éĨ": 330,
      "çī©": 331,
      "±»": 332,
      "æĺ": 333,
      "ï¼ļ**": 334,
      "æķ": 335,
      "åĲ¸": 336,
      "èĥ": 337,
      "äº§": 338,
      "ç»": 339,
      "Ġé": 340,
      "æ°´": 341,
      "åĴĮ": 342,
      "åı¯": 343,
      "ä¿": 344,
      "åī": 345,
      "20": 346,
      "å°": 347,
      "è¡": 348,
      "åĳ": 349,
      "æĹ": 350,
      "RF": 351,
      "åĬ": 352,
      "æĸĻ": 353,
      "æ³": 354,
      "|------": 355,
      "åĲĪ": 356,
      "åľ": 357,
      "æ°§": 358,
      "åīĤ": 359,
      "ï¼Ľ": 360,
      "å¼": 361,
      "èĤ": 362,
      "ä¼": 363,
      "çĽ": 364,
      "çľ": 365,
      "åĽ": 366,
      "æº": 367,
      "çģ«": 368,
      "ç±»": 369,
      "æĬ¤": 370,
      "æĪĸ": 371,
      "æĸ¹": 372,
      "åºĶ": 373,
      "èĥ½": 374,
      "15": 375,
      "###": 376,
      "çİ": 377,
      "ä¸į": 378,
      "äº§åĵģ": 379,
      "01": 380,
      "æ°Ķ": 381,
      "éĩı": 382,
      "æİ¥": 383,
      "åħ¥": 384,
      "ĠĠ": 385,
      "Ġ2": 386,
      "åį±": 387,
      "è§¦": 388,
      "çĶŁ": 389,
      "å®¹": 390,
      "Â°": 391,
      "Ġâ": 392,
      "æµ": 393,
      "åº¦": 394,
      "å¯": 395,
      "ç³": 396,
      "16": 397,
      "èĦ": 398,
      "06": 399,
      "è´": 400,
      "in": 401,
      "ç§": 402,
      "åŃ¦": 403,
      "ä¸Ń": 404,
      "ç³»": 405,
      "å·": 406,
      "æ¶²": 407,
      "çļ®": 408,
      "æĪĲ": 409,
      "éħ¸": 410,
      "¡æ": 411,
      "ºæ": 412,
      "å½": 413,
      "åĨ": 414,
      "æľ¬": 415,
      "æŃ": 416,
      "éĻ©": 417,
      "å¹": 418,
      "éĺ²æĬ¤": 419,
      "å¤Ħ": 420,
      "æĢ¥": 421,
      "çľ¼": 422,
      "èĩ": 423,
      "çİ¯": 424,
      "å®³": 425,
      "æİ¥è§¦": 426,
      "æ·": 427,
      "åĪ«": 428,
      "æĺİ": 429,
      "¦Ĥ": 430,
      "è®": 431,
      "çĿ": 432,
      "èĤ¤": 433,
      "çļ®èĤ¤": 434,
      "80": 435,
      "æ¸": 436,
      "ä¹": 437,
      "æĿ": 438,
      "---|": 439,
      "æį": 440,
      "åĻ": 441,
      "åĻ¨": 442,
      "æ¯": 443,
      "äºİ": 444,
      "èģ": 445,
      "éħį": 446,
      "èī": 447,
      "19": 448,
      "åĳ¼": 449,
      "¡¹": 450,
      "IR": 451,
      "ç²": 452,
      "åŃĺ": 453,
      "çĩ": 454,
      "çĽ®": 455,
      "æĮ": 456,
      "æ´": 457,
      "åĩ": 458,
      "çĤ": 459,
      "ä¿Ŀ": 460,
      "åŁ": 461,
      "è´¨": 462,
      "é£": 463,
      "17": 464,
      "éĿ": 465,
      "ä½¿": 466,
      "50": 467,
      "DS": 468,
      "åħ¨": 469,
      "æĸ½": 470,
      "åĬł": 471,
      "åı¯èĥ½": 472,
      "éĥ": 473,
      "ĲĨ": 474,
      "èĦĤ": 475,
      "æī": 476,
      "éĨĩ": 477,
      "æº¶": 478,
      "¦ģ": 479,
      "çĶµ": 480,
      "å·¥": 481,
      "¿Ģ": 482,
      "åĪºæ": 483,
      "åĳ¼åĲ¸": 484,
      "åĪºæ¿Ģ": 485,
      "éĥ¨": 486,
      "éģ": 487,
      "¡¹çĽ®": 488,
      "ä¸ģ": 489,
      "|------|": 490,
      "æ··": 491,
      "ªæĸ½": 492,
      "Ġ3": 493,
      "ä½¿çĶ¨": 494,
      "åĮ»": 495,
      "éĻĲ": 496,
      "èµ": 497,
      "ĳèĦĤ": 498,
      "äºĮ": 499,
      "éĨĽ": 500,
      "å¾": 501,
      "ä½ľ": 502,
      "çĲĨ": 503,
      "åį±éĻ©": 504,
      "ä¸İ": 505,
      "|--------": 506,
      "ä½ĵç³»": 507,
      "ç½": 508,
      "¬¬": 509,
      "Ġé¡¹çĽ®": 510,
      "æ±": 511,
      "åĲį": 512,
      "ä¸ļ": 513,
      "åĢ": 514,
      "æ´Ĺ": 515,
      "æ··åĲĪ": 516,
      "08": 517,
      "æİªæĸ½": 518,
      "èĢ": 519,
      "åĤ": 520,
      "ŀĭ": 521,
      "éħļ": 522,
      "13": 523,
      "åıĬ": 524,
      "çİ¯æ°§": 525,
      "çĩĥ": 526,
      "æĶ": 527,
      "æ¶Ĥ": 528,
      "ä¾": 529,
      "åı·": 530,
      "%ï¼Į": 531,
      "éĢĤ": 532,
      "éħįæĸ¹": 533,
      "ĠC": 534,
      "ĠP": 535,
      "min": 536,
      "èĭ": 537,
      "ĺçĥ": 538,
      "æłĳèĦĤ": 539,
      "åľ¨": 540,
      "åĪ¶": 541,
      "90": 542,
      "ĢĶ": 543,
      "īåħ¨": 544,
      "åĮĸåŃ¦": 545,
      "Ġ0": 546,
      "æ²": 547,
      "åŀĭ": 548,
      "ģ¯": 549,
      "éĢļ": 550,
      "èģļ": 551,
      "æ¼": 552,
      "æľŁ": 553,
      "æķ°": 554,
      "AZ": 555,
      "ä¸Ģ": 556,
      "æĹ¶": 557,
      "æį®": 558,
      "åİ": 559,
      "ĺçĥ¤": 560,
      "Ġç¬¬": 561,
      "æłĩ": 562,
      "åĢ¼": 563,
      "ÃĹ": 564,
      "å¥": 565,
      "åħ¬": 566,
      "çĥĺçĥ¤": 567,
      "åĲ¸åħ¥": 568,
      "ç©": 569,
      "æ¯Ĵ": 570,
      "äºº": 571,
      "æł·": 572,
      "Ġåį": 573,
      "ä¿¡æ": 574,
      "ä¿¡æģ¯": 575,
      "75": 576,
      "æ¸ħ": 577,
      "86": 578,
      "çĶ²": 579,
      "12": 580,
      "¨åŃĺ": 581,
      "èī²": 582,
      "è£": 583,
      "æľ¯": 584,
      "Ġ5": 585,
      "25": 586,
      "éħļéĨĽ": 587,
      "å¦Ĥ": 588,
      "è¦ģ": 589,
      "åı¸": 590,
      "è¡¨": 591,
      "åħ¬åı¸": 592,
      "åŁº": 593,
      "ä½ĵç³»æł·": 594,
      "ä½ĵç³»æł·æľ¬": 595,
      "Ģæľ¯": 596,
      "éĢł": 597,
      "ç§°": 598,
      "åĲįç§°": 599,
      "|------|------|": 600,
      "å±": 601,
      "åĲ«": 602,
      "éĩį": 603,
      "---|---|": 604,
      "çī¹": 605,
      "çĿĽ": 606,
      "ĠH": 607,
      "ħå®¹": 608,
      "éĥ¨åĪĨ": 609,
      "å¤§": 610,
      "éħ¯": 611,
      "å®īåħ¨": 612,
      "è¯´": 613,
      "è¯´æĺİ": 614,
      "ĠâĢĶ": 615,
      "å¸": 616,
      "æŃ£": 617,
      "SDS": 618,
      "æĸĩ": 619,
      "åľ°": 620,
      "æ¶²ä½ĵ": 621,
      "ä¸ģéĨĩ": 622,
      "40": 623,
      "å¢": 624,
      "36": 625,
      "«ĺ": 626,
      "æ°§åĮĸ": 627,
      "è£ħ": 628,
      "æ³ķ": 629,
      "55": 630,
      "èľ": 631,
      "Ġ(": 632,
      "æĮģ": 633,
      "èĴ": 634,
      "èľ¡": 635,
      "èĴ¸": 636,
      "60": 637,
      "æĸ°": 638,
      "æºĲ": 639,
      "ĠåĨ": 640,
      "ĠåĮ": 641,
      "Ńçģ«": 642,
      "ç²ī": 643,
      "çĤ¹": 644,
      "AS": 645,
      "æĹ¥": 646,
      "åĿ": 647,
      "ķĨ": 648,
      "95": 649,
      "éĹ": 650,
      "å°±": 651,
      "éķ": 652,
      "ä¸ĭ": 653,
      "ĠåĨħå®¹": 654,
      "åķĨ": 655,
      "å¿": 656,
      "å®ļ": 657,
      "åĤ¨åŃĺ": 658,
      "åĨ²": 659,
      "åį±å®³": 660,
      "åıĳ": 661,
      "è§Ħ": 662,
      "è¡¥": 663,
      "Ġäº§åĵģ": 664,
      "¿åħ": 665,
      "é¢": 666,
      "çģŃçģ«": 667,
      "æľīéĻĲ": 668,
      "æŀ": 669,
      "å¯¹": 670,
      "å¯Ĩ": 671,
      "ç©º": 672,
      "é£İ": 673,
      "åĽ½": 674,
      "çľ¼çĿĽ": 675,
      "35": 676,
      "ç£": 677,
      "æ¶ĤæĸĻ": 678,
      "çº": 679,
      "Ġç±»": 680,
      "éĢĶ": 681,
      "ä¾Ľ": 682,
      "è¯Ŀ": 683,
      "æľīéĻĲåħ¬åı¸": 684,
      "11": 685,
      "åħ·": 686,
      "«ĭ": 687,
      "1510": 688,
      "åĬłæ··åĲĪ": 689,
      "è¡¥åĬłæ··åĲĪ": 690,
      "è¡¥åĬłæ··åĲĪæ¶²": 691,
      "Ġä¸": 692,
      "å®¹åĻ¨": 693,
      "1906": 694,
      "çĶµè¯Ŀ": 695,
      "0880": 696,
      "çİ¯æ°§éħļéĨĽ": 697,
      "åĨ²æ´Ĺ": 698,
      "çİ¯æ°§éħļéĨĽä½ĵç³»æł·æľ¬": 699,
      "an": 700,
      "Ġç±»åĪ«": 701,
      "ĠĠĠĠ": 702,
      "é«ĺ": 703,
      "Ġ4": 704,
      "ç¨": 705,
      "æŃ¢": 706,
      "28": 707,
      "è¾": 708,
      "ç½®": 709,
      "å°±åĮ»": 710,
      "èĴ¸æ°Ķ": 711,
      "çŃ": 712,
      "åį³": 713,
      "éĿ¢": 714,
      "éĢłæĪĲ": 715,
      "Ġ7": 716,
      "Ġåį±": 717,
      "èĩ´": 718,
      "æĿĲ": 719,
      "ä»¶": 720,
      "Ġçī": 721,
      "Ġm": 722,
      "ä¹Ļ": 723,
      "ĠS": 724,
      "è¿ĩ": 725,
      "æķ°æį®": 726,
      "æ¡": 727,
      "èµ·": 728,
      "ä¼ļ": 729,
      "æŃ£ä¸ģéĨĩ": 730,
      "30": 731,
      "ç±»åĪ«": 732,
      "æĹł": 733,
      "åĽº": 734,
      "ç¡": 735,
      "«ĭåį³": 736,
      "ç¦": 737,
      "æķĳ": 738,
      "è½": 739,
      "æº¶åīĤ": 740,
      "å¹¶": 741,
      "ĠåĮĸ": 742,
      "åħ¶": 743,
      "ĠåĮĸåŃ¦": 744,
      "ä¸º": 745,
      "æĬĢæľ¯": 746,
      "éľ": 747,
      "ç©ºæ°Ķ": 748,
      "çĥŃ": 749,
      "å¤ĩ": 750,
      "ç¦»": 751,
      "ç¼": 752,
      "åıį": 753,
      "516": 754,
      "¿åħį": 755,
      "èĩ³": 756,
      "è¿Ľ": 757,
      "å¹²": 758,
      "é£Ł": 759,
      "éĢļé£İ": 760,
      "èĬ": 761,
      "24": 762,
      "âĦ": 763,
      "å¥½": 764,
      "200": 765,
      "ĵçĩĥ": 766,
      "205": 767,
      "çĻ": 768,
      "|---|---|": 769,
      "·éħ¸": 770,
      "èĢĲ": 771,
      "18": 772,
      "ĵį": 773,
      "çĬ": 774,
      "22": 775,
      "Ġ-": 776,
      "ç£·éħ¸": 777,
      "ĵįä½ľ": 778,
      "åŃĲ": 779,
      "ä»¥": 780,
      "ol": 781,
      "Łĵ": 782,
      "è¿°": 783,
      "at": 784,
      "çĹ": 785,
      "ĠæĢ¥": 786,
      "çī©è´¨": 787,
      "æľį": 788,
      "ç»Ħ": 789,
      "æ¼ı": 790,
      "åĮº": 791,
      "æ¯ĴæĢ§": 792,
      "es": 793,
      "æĪ´": 794,
      "å½¢": 795,
      "çĬ¶": 796,
      "Ġ6": 797,
      "Ġ8": 798,
      "è¯Ĩ": 799,
      "ĠG": 800,
      "çĪ": 801,
      "en": 802,
      "er": 803,
      "éĴ": 804,
      "å¼ķ": 805,
      "è§£": 806,
      "éģĵ": 807,
      "14": 808,
      "æĦ": 809,
      "on": 810,
      "ä¸Ĭ": 811,
      "Ġæĺ": 812,
      "æĹ¥æľŁ": 813,
      "Ħæ¼ı": 814,
      "å¤ĦçĲĨ": 815,
      "ç¢": 816,
      "ĠN": 817,
      "Īéĺ²": 818,
      "âĦĥ": 819,
      "32": 820,
      "æĿĲæĸĻ": 821,
      "Ġæİ": 822,
      "éĽ": 823,
      "æı": 824,
      "ıåı": 825,
      "Ġåį±éĻ©": 826,
      "æīĢ": 827,
      "ĠB": 828,
      "ä¿ĿæĮģ": 829,
      "å¼Ĥ": 830,
      "å¤Ħç½®": 831,
      "æĶ¾": 832,
      "å¢ĥ": 833,
      "19066": 834,
      "çĪĨ": 835,
      "å¼ķèµ·": 836,
      "èĭ¯": 837,
      "RJ": 838,
      "çŁ": 839,
      "--------": 840,
      "èī¯": 841,
      "èµĦ": 842,
      "æľīå®³": 843,
      "ĠM": 844,
      "å¼ı": 845,
      "ĠæĪ": 846,
      "çĶ¨äºİ": 847,
      "æ²¹": 848,
      "Ġâī": 849,
      "åĸ": 850,
      "é»": 851,
      "åĪ°": 852,
      "100": 853,
      "|---------": 854,
      "èµĦæĸĻ": 855,
      "RH": 856,
      "ĠD": 857,
      "åĪĨç±»": 858,
      "æ¸©": 859,
      "åĩº": 860,
      "çĥ¯": 861,
      "ĠT": 862,
      "åĵį": 863,
      "æĸ¹æ³ķ": 864,
      "ä¸ª": 865,
      "æ¯Ķ": 866,
      "ä¼¤": 867,
      "ç±»åŀĭ": 868,
      "åıįåºĶ": 869,
      "èī¯å¥½": 870,
      "ç´": 871,
      "ĠE": 872,
      "Ġ20": 873,
      "Ġä¸į": 874,
      "æīĭ": 875,
      "è®¾": 876,
      "æĺ¯": 877,
      "åĲ«éĩı": 878,
      "è¡£": 879,
      "å¤§éĩı": 880,
      "33": 881,
      "»º": 882,
      "æ¦Ĥ": 883,
      "ĵçĩĥæ¶²ä½ĵ": 884,
      "99": 885,
      "Ġæ¶": 886,
      "çĶ¨éĢĶ": 887,
      "¡æŁĵ": 888,
      "çİ¯å¢ĥ": 889,
      "ç¢³": 890,
      "æ¦Ĥè¿°": 891,
      "26": 892,
      "Ġ+": 893,
      "éģ¿åħį": 894,
      "æĵįä½ľ": 895,
      "æįŁ": 896,
      "åĳĺ": 897,
      "çĿĢ": 898,
      "ĠåĮĸåŃ¦åĵģ": 899,
      "ç¼ĸ": 900,
      "8090": 901,
      "al": 902,
      "ĠI": 903,
      "ä¾ĽåºĶ": 904,
      "Â®": 905,
      "çŃī": 906,
      "è¿ľ": 907,
      "çł": 908,
      "æ±¡æŁĵ": 909,
      "åĿĢ": 910,
      "åĬĽ": 911,
      "å¾Ħ": 912,
      "34": 913,
      "æµģ": 914,
      "æķĳæİªæĸ½": 915,
      "æıĲ": 916,
      "ĠæĹ": 917,
      "è¡Į": 918,
      "è®®": 919,
      "Ġmg": 920,
      "æķ°æį®è¡¨": 921,
      "ç«ĭåį³": 922,
      "ĠA": 923,
      "åĲİ": 924,
      "ä¼ģ": 925,
      "åºĶæĢ¥": 926,
      "»ºè®®": 927,
      "ä½İ": 928,
      "ä¼ģä¸ļ": 929,
      "çļ®èĤ¤æİ¥è§¦": 930,
      "çĤ¸": 931,
      "åĮħ": 932,
      "å°ĺ": 933,
      "æ³Ħæ¼ı": 934,
      "37": 935,
      "88": 936,
      "HS": 937,
      "ar": 938,
      "èĮ": 939,
      "èį": 940,
      "éĵ": 941,
      "çĽ¸": 942,
      "æ®": 943,
      "éļ": 944,
      "è¿Ĳ": 945,
      "è®¾å¤ĩ": 946,
      "ç»Ł": 947,
      "èĮĥ": 948,
      "èĦ±": 949,
      "52": 950,
      "âĤ": 951,
      "ĠR": 952,
      "æĿ¡": 953,
      "äººåĳĺ": 954,
      "æ³¨": 955,
      "74": 956,
      "ä½ıåı": 957,
      "Ġå¯": 958,
      "åį±éĻ©æĢ§": 959,
      "æĶ¶": 960,
      "åĮĸåŃ¦åĵģ": 961,
      "ä½ıåıĭ": 962,
      "¥éĩį": 963,
      "åģ": 964,
      "æ°§åĮĸç¢³": 965,
      "å¿ĥ": 966,
      "æĦı": 967,
      "21": 968,
      "ç³»ç»Ł": 969,
      "éĴŁ": 970,
      "±åĵį": 971,
      "è·": 972,
      "å½ĵ": 973,
      "æŀľ": 974,
      "04": 975,
      "Ġ<": 976,
      "æ¼Ĩ": 977,
      "èĩª": 978,
      "ä¹¦": 979,
      "ĠæĹł": 980,
      "å·¥ä¸ļ": 981,
      "05": 982,
      "çĸ": 983,
      "ĠäºĮ": 984,
      "åıĸ": 985,
      "åĪĨéĴŁ": 986,
      "ä¾ĽåºĶåķĨ": 987,
      "df": 988,
      "pdf": 989,
      "401": 990,
      "æ±Ĥ": 991,
      "Ġæº": 992,
      "601": 993,
      "TDS": 994,
      "æĥ": 995,
      "åħī": 996,
      "æķı": 997,
      "èĥ¶": 998,
      "å½±åĵį": 999,
      "æ··åĲĪçī©": 1000,
      "éĹŃ": 1001,
      "æĿ¡ä»¶": 1002,
      "950": 1003,
      "Â³": 1004,
      "ä»ĸ": 1005,
      "èģĶ": 1006,
      "æľª": 1007,
      "æµ·": 1008,
      "ĠCAS": 1009,
      "é¡": 1010,
      "å®ĺ": 1011,
      "ç§»": 1012,
      "ç²ĺ": 1013,
      "è¯´æĺİä¹¦": 1014,
      "å¥Ĺ": 1015,
      ":|": 1016,
      "or": 1017,
      "Ġå¤": 1018,
      "Ġæµ": 1019,
      "956": 1020,
      "è¿ľç¦»": 1021,
      "è¢": 1022,
      "Ġ/": 1023,
      "|----------": 1024,
      "ĠæĪĲ": 1025,
      "he": 1026,
      "äºĭ": 1027,
      "åħ¶ä»ĸ": 1028,
      "TE": 1029,
      "ç»Ń": 1030,
      "çī¹æĢ§": 1031,
      "Ġåį±éĻ©æĢ§": 1032,
      "Ġ9": 1033,
      "Ġå®": 1034,
      "Ġåº": 1035,
      "è§Ĥ": 1036,
      "ç»ĦæĪĲ": 1037,
      "çĪĨçĤ¸": 1038,
      "TM": 1039,
      "åĪĨåŃĲ": 1040,
      "ç»Ļ": 1041,
      "»åĬł": 1042,
      "Ģĵ": 1043,
      "éĩĳ": 1044,
      "èĢħ": 1045,
      "754": 1046,
      "éķ¿": 1047,
      "Ġæº¶": 1048,
      "ĠæĪĲåĪĨ": 1049,
      "¨èį": 1050,
      "ç¤": 1051,
      "ç»ı": 1052,
      "åĩĨ": 1053,
      "¨èįĲ": 1054,
      "³å®ļ": 1055,
      "çĥŁ": 1056,
      "æ°´åĨ²æ´Ĺ": 1057,
      "æ¬": 1058,
      "ĠæĬ": 1059,
      "Ġæķ": 1060,
      "55754": 1061,
      "è¾ĵ": 1062,
      "è·¯": 1063,
      "09": 1064,
      "56": 1065,
      "åı£": 1066,
      "æľĢ": 1067,
      "å±Ĥ": 1068,
      "Ġp": 1069,
      "ä¸Ļ": 1070,
      "ä¿ĿæĬ¤": 1071,
      "éķľ": 1072,
      "çİ¯æ°§éħļéĨĽä½ĵç³»æł·æľ¬R": 1073,
      "03": 1074,
      "23": 1075,
      "77": 1076,
      "st": 1077,
      "åĻ¨å®ĺ": 1078,
      "é²": 1079,
      "Ġåľ": 1080,
      "æĢ§èĥ½": 1081,
      "Ġ100": 1082,
      "æīĢæľī": 1083,
      "YK": 1084,
      "et": 1085,
      "çĥ§": 1086,
      "çīĪ": 1087,
      "æ¶Īéĺ²": 1088,
      "ĠĠĠĠĠĠĠĠ": 1089,
      "æīĭå¥Ĺ": 1090,
      "ç®": 1091,
      "ĸè§Ĥ": 1092,
      "æµĨ": 1093,
      "æĬĢæľ¯è¯´æĺİä¹¦": 1094,
      "éľĢ": 1095,
      "çĹĩ": 1096,
      "07": 1097,
      "it": 1098,
      "æĭ": 1099,
      "ç¾": 1100,
      "ĠåĽ": 1101,
      "æł¼": 1102,
      "æłĩè¯Ĩ": 1103,
      "åºķ": 1104,
      "æĮĩ": 1105,
      "83": 1106,
      "co": 1107,
      "éĻĦ": 1108,
      "å¯¼": 1109,
      "éĽ¾": 1110,
      "èħ": 1111,
      "Ġåħ": 1112,
      "åĳ³": 1113,
      "æ¸ħæ´Ĺ": 1114,
      "èĬ±": 1115,
      "§åĪ¶": 1116,
      "ĠK": 1117,
      "ĠL": 1118,
      "éĺ²æŃ¢": 1119,
      "ä»»": 1120,
      "åĮ»çĶŁ": 1121,
      "IN": 1122,
      "äº§çĶŁ": 1123,
      "å°ģ": 1124,
      "å°ı": 1125,
      "åŁŁ": 1126,
      "Ġçī©": 1127,
      "ä»½": 1128,
      "åĳ¼åĲ¸éģĵ": 1129,
      "éĹ´": 1130,
      "ç¤º": 1131,
      "Ġæķ°": 1132,
      "ĵåº¦": 1133,
      "é¢Ħ": 1134,
      "¥åº": 1135,
      "éĢı": 1136,
      "åİŁ": 1137,
      "ĠæĢ¥æķĳæİªæĸ½": 1138,
      "çİ°": 1139,
      "Ġæĺĵçĩĥæ¶²ä½ĵ": 1140,
      "02": 1141,
      "ä¸¥éĩį": 1142,
      "åıĹ": 1143,
      "Ġçī¹": 1144,
      "è½¬": 1145,
      "Ġæķ°åĢ¼": 1146,
      "¥åº·": 1147,
      "ic": 1148,
      "å»ºè®®": 1149,
      "å°ĳ": 1150,
      "åĨħ": 1151,
      "ro": 1152,
      "é²ľ": 1153,
      "%ï¼ī": 1154,
      "72": 1155,
      "85": 1156,
      "92": 1157,
      "åĲĲ": 1158,
      "Ġæ³": 1159,
      "Ġæł": 1160,
      "æİ§åĪ¶": 1161,
      "çģ«èĬ±": 1162,
      "ä¸ŃåĽ½": 1163,
      "TZ": 1164,
      "æĸ°é²ľ": 1165,
      "çİ¯æ°§éħļéĨĽä½ĵç³»æł·æľ¬D": 1166,
      "éľ²": 1167,
      "è¯·": 1168,
      "å±ŀ": 1169,
      "Ġâī¤": 1170,
      "æľº": 1171,
      "åºĶçĶ¨": 1172,
      "åĨµ": 1173,
      "çļ®èĤ¤åĪºæ¿Ģ": 1174,
      "å¸Ĥ": 1175,
      "æ¡£": 1176,
      "è¯ķ": 1177,
      "çĩ¥": 1178,
      "çŁ¥": 1179,
      "é»Ħ": 1180,
      "ĠåºĶ": 1181,
      "ĠæĬĢæľ¯": 1182,
      "GHS": 1183,
      "ç¦ģ": 1184,
      "çģ«æºĲ": 1185,
      "ç§į": 1186,
      "¡æ²": 1187,
      "ç²īå°ĺ": 1188,
      "IA": 1189,
      "ħ§": 1190,
      "ä¸ī": 1191,
      "å¸¸": 1192,
      "åľ°åĿĢ": 1193,
      "65": 1194,
      "84": 1195,
      "Ġç²": 1196,
      "éĻ¤": 1197,
      "ä¼ĺ": 1198,
      "çĶ²èĭ¯": 1199,
      "æĸĩæ¡£": 1200,
      "çĻ½": 1201,
      "åĪĨåŃĲéĩı": 1202,
      "¡æ²«": 1203,
      "el": 1204,
      "éĩĬ": 1205,
      "ä¼ł": 1206,
      "çĶŁäº§": 1207,
      "Ġæİ¥": 1208,
      "TF": 1209,
      "åĲŀ": 1210,
      "å¹²çĩ¥": 1211,
      "çĹĩçĬ¶": 1212,
      "ĠçĶ¨": 1213,
      "æĢģ": 1214,
      "èĤ¥": 1215,
      "åħ·æľī": 1216,
      "ç»ĦæĪĲä¿¡æģ¯": 1217,
      "ļ´": 1218,
      "åĿĩ": 1219,
      "éĢĶå¾Ħ": 1220,
      "æĥħ": 1221,
      "Ġæİ¥è§¦": 1222,
      "ç½©": 1223,
      "ç¨ĭ": 1224,
      "æįŁä¼¤": 1225,
      "åĽ´": 1226,
      "åĤ¬": 1227,
      "è¿Ĳè¾ĵ": 1228,
      "kg": 1229,
      "Ġç»": 1230,
      "82": 1231,
      "çļĤ": 1232,
      "000": 1233,
      "åĬ¨": 1234,
      "å¯Ĩåº¦": 1235,
      "§æĢ¥": 1236,
      "èĨ": 1237,
      "æ³¡æ²«": 1238,
      "æ·»åĬł": 1239,
      "éĢĤçĶ¨": 1240,
      "èĭı": 1241,
      "ç¡ħ": 1242,
      "èĤ¥çļĤ": 1243,
      "åıĤ": 1244,
      "æ°°": 1245,
      "åĲĪçī©": 1246,
      "æĪĲåĪĨ": 1247,
      "äºĮæ°§åĮĸç¢³": 1248,
      "27": 1249,
      "Ġ>": 1250,
      "Ń¦": 1251,
      "å¤į": 1252,
      "æķĪ": 1253,
      "å¼Ģ": 1254,
      "ç¨³å®ļ": 1255,
      "æĽ": 1256,
      "åĮĸå·¥": 1257,
      "ļ´éľ²": 1258,
      "èĨľ": 1259,
      "è¶": 1260,
      "èŃ¦": 1261,
      "æĺı": 1262,
      "æ³¡": 1263,
      "æĮģç»Ń": 1264,
      "çº§": 1265,
      "åĽºåĮĸ": 1266,
      "45": 1267,
      "RY": 1268,
      "Ġåı¯": 1269,
      "æķ£": 1270,
      "æ°Ķåĳ³": 1271,
      "çľ¼éķľ": 1272,
      "æ³¨æĦı": 1273,
      "æĥħåĨµ": 1274,
      "»åºķ": 1275,
      "éĶ": 1276,
      "ä½į": 1277,
      "ä¿®": 1278,
      "ç©¿": 1279,
      "å¿ħ": 1280,
      "ç¡®": 1281,
      "éĢļé£İèī¯å¥½": 1282,
      "æĻ": 1283,
      "0000": 1284,
      "Ġ10": 1285,
      "å½»åºķ": 1286,
      "è¡¨éĿ¢": 1287,
      "é£Łåħ¥": 1288,
      "åĸ·": 1289,
      "ĠåĲ¸åħ¥": 1290,
      "Ġå¦Ĥ": 1291,
      "çĶ²éĨĽ": 1292,
      "åģ¥åº·": 1293,
      "64": 1294,
      "ä½ķ": 1295,
      "Ġç«ĭåį³": 1296,
      "ä»£": 1297,
      "éħ¸éħ¯": 1298,
      "æ¶Ĥå±Ĥ": 1299,
      "ä»»ä½ķ": 1300,
      "Ġä¸Ģ": 1301,
      "Ġçľ": 1302,
      "è¿Ľè¡Į": 1303,
      "EN": 1304,
      "Ġåı¯èĥ½": 1305,
      "å½¢æĪĲ": 1306,
      "çłģ": 1307,
      "è¢«": 1308,
      "98": 1309,
      "å£": 1310,
      "å¼º": 1311,
      "çģŃçģ«åīĤ": 1312,
      "æ¸©åº¦": 1313,
      "TER": 1314,
      "Ġçľ¼": 1315,
      "AC": 1316,
      "ï¼īï¼Į": 1317,
      "åįĹ": 1318,
      "éĨļ": 1319,
      "å¾Ĺ": 1320,
      "å®īåħ¨æĬĢæľ¯è¯´æĺİä¹¦": 1321,
      "åıĳçĶŁ": 1322,
      "è§Ħæł¼": 1323,
      "è¿Ľåħ¥": 1324,
      "å¯¼èĩ´": 1325,
      "éĤ": 1326,
      "åĪĩ": 1327,
      "æľĪ": 1328,
      "çļĦè¡£": 1329,
      "åİ»": 1330,
      "çľ¼çĿĽæİ¥è§¦": 1331,
      "Ġg": 1332,
      "Ġæ¯": 1333,
      "æ°´çĶŁ": 1334,
      "èĩ³å°ĳ": 1335,
      "Ġå¤ĸè§Ĥ": 1336,
      "400": 1337,
      "ĠF": 1338,
      "åīį": 1339,
      "çľŁ": 1340,
      "åºĶæĢ¥å¤ĦçĲĨ": 1341,
      "ĠÂ": 1342,
      "å¤´": 1343,
      "ä½ĵéĺ²æĬ¤": 1344,
      "åĴĮèĴ¸æ°Ķ": 1345,
      "éĿĻ": 1346,
      "çĩĥçĥ§": 1347,
      "åĪ¶éĢł": 1348,
      "èģļéħ¯": 1349,
      "é¢ľ": 1350,
      "ä¼ģä¸ļæłĩè¯Ĩ": 1351,
      "æ®Ĭ": 1352,
      "éķ¿æľŁ": 1353,
      "çīĪæľ¬": 1354,
      "Ĺı": 1355,
      "åĩī": 1356,
      "è¦ģæ±Ĥ": 1357,
      "è¿ĩæķı": 1358,
      "ĠNo": 1359,
      "ä¸ªäºº": 1360,
      "GB": 1361,
      "çķ": 1362,
      "èĪ": 1363,
      "ä½©": 1364,
      "Ġå·": 1365,
      "ä¸Ńå¿ĥ": 1366,
      "æĺİçģ«": 1367,
      "åıĬä¼ģä¸ļæłĩè¯Ĩ": 1368,
      "å¯ĨéĹŃ": 1369,
      "ç¦ģæŃ¢": 1370,
      "èº": 1371,
      "åĪĹ": 1372,
      "ç²Ĵ": 1373,
      "åİĭ": 1374,
      "¬¦": 1375,
      "çĥĥ": 1376,
      "åĬ©": 1377,
      "äº§åĵģåĲįç§°": 1378,
      "æĸĩä»¶": 1379,
      "ä¹Ļçĥ¯": 1380,
      "åĮħè£ħ": 1381,
      "éĩĳå±ŀ": 1382,
      "ç¾Ł": 1383,
      "éĢıæĺİ": 1384,
      "éĩĩ": 1385,
      "åĳ¼åĲ¸åĻ¨": 1386,
      "å¹²ç²ī": 1387,
      "éĿĻçĶµ": 1388,
      "èļ": 1389,
      "004": 1390,
      "ĠéĹ": 1391,
      "æµĭ": 1392,
      "ing": 1393,
      "çĻĮ": 1394,
      "|---------|": 1395,
      "é¡»": 1396,
      "èº«": 1397,
      "çħ§": 1398,
      "åĴ½": 1399,
      "è®¢": 1400,
      "éĿŀ": 1401,
      "å¢¨": 1402,
      "èĩ´çĻĮ": 1403,
      "çĥŃæºĲ": 1404,
      "Ġæ¶Īéĺ²": 1405,
      "Ġå¯¹": 1406,
      "æ»": 1407,
      "åħ³": 1408,
      "ä¸įéĢĤ": 1409,
      "ä¼łçľŁ": 1410,
      "èļĢ": 1411,
      "å¡": 1412,
      "Ġ50": 1413,
      "Ġçº": 1414,
      "çĥ·": 1415,
      "å¹´": 1416,
      "ĠPR": 1417,
      "com": 1418,
      "76": 1419,
      ":----": 1420,
      "FL": 1421,
      "çĦ": 1422,
      "ĠåĤ": 1423,
      "è¯¥": 1424,
      "æľīæľº": 1425,
      "ä¹ĭ": 1426,
      "âĤĤ": 1427,
      "Ġåį±éĻ©æĢ§æ¦Ĥè¿°": 1428,
      "âĢĶ": 1429,
      "éĺ´": 1430,
      "è¯į": 1431,
      "èĭ¥": 1432,
      "æ¡Ī": 1433,
      "æıĲä¾Ľ": 1434,
      "ä¿®è®¢": 1435,
      "æĤ": 1436,
      "åįķ": 1437,
      "åĳĬ": 1438,
      "1601": 1439,
      "çī¹æ®Ĭ": 1440,
      "éĺ´åĩī": 1441,
      "54": 1442,
      "yl": 1443,
      "é¡¹": 1444,
      "ï¼īãĢĤ": 1445,
      "éħ®": 1446,
      "çĶ¨å¤§éĩı": 1447,
      "è¯ģ": 1448,
      "Ġéģ": 1449,
      "æłĩåĩĨ": 1450,
      "ĠæĢ¥æĢ§": 1451,
      "èħĲ": 1452,
      "åĲŀåĴ½": 1453,
      "CO": 1454,
      "PR": 1455,
      "ªçĤ¹": 1456,
      "âĢĵ": 1457,
      "Ġ[": 1458,
      "Ġc": 1459,
      "æ°¯": 1460,
      "å¤ļ": 1461,
      "çľģ": 1462,
      "æĿ¥": 1463,
      "æĹ¶éĹ´": 1464,
      "Ġâī¥": 1465,
      "ac": 1466,
      "um": 1467,
      "çĶ±": 1468,
      "åĲ¸çĥŁ": 1469,
      "éħįæ¯Ķ": 1470,
      "éħļéĨĽæłĳèĦĤ": 1471,
      "ent": 1472,
      ":--------": 1473,
      "Ġçļ®èĤ¤": 1474,
      "Ġå°": 1475,
      "å¤ĸ": 1476,
      "æĸ¹æ¡Ī": 1477,
      "æ³ķè§Ħ": 1478,
      "19065": 1479,
      "¬¦åĲĪ": 1480,
      "é¥": 1481,
      "Ġæ°´": 1482,
      "Ġçİ": 1483,
      "æĢ§åĴĮ": 1484,
      "æİ¨èįĲ": 1485,
      "äº§çī©": 1486,
      "Ġé¢": 1487,
      "åĲĪéĢĤ": 1488,
      "çľ¼æįŁä¼¤": 1489,
      "ä¸İåĤ¨åŃĺ": 1490,
      "çİ¯æ°§éħįæ¯Ķ": 1491,
      "äºĭé¡¹": 1492,
      "éĻĦçĿĢ": 1493,
      "é¢Ħéĺ²": 1494,
      "ĠåĤ¨åŃĺ": 1495,
      "æĸ¹æ¡Īä½ĵç³»æł·æľ¬": 1496,
      "çİ¯æ°§éħįæ¯Ķæĸ¹æ¡Īä½ĵç³»æł·æľ¬": 1497,
      "il": 1498,
      "ĠV": 1499,
      "Ġä½¿çĶ¨": 1500,
      "åı«": 1501,
      "æľ«": 1502,
      "ĠæĮ": 1503,
      "ĠçĽ": 1504,
      "åĪĨè§£": 1505,
      "åľº": 1506,
      "çľ¼åĪºæ¿Ģ": 1507,
      "173": 1508,
      "æĪ´éĺ²æĬ¤": 1509,
      "èĮĥåĽ´": 1510,
      "Ġå®īåħ¨": 1511,
      "ç®¡": 1512,
      "æĻķ": 1513,
      "èħĲèļĢ": 1514,
      "73": 1515,
      "åıĮ": 1516,
      "çĶ¨æ°´": 1517,
      "ç»ĵ": 1518,
      "Ġ25": 1519,
      "å·ŀ": 1520,
      "åĳ¼åı«": 1521,
      "èĬ³": 1522,
      "ĠGB": 1523,
      "çĸĹ": 1524,
      "hem": 1525,
      "Ġçľ¼çĿĽ": 1526,
      "Ġéģ¿åħį": 1527,
      "Ĩåº¦": 1528,
      "éĺ²èĮĥ": 1529,
      "å¾®": 1530,
      "1350": 1531,
      "ä¾Ŀ": 1532,
      "å¦Ĥæŀľ": 1533,
      "ç¼ĸåı·": 1534,
      "é¢ľæĸĻ": 1535,
      "MSDS": 1536,
      "ĠæŃ": 1537,
      "æĢ§è´¨": 1538,
      "è§ī": 1539,
      "å°Ĩ": 1540,
      "åĽ°": 1541,
      "å¯Ĩå°ģ": 1542,
      "67": 1543,
      "ed": 1544,
      "ur": 1545,
      "æļ´éľ²": 1546,
      "éŁ": 1547,
      "ä¸ľ": 1548,
      "åºŁ": 1549,
      "çģ¾": 1550,
      "æµĵåº¦": 1551,
      "éħ¸åĢ¼": 1552,
      "å¹³": 1553,
      "é£Łåĵģ": 1554,
      "æ²¹å¢¨": 1555,
      "éļ¾": 1556,
      "Ġåľ¨": 1557,
      "éĤ®": 1558,
      "ion": 1559,
      "æŁ": 1560,
      "ç©ºæ°Ķæĸ°é²ľ": 1561,
      "Ġæº¶åīĤ": 1562,
      "91": 1563,
      "AN": 1564,
      "¶åĻ¨å®ĺ": 1565,
      "¹æį®": 1566,
      "èĥº": 1567,
      "æº¶æ¶²": 1568,
      "æ¸ħæ°´": 1569,
      "ĠåĽº": 1570,
      "æ³¨æĦıäºĭé¡¹": 1571,
      "ç©ºæ°Ķæĸ°é²ľå¤Ħ": 1572,
      "94": 1573,
      "Tg": 1574,
      "VC": 1575,
      "pm": 1576,
      "æ¹": 1577,
      "é¼": 1578,
      "ç½Ĳ": 1579,
      "æĶ¹": 1580,
      "éĢĤçĶ¨äºİ": 1581,
      "Ġ05": 1582,
      "è½»": 1583,
      "ä¿ĿæĮģå®¹åĻ¨": 1584,
      "æ¬¡": 1585,
      "æĽ´": 1586,
      "ä¸ªäººéĺ²æĬ¤": 1587,
      "ĠéĹªçĤ¹": 1588,
      "id": 1589,
      "éĢŁ": 1590,
      "åĽºä½ĵ": 1591,
      "æĦŁ": 1592,
      "éĽĨ": 1593,
      "ĠåĮĸåŃ¦åĵģåıĬä¼ģä¸ļæłĩè¯Ĩ": 1594,
      "Ġç²ĺ": 1595,
      "åĤ¬åĲĲ": 1596,
      "åĮĸå·¥æľīéĻĲåħ¬åı¸": 1597,
      "åĪ¶éĢłåķĨ": 1598,
      "å¡ĳ": 1599,
      "300": 1600,
      "SO": 1601,
      "åĭ": 1602,
      "éª": 1603,
      "Łèĭı": 1604,
      "å±±": 1605,
      "çŃ¾": 1606,
      "å¤Ħç½®ä¸İåĤ¨åŃĺ": 1607,
      "41": 1608,
      "96": 1609,
      "ç¬¬": 1610,
      "æİĴ": 1611,
      "éĿ¶åĻ¨å®ĺ": 1612,
      "å·¥ä½ľ": 1613,
      "çĶ²åŁº": 1614,
      "ĠBYK": 1615,
      "4012": 1616,
      "éĻĦçĿĢåĬĽ": 1617,
      "åĽ°éļ¾": 1618,
      "ĊĠ": 1619,
      "ĠåĬ": 1620,
      "åĳ¼åĲ¸åĽ°éļ¾": 1621,
      "æ°§åĮĸåīĤ": 1622,
      "æĮĩæłĩ": 1623,
      "ä¾Ŀæį®": 1624,
      "ĠU": 1625,
      "å®¤": 1626,
      "ï¼Ī%ï¼ī": 1627,
      "æ°´éģĵ": 1628,
      "çľ©": 1629,
      "è®¤": 1630,
      "åĮºåŁŁ": 1631,
      "ç´§æĢ¥": 1632,
      "ĠåºĶçĶ¨": 1633,
      "ä½©æĪ´": 1634,
      "Ġæ¶Īéĺ²æİªæĸ½": 1635,
      "åĲĪéĢĤçļĦ": 1636,
      "åĭ¿": 1637,
      "éªĮ": 1638,
      "BYK": 1639,
      "YD": 1640,
      "¡èĥ¶": 1641,
      "©¡èĥ¶": 1642,
      "Ġ~": 1643,
      "Ġä¹Ļ": 1644,
      "ĢéĩĬ": 1645,
      "åĪĨæķ£": 1646,
      "å·²": 1647,
      "Ġä¸ī": 1648,
      "ç»ĦåĪĨ": 1649,
      "çĽ¸å®¹": 1650,
      "èģĶç³»": 1651,
      "Ġæİ¥è§¦éĢĶå¾Ħ": 1652,
      "38": 1653,
      "48": 1654,
      "66": 1655,
      "is": 1656,
      "½ľ": 1657,
      "Ġå¼": 1658,
      "Ġæĵįä½ľ": 1659,
      "æĢ§éĿ¶åĻ¨å®ĺ": 1660,
      "æĪ·": 1661,
      "å¼ĥ": 1662,
      "ĠâĹı": 1663,
      "ç§ĳ": 1664,
      "éĢĤå½ĵ": 1665,
      "å¸¦": 1666,
      "åľ°æĸ¹": 1667,
      "Ġåį±å®³": 1668,
      "åĽºåĲ«": 1669,
      "ä¸Ĭæµ·": 1670,
      "å¼ĤæĢ§éĿ¶åĻ¨å®ĺ": 1671,
      "æ±¡æŁĵçļĦè¡£": 1672,
      "èĪ¬": 1673,
      "ä¿®è®¢æĹ¥æľŁ": 1674,
      "58": 1675,
      "815": 1676,
      "ow": 1677,
      "æĲ": 1678,
      "ĠSDS": 1679,
      "ĠéĢłæĪĲ": 1680,
      "ĠåĲ«éĩı": 1681,
      "Ġ175": 1682,
      "æ¶Ī": 1683,
      "åı¯èĥ½ä¼ļ": 1684,
      "æ±½": 1685,
      "Ġå¯Ĩåº¦": 1686,
      "ĠCASåı·": 1687,
      "æĤ£": 1688,
      "47": 1689,
      "ĠW": 1690,
      "Ġs": 1691,
      "ĦåĪĨ": 1692,
      "åıĺ": 1693,
      "Ġå¹": 1694,
      "å°Ħ": 1695,
      "è´®": 1696,
      "çĿ¡": 1697,
      "åı¯èĥ½å¼ķèµ·": 1698,
      "Ġäº§åĵģåĲįç§°": 1699,
      "ç´ł": 1700,
      "æµģåĬ¨": 1701,
      "è½¬ç§»": 1702,
      "åĬ©åīĤ": 1703,
      "æĤ£èĢħ": 1704,
      "460": 1705,
      "MI": 1706,
      "Pa": 1707,
      "ĠÂ°": 1708,
      "äºĶ": 1709,
      "ä»ĭ": 1710,
      "éĨĭ": 1711,
      "çģ«çģ¾": 1712,
      "æĮī": 1713,
      "ĠCo": 1714,
      "Ġæİ¨èįĲ": 1715,
      "Ġçī©è´¨": 1716,
      "ç¨³å®ļæĢ§": 1717,
      "é¢Ħéĺ²æİªæĸ½": 1718,
      ".,": 1719,
      "ES": 1720,
      "PVC": 1721,
      "ec": 1722,
      "¸åŀĭ": 1723,
      "æŁĵ": 1724,
      "æ°¨": 1725,
      "æĺĵçĩĥæ¶²ä½ĵ": 1726,
      "Ġé£": 1727,
      "çĶŁçī©": 1728,
      "éĺ²æĬ¤æľį": 1729,
      "åŃĺæĶ¾": 1730,
      "ĠĠĠĠĠĠĠĠĠĠĠĠĠĠĠĠ": 1731,
      "ç¾ŁåĢ¼": 1732,
      "49": 1733,
      "ist": 1734,
      "Ġä¸ŃåĽ½": 1735,
      "Ġ11": 1736,
      "éĺ²çĪĨ": 1737,
      "æķ´": 1738,
      "ĠâĢĵ": 1739,
      "æĢ¥æĢ§": 1740,
      "çİ¯æ°§æłĳèĦĤ": 1741,
      "å¼Ĥæ°°": 1742,
      "ç«ĭåį³å°±åĮ»": 1743,
      "éĵĿ": 1744,
      "Ġåľ°": 1745,
      "ĠÂ±": 1746,
      "CA": 1747,
      "UR": 1748,
      "é¦": 1749,
      "è¯¢": 1750,
      "Ġä¸Ĭ": 1751,
      "åıįå¤į": 1752,
      "Ġæĺ¯": 1753,
      "å¿ħé¡»": 1754,
      "å£°": 1755,
      "é¥®": 1756,
      "Ġçİ¯": 1757,
      "Ġé£Ł": 1758,
      "EC": 1759,
      "çĽ´": 1760,
      "è´£": 1761,
      "9090": 1762,
      "æ²»": 1763,
      "çī¹åĪ«": 1764,
      "çŁ³": 1765,
      "Ġæ³Ħæ¼ı": 1766,
      "cm": 1767,
      "£Ģ": 1768,
      "Ġr": 1769,
      "Ġæ²": 1770,
      "å®¶": 1771,
      "ä¿Ŀè¯ģ": 1772,
      "æ²¾": 1773,
      "ä¸ªä½ĵéĺ²æĬ¤": 1774,
      "ĠæŃ£": 1775,
      "29": 1776,
      "501": 1777,
      "70": 1778,
      "81": 1779,
      "ĭè¯ķ": 1780,
      "ä½³": 1781,
      "åĲ¸æĶ¶": 1782,
      "Ġéķ": 1783,
      "ä¿¡": 1784,
      "æŃ¤": 1785,
      "4010": 1786,
      "è¾¾": 1787,
      "é»ĳ": 1788,
      "Ġæµĭè¯ķ": 1789,
      "HEN": 1790,
      "¥åıĳ": 1791,
      "Â·": 1792,
      "ç¬¦åĲĪ": 1793,
      "Ġw": 1794,
      "ħè£ħ": 1795,
      "ĨĶ": 1796,
      "Ĳå½¢": 1797,
      "ä¸ĵ": 1798,
      "åħĭ": 1799,
      "Ġæ·": 1800,
      "Ġ13": 1801,
      "Ġé«ĺ": 1802,
      "esin": 1803,
      "éļĲå½¢": 1804,
      "ĠäºĮçĶ²èĭ¯": 1805,
      "Ġç²ĺåº¦": 1806,
      "éļĲå½¢çľ¼éķľ": 1807,
      "¨è¯¢": 1808,
      "æħ": 1809,
      "çĶ¨éĩı": 1810,
      "æĬĹ": 1811,
      "åİĤ": 1812,
      "ĠåĮħè£ħ": 1813,
      "æ¡¶": 1814,
      "ıåı£": 1815,
      "çĥ¯éħ¸": 1816,
      "|----------|": 1817,
      "éĺ²èĮĥè¯´æĺİ": 1818,
      "Ġä¸Ĭæµ·": 1819,
      "53": 1820,
      "çļĦåľ°æĸ¹": 1821,
      "æİī": 1822,
      "åľŁ": 1823,
      "éĻĲåĢ¼": 1824,
      "ä½ľä¸º": 1825,
      "èģļåĲĪçī©": 1826,
      "æŀģ": 1827,
      "çĹĽ": 1828,
      "ĠDIN": 1829,
      "ĠISO": 1830,
      "èĦ±åİ»": 1831,
      "è¿ľç¦»çĥŃæºĲ": 1832,
      "Ġæº¶è§£": 1833,
      "ä»£çłģ": 1834,
      "éŁ§": 1835,
      "å¼Ĥæ°°éħ¸éħ¯": 1836,
      "å£°æĺİ": 1837,
      "æ²¾æŁĵ": 1838,
      "79": 1839,
      "RA": 1840,
      "ut": 1841,
      "ĨåŁŁ": 1842,
      "åį°": 1843,
      "åĴ¨è¯¢": 1844,
      "æķħ": 1845,
      "ç»Ĩ": 1846,
      "åĤ¨": 1847,
      "å®īåħ¨æķ°æį®è¡¨": 1848,
      "ä¸ĭæ°´éģĵ": 1849,
      "åıįåºĶæĢ§": 1850,
      "èĩªç»Ļ": 1851,
      "ell": 1852,
      "4005": 1853,
      "Ġçº¦": 1854,
      "ä»ĭè´¨": 1855,
      "Ġæ³Ħæ¼ıåºĶæĢ¥å¤ĦçĲĨ": 1856,
      "OD": 1857,
      "æĢ»": 1858,
      "ä»ħ": 1859,
      "Ġ200": 1860,
      "å½ķ": 1861,
      "è´¨éĩı": 1862,
      "|------------": 1863,
      "|---|---|---|": 1864,
      "âĦĥï¼ī": 1865,
      "å¼ıåĳ¼åĲ¸åĻ¨": 1866,
      "Ġç»ĦåĪĨ": 1867,
      "è´®åŃĺ": 1868,
      "Ġ%": 1869,
      "åĮĸçī¹æĢ§": 1870,
      "ç²īæľ«": 1871,
      "å®¹åĻ¨ä¸Ń": 1872,
      "éĿ¢åħ·": 1873,
      "æįŁå®³": 1874,
      "Ġæµĵåº¦": 1875,
      "ä¼ĺå¼Ĥ": 1876,
      "èŃ¦ç¤º": 1877,
      "æ°´çĶŁçĶŁçī©": 1878,
      "æ¬¡æİ¥è§¦": 1879,
      "çĿ¡æĪĸ": 1880,
      "Ġåľ°åĿĢ": 1881,
      "57": 1882,
      "IO": 1883,
      "æ©¡èĥ¶": 1884,
      "æĪĳ": 1885,
      "ä¸Ńæĸĩ": 1886,
      "çĤŃ": 1887,
      "æº¶æĢ§": 1888,
      "åĪºæ¿ĢæĢ§": 1889,
      "èĢĮ": 1890,
      "ç¨ĢéĩĬ": 1891,
      "ĠæłĳèĦĤ": 1892,
      "71": 1893,
      "th": 1894,
      "»è¦ģ": 1895,
      "èİ": 1896,
      "äº¤": 1897,
      "ĠåŃ": 1898,
      "åı¯çĩĥ": 1899,
      "Ġ30": 1900,
      "å¾·": 1901,
      "èĭ±": 1902,
      "é¢ĨåŁŁ": 1903,
      "olv": 1904,
      "æĶ¶éĽĨ": 1905,
      "äºĭæķħ": 1906,
      "Ġçī¹å¼ĤæĢ§éĿ¶åĻ¨å®ĺ": 1907,
      "é»Ħèī²": 1908,
      "å½»åºķåĨ²æ´Ĺ": 1909,
      "Ġå·¥": 1910,
      "è¯¥äº§åĵģ": 1911,
      "Ġé¢ľ": 1912,
      "åħħ": 1913,
      "éĺ³": 1914,
      "æł¹æį®": 1915,
      "æľīæ¯Ĵ": 1916,
      "çī©çĲĨ": 1917,
      "ç»ıåı£": 1918,
      "ä¸ŃçļĦ": 1919,
      "åĨ·": 1920,
      "çļ®èĤ¤è¿ĩæķı": 1921,
      "æį¢": 1922,
      "170": 1923,
      "éĻĲåĪ¶": 1924,
      "ĠIn": 1925,
      "åį±éĻ©æĢ§ç±»åĪ«": 1926,
      "æµĨæĸĻ": 1927,
      "ĠæĬĢæľ¯æķ°æį®è¡¨": 1928,
      "åıĤæķ°": 1929,
      "ĠåŃĺ": 1930,
      "63": 1931,
      "89": 1932,
      "877": 1933,
      "ç«": 1934,
      "ï½ľ": 1935,
      "Ġèī²": 1936,
      "īĢ": 1937,
      "ãĢĬ": 1938,
      "ãĢĭ": 1939,
      "è¯Ĭ": 1940,
      "Ġ15": 1941,
      "æĺĵçĩĥ": 1942,
      "æ³½": 1943,
      "1514": 1944,
      "æ°Ķä½ĵ": 1945,
      "åı·è¯į": 1946,
      "åį±éĻ©æĢ§è¯´æĺİ": 1947,
      "æ±ĤåĮ»": 1948,
      "ç²ĺåº¦": 1949,
      "ä¿¡åı·è¯į": 1950,
      "çĤŃé»ĳ": 1951,
      "%)": 1952,
      "87": 1953,
      "EL": 1954,
      "Ġçļ®èĤ¤æİ¥è§¦": 1955,
      "æľºæ": 1956,
      "ï¼īãĢģ": 1957,
      "ĠçĲĨ": 1958,
      "ç§¯": 1959,
      "æ¸Ĺ": 1960,
      "äºĮéĨĩ": 1961,
      "ä¸Ģéĥ¨åĪĨ": 1962,
      "Ġåįģ": 1963,
      "éĩįéĩı": 1964,
      "è½¦": 1965,
      "6012": 1966,
      "çĪĨçĤ¸æĢ§": 1967,
      "åĳ¼åĲ¸éģĵåĪºæ¿Ģ": 1968,
      "çĻ½æµĨ": 1969,
      "è¶³": 1970,
      "Ġçľ¼çĿĽæİ¥è§¦": 1971,
      "é¼ł": 1972,
      "ä¿ĿæĮģå®¹åĻ¨å¯ĨéĹŃ": 1973,
      "éŁ§æĢ§": 1974,
      "44": 1975,
      "ĠçĶµè¯Ŀ": 1976,
      "Ġå»ºè®®": 1977,
      "åºĵ": 1978,
      "èĤ¡": 1979,
      "æĢ¥æķĳæİªæĸ½": 1980,
      "6010": 1981,
      "ation": 1982,
      "ĠGHS": 1983,
      "èĦ±æİī": 1984,
      "ĠåĽĽ": 1985,
      "æĸ°é²ľç©ºæ°Ķ": 1986,
      "ç²Ĵå¾Ħ": 1987,
      "éĩĩåıĸ": 1988,
      "ĠæĮĩ": 1989,
      "åıįå¤įæİ¥è§¦": 1990,
      "51": 1991,
      "59": 1992,
      "ww": 1993,
      "Ġä¸İ": 1994,
      "ĠèĴ¸æ°Ķ": 1995,
      "Ġæ±": 1996,
      "å®ĥ": 1997,
      "Ġç´": 1998,
      "åľºæ": 1999,
      "æ°§åŁº": 2000,
      "å·±": 2001,
      "åĳ¼åĲ¸ç³»ç»Ł": 2002,
      "ä¸ģåŁº": 2003,
      "äºĮéĥ¨åĪĨ": 2004,
      "å¢ŀ": 2005,
      "çĤ¹çģ«æºĲ": 2006,
      "èĬĤ": 2007,
      "åĮħæĭ": 2008,
      ":|:--------": 2009,
      "eth": 2010,
      "å°ıæĹ¶": 2011,
      "æĿ¥æºĲ": 2012,
      "ĠçĽ¸": 2013,
      "çľ©æĻķ": 2014,
      "çĤŃé»ĳæµĨæĸĻ": 2015,
      "åĮħæĭ¬": 2016,
      "42": 2017,
      "MA": 2018,
      "WA": 2019,
      "ľħ": 2020,
      "å®ŀ": 2021,
      "151": 2022,
      "Ġ21": 2023,
      "Ġâľħ": 2024,
      "æłĩçŃ¾": 2025,
      "è£ħå¤ĩ": 2026,
      "5510": 2027,
      "åĩºçİ°": 2028,
      "èī¯å¥½çļĦ": 2029,
      "æĿ¡ä»¶ä¸ĭ": 2030,
      "è¢ĭ": 2031,
      "Ġppm": 2032,
      "ä»½æľīéĻĲåħ¬åı¸": 2033,
      "ä¸¥éĩįçľ¼æįŁä¼¤": 2034,
      "Ġæłĩ": 2035,
      "åĪĩåĭ¿": 2036,
      "æŁĶ": 2037,
      "Łèĭıçľģ": 2038,
      "èĤ¡ä»½æľīéĻĲåħ¬åı¸": 2039,
      "78": 2040,
      "¢°": 2041,
      "ä¸Ķ": 2042,
      "æľ¨": 2043,
      "Ġç¨": 2044,
      "å¤±": 2045,
      "éĻį": 2046,
      "ĠéĿ": 2047,
      "çĽĲ": 2048,
      "ä¸įå¾Ĺ": 2049,
      "çľ¼çĿ": 2050,
      "è®¡": 2051,
      "åı¯èĥ½éĢłæĪĲ": 2052,
      "çĶµåŃĲ": 2053,
      "éģĩ": 2054,
      "ä¸ĢèĪ¬": 2055,
      "Ġç¬¬äºĮéĥ¨åĪĨ": 2056,
      "åŁºäºİ": 2057,
      "éĿ¢ç½©": 2058,
      "åºĶæĢ¥çĶµè¯Ŀ": 2059,
      "éĩĬæĶ¾": 2060,
      "Ġå°Ĩ": 2061,
      "ĠçĲĨåĮĸçī¹æĢ§": 2062,
      "ĠæĮĩæłĩ": 2063,
      "çľ¼çĿĳ": 2064,
      "¸çĤ¹": 2065,
      "İåĽ½": 2066,
      "Ġéĵ": 2067,
      "æĹı": 2068,
      "ä¸įè¦ģ": 2069,
      "Ġç¬¬ä¸Ģéĥ¨åĪĨ": 2070,
      "Ġåįķ": 2071,
      "Ġåħ¸åŀĭ": 2072,
      "Ġçī©çĲĨ": 2073,
      "å½¢æĪĲçĪĨçĤ¸æĢ§": 2074,
      "çķħ": 2075,
      "Ġæĵįä½ľå¤Ħç½®ä¸İåĤ¨åŃĺ": 2076,
      "èĩªç»Ļå¼ıåĳ¼åĲ¸åĻ¨": 2077,
      "èİ·": 2078,
      "87728": 2079,
      "140": 2080,
      "31": 2081,
      "313": 2082,
      "800": 2083,
      "97": 2084,
      "¬åº¦": 2085,
      "»æĢ§": 2086,
      "Ġt": 2087,
      "Įä¸ļ": 2088,
      "ĠæĿ": 2089,
      "Ġ12": 2090,
      "ä»İ": 2091,
      "çĽĸ": 2092,
      "æİ¥è§¦éĻĲåĢ¼": 2093,
      "èģĮä¸ļ": 2094,
      "æĹ¥æľ¬": 2095,
      "5165": 2096,
      "ĠETER": 2097,
      "|----------|------|": 2098,
      "é¦Ļ": 2099,
      "åľºæīĢ": 2100,
      "OH": 2101,
      "¡æľī": 2102,
      "Ġ60": 2103,
      "Ġè¿Ĳè¾ĵ": 2104,
      "ķåĲĲ": 2105,
      "Ġçģ": 2106,
      "å¤©": 2107,
      "æ°´æĪĸ": 2108,
      "æº¢": 2109,
      "æĮ¥åıĳ": 2110,
      "ä¸İç©ºæ°Ķ": 2111,
      "ä¸Ģç§į": 2112,
      "æ¸ħæ°´åĨ²æ´Ĺ": 2113,
      "å¤§é¼ł": 2114,
      "çģŃçģ«ä»ĭè´¨": 2115,
      "Ġ70": 2116,
      "æĬĢæľ¯æķ°æį®è¡¨": 2117,
      "çĬ¶æĢģ": 2118,
      "ĠæĪ´": 2119,
      "ard": 2120,
      "åıĸåĩº": 2121,
      "åħīæ³½": 2122,
      "æ¶Īéĺ²äººåĳĺ": 2123,
      "åİŁæĸĩ": 2124,
      "Ġæĺĵçĩĥæ¶²ä½ĵåĴĮèĴ¸æ°Ķ": 2125,
      "6483": 2126,
      "åºŁå¼ĥ": 2127,
      "æ²»çĸĹ": 2128,
      "68": 2129,
      "93": 2130,
      "¢æĢ§": 2131,
      "ĠäºĶ": 2132,
      "çĶ¨èĤ¥çļĤ": 2133,
      "ä»¬": 2134,
      "åĳķåĲĲ": 2135,
      "åŁºæ": 2136,
      "èĴ¸æ±½": 2137,
      "ç¼©": 2138,
      "226": 2139,
      "ĠæĹłèī²": 2140,
      "4011": 2141,
      "ä¸Ļçĥ¯éħ¸": 2142,
      "è½¬æį¢": 2143,
      "è¶ħ": 2144,
      "æ³¡åīĤ": 2145,
      "ĠæĢ¥æĢ§æ¯ĴæĢ§": 2146,
      "åıĮéħļ": 2147,
      "éĨĭéħ¸": 2148,
      "æķ´çĲĨ": 2149,
      "CS": 2150,
      "ad": 2151,
      "ex": 2152,
      "æģ": 2153,
      "æĳ": 2154,
      "æģ¯": 2155,
      "Ġd": 2156,
      "Ġ40": 2157,
      "Ġæľª": 2158,
      "Ġæ°Ķåĳ³": 2159,
      "ıè¿°": 2160,
      "æ°¢": 2161,
      "Ġæī": 2162,
      "ï¼īï¼Ľ": 2163,
      "ĠçĻ": 2164,
      "Ġ16483": 2165,
      "æĺĵ": 2166,
      "æ°´åĴĮ": 2167,
      "å¹¿": 2168,
      "å·¥åĳ¼åĲ¸": 2169,
      "å·¥åħ·": 2170,
      "åĳ¼åĲ¸éĺ²æĬ¤": 2171,
      "ä¸Ģæ¬¡æİ¥è§¦": 2172,
      "äººå·¥åĳ¼åĲ¸": 2173,
      "302": 2174,
      "ate": 2175,
      "çĩĥçĥ§äº§çī©": 2176,
      "ODUR": 2177,
      "çĿ¡æĪĸçľ©æĻķ": 2178,
      "Ġç´§æĢ¥": 2179,
      "46": 2180,
      "62": 2181,
      "OL": 2182,
      "SH": 2183,
      "as": 2184,
      "±åı£": 2185,
      "¾åĪĨ": 2186,
      "Ġèģļ": 2187,
      "ķåħĭ": 2188,
      "åĪĻ": 2189,
      "å®Į": 2190,
      "æĬ¥": 2191,
      "è¦ģç´ł": 2192,
      "çº¢": 2193,
      "èĩ´æķı": 2194,
      "çĹħ": 2195,
      "Ġ83": 2196,
      "éĴĽ": 2197,
      "åĪ°ç©ºæ°Ķæĸ°é²ľå¤Ħ": 2198,
      "è¡£çī©": 2199,
      "ç¼ĸåĪ¶": 2200,
      "éĵģ": 2201,
      "çĽ¸åħ³": 2202,
      "æĭħ": 2203,
      "ç¦ģæŃ¢åĲ¸çĥŁ": 2204,
      "éĩĩçĶ¨": 2205,
      "æ¹¿": 2206,
      "æ°¨éħ¯": 2207,
      "ĠåŃĺæĶ¾": 2208,
      "æľºæ¢°": 2209,
      "ĠéĿŀ": 2210,
      "AL": 2211,
      "am": 2212,
      "ax": 2213,
      "du": 2214,
      "æ£Ģ": 2215,
      "ĠåĪĨç±»": 2216,
      "Ġä¾ĽåºĶåķĨ": 2217,
      "**ï¼Į": 2218,
      "**ãĢĤ": 2219,
      "åĪ©": 2220,
      "åĲĮ": 2221,
      "Ġç¦ģ": 2222,
      "å¤ĸè§Ĥ": 2223,
      "åĮĸåīĤ": 2224,
      "åĬ¿": 2225,
      "æľ¬äº§åĵģ": 2226,
      "est": 2227,
      "å½¢å¼ı": 2228,
      "åĸĦ": 2229,
      "ĠEN": 2230,
      "6013": 2231,
      "Ġæİ¥è§¦æİ§åĪ¶": 2232,
      "æĥħåĨµæ¦Ĥè¿°": 2233,
      "åģ¥åº·åį±å®³": 2234,
      "è§īä¸įéĢĤ": 2235,
      "åıĮéħļA": 2236,
      "306": 2237,
      "43": 2238,
      "KYD": 2239,
      "RX": 2240,
      "os": 2241,
      "±³": 2242,
      "ç¥": 2243,
      "è±": 2244,
      "Ġ75": 2245,
      "ĠåĪ¶éĢłåķĨ": 2246,
      "äºĨ": 2247,
      "Ġæ¸": 2248,
      "Ġç½": 2249,
      "Ġçĥ": 2250,
      "äº§åĵģç±»åŀĭ": 2251,
      "1613": 2252,
      "åĨį": 2253,
      "æ·ĭ": 2254,
      "æº¶äºİ": 2255,
      "ĠCO": 2256,
      "å°±è¯Ĭ": 2257,
      "ç£¨": 2258,
      "and": 2259,
      "ä»¥åıĬ": 2260,
      "ä»¥ä¸ĭ": 2261,
      "æııè¿°": 2262,
      "9507": 2263,
      "éľĢè¦ģ": 2264,
      "ĠåºĶæĢ¥": 2265,
      "æĦŁè§īä¸įéĢĤ": 2266,
      "Ġé¢ľèī²": 2267,
      "èģĮä¸ļæİ¥è§¦éĻĲåĢ¼": 2268,
      "LI": 2269,
      "PHEN": 2270,
      "åĶ": 2271,
      "æĴ": 2272,
      "Ġ=": 2273,
      "ĠX": 2274,
      "è§ģ": 2275,
      "æĺ¾": 2276,
      "äºİéĺ´åĩī": 2277,
      "åĩĢ": 2278,
      "åı¯èĥ½å¯¼èĩ´": 2279,
      "å¦Ĥæľī": 2280,
      "å¸ĥ": 2281,
      "3626": 2282,
      "ç¢±": 2283,
      "10019": 2284,
      "|---------|------|": 2285,
      "èŃ¦åĳĬ": 2286,
      "åĽºåĮĸåīĤ": 2287,
      "åĸ·éĽ¾": 2288,
      "çĦ°": 2289,
      "èĬ³é¦Ļ": 2290,
      "ĠåĬł": 2291,
      "æµģåĬ¨æ¸ħæ°´": 2292,
      "ĠæŃ£ä¸ģéĨĩ": 2293,
      "å½¢æĪĲçĪĨçĤ¸æĢ§æ··åĲĪçī©": 2294,
      "ç¥ŀ": 2295,
      "69": 2296,
      "le": 2297,
      "ĠO": 2298,
      "Ġmin": 2299,
      "Ġ86": 2300,
      "ĠAS": 2301,
      "ĠèĢĲ": 2302,
      "åıª": 2303,
      "åħĪ": 2304,
      "åį´": 2305,
      "çī©åĵģ": 2306,
      "çī©æĸĻ": 2307,
      "åĬ¡": 2308,
      "åĽŀ": 2309,
      "æĸ¹å¼ı": 2310,
      "æ°Ķç¡ħ": 2311,
      "çĶŁæ®": 2312,
      "Ġæİªæĸ½": 2313,
      "åĵįåºĶ": 2314,
      "ĠåĮĸåŃ¦åĵģåĲįç§°": 2315,
      "çĸĳ": 2316,
      "ĠåħŃ": 2317,
      "çİ°åľº": 2318,
      "æİ¨èįĲçĶ¨éĢĶ": 2319,
      "æĺĵçĩĥæ¶²ä½ĵåĴĮèĴ¸æ°Ķ": 2320,
      "æĪĳä»¬": 2321,
      "åĨ·åį´": 2322,
      "çļ®èĤ¤è¿ĩæķıåıįåºĶ": 2323,
      "çĶŁæ®ĸ": 2324,
      "315": 2325,
      "CN": 2326,
      "mg": 2327,
      "ri": 2328,
      "¢æĪ·": 2329,
      "è°": 2330,
      "èĸ": 2331,
      "Ġh": 2332,
      "Ġin": 2333,
      "Ġç§": 2334,
      "Ġç¾": 2335,
      "æĬĢ": 2336,
      "åı¯çĶ¨": 2337,
      "åĽł": 2338,
      "ä¸įä¼ļ": 2339,
      "æİ¥åľ°": 2340,
      "ä¸Ńæ¯Ĵ": 2341,
      "ä½ľä¸ļ": 2342,
      "ä¾ĭ": 2343,
      "åľ¨éĢļé£İèī¯å¥½": 2344,
      "çĶ²æ°§åŁº": 2345,
      "æº¶åīĤåŀĭ": 2346,
      "ä»¥ä¸Ĭ": 2347,
      "ene": 2348,
      "ity": 2349,
      "æ·»åĬłåīĤ": 2350,
      "00412": 2351,
      "ç§ĳæĬĢ": 2352,
      "ä¼ĺå¼ĤçļĦ": 2353,
      "æ¸ĹéĢı": 2354,
      "èĸĦ": 2355,
      "075": 2356,
      "113": 2357,
      "210": 2358,
      "MP": 2359,
      "TIO": 2360,
      "é¡¹çĽ®": 2361,
      "åĲĦ": 2362,
      "åħ±": 2363,
      "ç»Ī": 2364,
      "æĢ¥æķĳ": 2365,
      "ä¹Ł": 2366,
      "ä¿Ŀè´¨": 2367,
      "æº¶è§£": 2368,
      "ä¸ģéħ¯": 2369,
      "èģļçī©": 2370,
      "éķĩ": 2371,
      "Ġä¸¥éĩį": 2372,
      "ang": 2373,
      "ç¡¬åº¦": 2374,
      "çłĤ": 2375,
      "ark": 2376,
      "ç»ŃåĨ²æ´Ĺ": 2377,
      "å¿ħè¦ģ": 2378,
      "æ»ĳ": 2379,
      "âĢĶâĢĶ": 2380,
      "éĤ®ç¼ĸ": 2381,
      "Ġ17519": 2382,
      "æŁĶéŁ§æĢ§": 2383,
      "Ġåįķä½į": 2384,
      "ä¿Ŀè´¨æľŁ": 2385,
      "280": 2386,
      "LD": 2387,
      "ĠéħļéĨĽæłĳèĦĤ": 2388,
      "Ĺç²Ĵ": 2389,
      "ľæŃ¢": 2390,
      "åĪ·": 2391,
      "ä½Ĩ": 2392,
      "å®ī": 2393,
      "åįİ": 2394,
      "èĤª": 2395,
      "çİĩ": 2396,
      "è®¸": 2397,
      "çļ®èĤ¤åĴĮ": 2398,
      "åĬłåħ¥": 2399,
      "èĦĤèĤª": 2400,
      "æ±Ł": 2401,
      "èģļæ°°": 2402,
      "æ°§åĮĸçī©": 2403,
      "æŀĦ": 2404,
      "åħ·ä½ĵ": 2405,
      "çİ¯æ°§éħļéĨĽä½ĵç³»æł·æľ¬C": 2406,
      "è¿ĩç¨ĭ": 2407,
      "304": 2408,
      "çĥŃè¡¨éĿ¢": 2409,
      "5166": 2410,
      "ong": 2411,
      "Ġæ¶Ĥ": 2412,
      "ĠåĮĸåŃ¦åĵģå®īåħ¨æĬĢæľ¯è¯´æĺİä¹¦": 2413,
      "åģľæŃ¢": 2414,
      "ç§»èĩ³": 2415,
      "æ¬²": 2416,
      "èģļéħ¯æłĳèĦĤ": 2417,
      "éĢıæĺİæ¶²ä½ĵ": 2418,
      "çĦ¶": 2419,
      "èĬ³çĥĥ": 2420,
      "Ġæº¶è§£æĢ§": 2421,
      "èĭ±æĸĩ": 2422,
      "éĻįä½İ": 2423,
      "ĠASTM": 2424,
      "336": 2425,
      "61": 2426,
      "TO": 2427,
      "mm": 2428,
      "td": 2429,
      "ç±³": 2430,
      "Ġo": 2431,
      "Ġä¼ģä¸ļ": 2432,
      "Ġä¼łçľŁ": 2433,
      "ĠåĲŀåĴ½": 2434,
      "Ġåĳ": 2435,
      "0090": 2436,
      "æ¶¦": 2437,
      "|------|--------": 2438,
      "æ°§çĥ·": 2439,
      "ä¼ĳ": 2440,
      "åºĶéģ¿åħį": 2441,
      "æµİ": 2442,
      "çľ¼ç½©": 2443,
      "çĲĨåŃ¦": 2444,
      "è£ħç½®": 2445,
      "æºĲæĸĩä»¶": 2446,
      "9506": 2447,
      "çľ¼çĿĽåĪºæ¿Ģ": 2448,
      "çº¸": 2449,
      "çŃīçº§": 2450,
      "æ³Ħæ¼ıçī©": 2451,
      "æ³Ħæ¼ıåºĶæĢ¥å¤ĦçĲĨ": 2452,
      "çĥŁéĽ¾": 2453,
      "æ¶Īéĺ²æİªæĸ½": 2454,
      "ĠLtd": 2455,
      "äº§çĶŁçģ«èĬ±": 2456,
      "ç¡ħæ°§çĥ·": 2457,
      "éĶĢ": 2458,
      "å½»åºķæ¸ħæ´Ĺ": 2459,
      "éķ¿æľŁæĮģç»Ń": 2460,
      "æ»¤": 2461,
      "ĠåĽºä½ĵ": 2462,
      "éĢĤå½ĵçļĦ": 2463,
      "Ġé£Łåħ¥": 2464,
      "¾åĪĨæ¯Ķ": 2465,
      "DI": 2466,
      "ch": 2467,
      "ner": 2468,
      "¼åĲ¸": 2469,
      "Ġb": 2470,
      "Ġ80": 2471,
      "Ġå¸": 2472,
      "Ġç¼": 2473,
      "éĺħ": 2474,
      "æ°´æĢ§": 2475,
      "150": 2476,
      "ä¸įåĲ«": 2477,
      "160": 2478,
      "¿åħ´": 2479,
      "åĽ½å®¶": 2480,
      "è¾ĥ": 2481,
      "Ġ71": 2482,
      "ç±»åŀĭåħ¶ä»ĸ": 2483,
      "ĠResin": 2484,
      "èĥ¶ç²ĺ": 2485,
      "ä¸īèģļæ°°": 2486,
      "00000000": 2487,
      "Ġæ¯Ķ": 2488,
      "åĪĹåħ¥": 2489,
      "æ°¯ä¹Ļçĥ¯": 2490,
      "åĲĪéĢĤçļĦçģŃçģ«åīĤ": 2491,
      "own": 2492,
      "äºĭæķħåĵįåºĶ": 2493,
      "æĸ°é²ľç©ºæ°Ķå¤Ħ": 2494,
      "ç¥ŀç»ı": 2495,
      "Ġåĳ¼åĲ¸": 2496,
      "éķ¿æľŁæĮģç»Ńå½±åĵį": 2497,
      "èĥ¶ç²ĺåīĤ": 2498,
      "if": 2499,
      "ml": 2500,
      "«ĺçĥ": 2501,
      "ĠçļĦ": 2502,
      "Ġéĺ²æĬ¤": 2503,
      "ĠçĶ²éĨĽ": 2504,
      "ħéĢŁ": 2505,
      "**ï¼Ī": 2506,
      "ä¸»è¦ģ": 2507,
      "åĲĳ": 2508,
      "ï¼ī**": 2509,
      "ï¼īï¼ļ": 2510,
      "Ġ150": 2511,
      "è¿ħéĢŁ": 2512,
      "ç»§": 2513,
      "äº§åĵģçļĦ": 2514,
      "çĽ®éķľ": 2515,
      "ä½¿çĶ¨åīį": 2516,
      "åĲįå½ķ": 2517,
      "one": 2518,
      "ä¿ĿæĮģåĳ¼åĲ¸éģĵ": 2519,
      "çİ¯å¢ĥåį±å®³": 2520,
      "ç«ĭåį³åĳ¼åı«": 2521,
      "6011": 2522,
      "ç»ıçļ®": 2523,
      "rop": 2524,
      "Ġæ³¨": 2525,
      "æĺıæĺı": 2526,
      "æĥħåĨµä¸ĭ": 2527,
      "ç¡®ä¿Ŀ": 2528,
      "Ġåı¯èĥ½éĢłæĪĲ": 2529,
      "Ġæ¯ķåħĭ": 2530,
      "umist": 2531,
      "æĶ¹æĢ§": 2532,
      "å¡ĳæĸĻ": 2533,
      "éĺ³åħī": 2534,
      "æº¢åĩº": 2535,
      "åĶ®": 2536,
      "TION": 2537,
      "Ġç¼ĸ": 2538,
      "æĺıæĺıæ¬²": 2539,
      "CH": 2540,
      "ID": 2541,
      "PA": 2542,
      "hen": 2543,
      "mo": 2544,
      "æļ": 2545,
      "èı": 2546,
      "é«ĺçĥ": 2547,
      "Ġåħ¶ä»ĸ": 2548,
      "ĠçĪ": 2549,
      "ĠçŃ": 2550,
      "ĠçĨĶ": 2551,
      "è¯¯": 2552,
      "Ġ108": 2553,
      "æ°´éĽ¾": 2554,
      "åĽĽ": 2555,
      "è´§": 2556,
      "åĨħå®¹": 2557,
      "åĮĸåŃ¦å¹²ç²ī": 2558,
      "éĢļè¿ĩ": 2559,
      "èģļæ°¨éħ¯": 2560,
      "Ġ501": 2561,
      "403": 2562,
      "è§Ħå®ļ": 2563,
      "çº¦": 2564,
      "è¾¨": 2565,
      "ä¹Ļéħ¸": 2566,
      "|---|---|---|---|": 2567,
      "ĠMSDS": 2568,
      "Ġæ¶Ī": 2569,
      "9566": 2570,
      "ä¸ĻéĨĩ": 2571,
      "éĺ²æŃ¢éĿĻçĶµ": 2572,
      "Ġç²ī": 2573,
      "æĸĩæ¡£æĿ¥æºĲ": 2574,
      "çĶ²éĨĽæłĳèĦĤ": 2575,
      "Ġå·²": 2576,
      "ä¸Ńå¿ĥæĪĸ": 2577,
      "Ġçļ®èĤ¤èħĲèļĢ": 2578,
      "é£Łåĵģæİ¥è§¦": 2579,
      "ç´§æĢ¥æĥħåĨµæ¦Ĥè¿°": 2580,
      "æ±¡æŁĵçļĦè¡£æľį": 2581,
      "èŃ¦ç¤ºè¯į": 2582,
      "åħħåĪĨ": 2583,
      "Ġç¨³å®ļ": 2584,
      "ardner": 2585,
      "ä¼ĳæģ¯": 2586,
      "äº§çĶŁçģ«èĬ±çļĦ": 2587,
      "é«ĺçĥŃ": 2588,
      "EK": 2589,
      "mp": 2590,
      "¦Ĩ": 2591,
      "»¶": 2592,
      "å§": 2593,
      "å»¶": 2594,
      "éŀĭ": 2595,
      "Ġè§Ħæł¼": 2596,
      "åħĥ": 2597,
      "å®¢æĪ·": 2598,
      "Ġç©": 2599,
      "éĢģ": 2600,
      "åĽŃ": 2601,
      "çģ«çĦ°": 2602,
      "æµ®": 2603,
      "æµ´": 2604,
      "åĩł": 2605,
      "361": 2606,
      "é¢Ĺç²Ĵ": 2607,
      "351": 2608,
      "ĠmPa": 2609,
      "51620": 2610,
      "âĦ¢": 2611,
      "Ġ64": 2612,
      "è§£æ¯Ĵ": 2613,
      "ä¼¤å®³": 2614,
      "Ġæ¶²": 2615,
      "ç³»ç»Łæ¯ĴæĢ§": 2616,
      "ical": 2617,
      "çŁ¥è¯Ĩ": 2618,
      "åĤ¬åĮĸåīĤ": 2619,
      "æķĪåºĶ": 2620,
      ":----:|": 2621,
      "è½¬ç§»åĪ°ç©ºæ°Ķæĸ°é²ľå¤Ħ": 2622,
      "ESIN": 2623,
      "è´£ä»»": 2624,
      "Ġæµĭè¯ķæĸ¹æ³ķ": 2625,
      "æħ¢æĢ§": 2626,
      "åĴ¨è¯¢çĶµè¯Ŀ": 2627,
      "çĶµåŃĲéĤ®": 2628,
      "Ġæīĭ": 2629,
      "åıªèĥ½": 2630,
      "Ġæ¶ĤæĸĻ": 2631,
      "ç¥ŀç»ıç³»ç»Ł": 2632,
      "ç»§ç»ŃåĨ²æ´Ĺ": 2633,
      "39": 2634,
      "CAS": 2635,
      "DA": 2636,
      "ox": 2637,
      "©¬": 2638,
      "æħ§": 2639,
      "Ġè¿ľç¦»": 2640,
      "Ġac": 2641,
      "Ġæļ´éľ²": 2642,
      "çĶ¨æµģåĬ¨æ¸ħæ°´": 2643,
      "éĺ²éĿĻçĶµ": 2644,
      "å°½": 2645,
      "åĽ¾": 2646,
      "çģ«åľº": 2647,
      "1605": 2648,
      "åŃĺåľ¨": 2649,
      "åŃĺåĤ¨": 2650,
      "äºĮçĶ²èĭ¯": 2651,
      "æŃ£åİĭ": 2652,
      "405": 2653,
      "Ġä¸Ļ": 2654,
      "5167": 2655,
      "æıĲé«ĺ": 2656,
      "889090": 2657,
      "å½ĵåľ°": 2658,
      "çļĦè¡£æľį": 2659,
      "æµĭè¯ķ": 2660,
      "èĩ´çĻĮæĢ§": 2661,
      "åĪĨè§£äº§çī©": 2662,
      "ĠåºĶçĶ¨é¢ĨåŁŁ": 2663,
      "æĢ¥æĢ§æ¯ĴæĢ§": 2664,
      "ä¸īèģļæ°°èĥº": 2665,
      "æħ§æĸ°": 2666,
      "240": 2667,
      "Co": 2668,
      "for": 2669,
      "re": 2670,
      "Ġä¸Ń": 2671,
      "Łº": 2672,
      "ä¸¥": 2673,
      "æĸ¯": 2674,
      "Ġåİ": 2675,
      "ĠåŁº": 2676,
      "æĬ¤çĽ®éķľ": 2677,
      "èĥ½åĬĽ": 2678,
      "æľ¬åĵģ": 2679,
      "éĺ²æĬ¤æīĭå¥Ĺ": 2680,
      "åĬłå·¥": 2681,
      "éĥ¨éĺ²æĬ¤": 2682,
      "åĢĻ": 2683,
      "æ²¡æľī": 2684,
      "ä¸Ģæ°§åĮĸç¢³": 2685,
      "åİ¿": 2686,
      "æ¸ħçĲĨ": 2687,
      "251": 2688,
      "çģŃçģ«åĻ¨": 2689,
      "å¹¶åħ·æľī": 2690,
      "åħ¶å®ĥ": 2691,
      "5162": 2692,
      "çĻ¾åĪĨæ¯Ķ": 2693,
      "ĠTDS": 2694,
      "Ġåį±éĻ©æĢ§ç±»åĪ«": 2695,
      "è¾ĵæ°§": 2696,
      "æľĢç»Ī": 2697,
      "Ġåħ«": 2698,
      "å°ıå¿ĥ": 2699,
      "çĶŁäº§åķĨ": 2700,
      "å¼Ģåıĳ": 2701,
      "å¼ºæ°§åĮĸåīĤ": 2702,
      "çķĻ": 2703,
      "æĪ´éĺ²æĬ¤æīĭå¥Ĺ": 2704,
      "Ġå¼Ĥ": 2705,
      "ĠéĵĿ": 2706,
      "åºŁå¼ĥå¤Ħç½®": 2707,
      "æ·ĭæµ´": 2708,
      "Ġæ¯Ķéĩį": 2709,
      "å¹¶åħ·æľīéķ¿æľŁæĮģç»Ńå½±åĵį": 2710,
      "233": 2711,
      "301": 2712,
      "317": 2713,
      "810": 2714,
      "UMI": 2715,
      "ce": 2716,
      "«çĶŁ": 2717,
      "¾Ħ": 2718,
      "æ½": 2719,
      "Ġ99": 2720,
      "Ġand": 2721,
      "Ħĥ": 2722,
      "åħĶ": 2723,
      "Ġå¾": 2724,
      "çļĦäº§åĵģ": 2725,
      "åĮĸåĲĪçī©": 2726,
      "ä»·": 2727,
      "è¿Ļ": 2728,
      "ç»´": 2729,
      "åĳ½": 2730,
      "çģ«ç§į": 2731,
      "ĠâĦĥ": 2732,
      "ä¹Ŀ": 2733,
      "åĳ¼åĲ¸åģľæŃ¢": 2734,
      "ä½ľçĶ¨": 2735,
      "æ²Ļ": 2736,
      "éĢļçķħ": 2737,
      "æ¸ħéĻ¤": 2738,
      "çī¹å®ļ": 2739,
      "éħ¯ç±»": 2740,
      "Ġä¸ĥ": 2741,
      "è¿ĩæ»¤": 2742,
      "ĠæĢ¥æķĳ": 2743,
      "|---------|---------|": 2744,
      "çłĶ": 2745,
      "9505": 2746,
      "ç®±": 2747,
      "è¯ķéªĮ": 2748,
      "ĠçĶ¨å¤§éĩı": 2749,
      "åįĹéĢļ": 2750,
      "Ġæ¯Ĵ": 2751,
      "Ġå¯¹æ°´çĶŁçĶŁçī©": 2752,
      "Ġæ°´æº¶æĢ§": 2753,
      "ç®¡çĲĨ": 2754,
      "å±±å¸Ĥ": 2755,
      "å·²çŁ¥": 2756,
      "Ġæĺ¯ä¸Ģç§į": 2757,
      "Ġéķ¿": 2758,
      "Ġå·¥ä¸ļ": 2759,
      "è¶ħè¿ĩ": 2760,
      "éĶĢåĶ®": 2761,
      "æĺıæĺıæ¬²çĿ¡æĪĸçľ©æĻķ": 2762,
      "Ġæ¶²ä½ĵ": 2763,
      "¾Ħæ¸ħ": 2764,
      "335": 2765,
      "çĨĶ": 2766,
      "è¥": 2767,
      "Ġï¼Ī": 2768,
      "Ġéħ¸": 2769,
      "Ġä¿®è®¢æĹ¥æľŁ": 2770,
      "ï¼ļ+": 2771,
      "åĪĿ": 2772,
      "åħį": 2773,
      "äºļ": 2774,
      "Ġå±": 2775,
      "å®ľ": 2776,
      "ĠçŁ": 2777,
      "éħ°": 2778,
      "çļĦçī©è´¨": 2779,
      "è¿ŀ": 2780,
      "ĠéĤ": 2781,
      "æ°´æ¸ħæ´Ĺ": 2782,
      "å°Ķ": 2783,
      "åĲĪæĪĲ": 2784,
      "éĩıæ³Ħæ¼ı": 2785,
      "èĦĳ": 2786,
      "ä¸Ńæŀ": 2787,
      "èĢĥ": 2788,
      "éĢĤåĲĪ": 2789,
      "å¦ĤæĦŁè§īä¸įéĢĤ": 2790,
      "åĲ«æľī": 2791,
      "9501": 2792,
      "çģŃçģ«æĸ¹æ³ķ": 2793,
      "éĢłæĪĲä¼¤å®³": 2794,
      "èĩ´åĳ½": 2795,
      "ating": 2796,
      "èĦ±ç¦»": 2797,
      "çİ°æľī": 2798,
      "GHSåį±éĻ©æĢ§ç±»åĪ«": 2799,
      "èº«ä½ĵ": 2800,
      "èº«ä½ĵéĺ²æĬ¤": 2801,
      "16011": 2802,
      "Ġå®īåħ¨æĬĢæľ¯è¯´æĺİä¹¦": 2803,
      "æĶ¹åĸĦ": 2804,
      "çĽ¸å®¹æĢ§": 2805,
      "ĠĠĠĠĠĠĠĠĠĠĠĠĠĠĠĠĠĠĠĠĠĠĠĠĠĠĠĠĠĠĠĠ": 2806,
      "Ġæ²¸çĤ¹": 2807,
      "Ġéķ¿åħ´": 2808,
      "Ġå°ĨæĤ£èĢħ": 2809,
      "ĠETERKYD": 2810,
      "æģ¶": 2811,
      "SHA": 2812,
      "Ġå·²åĪĹåħ¥": 2813,
      "ä¸Ńæŀ¢": 2814,
      "312": 2815,
      "BE": 2816,
      "OR": 2817,
      "ul": 2818,
      "è¦Ĩ": 2819,
      "éº": 2820,
      "ĠY": 2821,
      "Ġa": 2822,
      "Ġn": 2823,
      "åĲ¦": 2824,
      "Ġåģ": 2825,
      "Ġæı": 2826,
      "005": 2827,
      "åį·": 2828,
      "åĲ¸éĻĦ": 2829,
      "åĳ¨": 2830,
      "|------|------": 2831,
      "ä½¿çĶ¨éĺ²çĪĨ": 2832,
      "åį±éĻ©åĵģ": 2833,
      "ĠChem": 2834,
      "æŃ£å¸¸": 2835,
      "æĸ°æĿĲæĸĻ": 2836,
      "ä¸ĭéĻĲ": 2837,
      "305": 2838,
      "----------------": 2839,
      "æ±¡æŁĵè¡£çī©": 2840,
      "370": 2841,
      "éĵ¶": 2842,
      "9563": 2843,
      "TEL": 2844,
      "ç»ıæµİ": 2845,
      "561": 2846,
      "å°ģéĹŃ": 2847,
      "åĳ¼åĲ¸éģĵåı¯èĥ½": 2848,
      "ĠæĬĢæľ¯èµĦæĸĻ": 2849,
      "æķĪæŀľ": 2850,
      "éĶģ": 2851,
      "è¿Ľè¡Įäººå·¥åĳ¼åĲ¸": 2852,
      "è¿Ľåħ¥åĳ¼åĲ¸éģĵåı¯èĥ½": 2853,
      "æĢ§åĴĮåıįåºĶæĢ§": 2854,
      "ĠåĽºåĲ«éĩı": 2855,
      "Ġé£Łåĵģ": 2856,
      "ĠçĻ½": 2857,
      "å®Įåħ¨": 2858,
      "Ġç¦ģæŃ¢": 2859,
      "ĠåºĶæĢ¥çĶµè¯Ŀ": 2860,
      "åľ¨éĢļé£İèī¯å¥½çļĦåľ°æĸ¹": 2861,
      "Ġof": 2862,
      "è¾¨è¯Ĩ": 2863,
      "235": 2864,
      "332": 2865,
      "TD": 2866,
      "TWA": 2867,
      "ev": 2868,
      "ig": 2869,
      "¥æºĲ": 2870,
      "åł": 2871,
      "é©¬": 2872,
      "ĠæľĢ": 2873,
      "å¤Ł": 2874,
      "åı¯ä»¥": 2875,
      "2026": 2876,
      "çĶŁæĪĲ": 2877,
      "éĺ²æĬ¤æİªæĸ½": 2878,
      "æ´»æĢ§": 2879,
      "æī¹": 2880,
      "å·¥åİĤ": 2881,
      "æ¶Ĥè£ħ": 2882,
      "ĠCH": 2883,
      "æ¼±åı£": 2884,
      "Ġmax": 2885,
      "303": 2886,
      "oly": 2887,
      "Ġ82": 2888,
      "ä¸ĬéĻĲ": 2889,
      "æĿĲæĸĻå·¥ä¸ļ": 2890,
      "ä¿ĿæĮģåĳ¼åĲ¸": 2891,
      "çĿĢçģ«": 2892,
      "ĠAC": 2893,
      "ä½İæ¸©": 2894,
      "å·¥ä¸ļåĮº": 2895,
      "4013": 2896,
      "é¡µ": 2897,
      "ĠpH": 2898,
      "83889090": 2899,
      "GHSåĪĨç±»": 2900,
      "åĲŀé£Ł": 2901,
      "ç©¿æĪ´": 2902,
      "ç©¿éĺ²æĬ¤æľį": 2903,
      "éĢļé£İèī¯å¥½å¤Ħ": 2904,
      "TERESIN": 2905,
      "è½»å¾®": 2906,
      "ĠéĢłæĪĲçļ®èĤ¤åĪºæ¿Ģ": 2907,
      "4602": 2908,
      "è´£å£°æĺİ": 2909,
      "Ġresin": 2910,
      "Ġæ··": 2911,
      "Ġ1330": 2912,
      "åį°åĪ·": 2913,
      "ĠInc": 2914,
      "ĠæĿ¥æºĲ": 2915,
      "æĬ¥åĳĬ": 2916,
      "Ġ8388": 2917,
      "Ġæ¸ħ": 2918,
      "LITERESIN": 2919,
      "è°ĥ": 2920,
      "ä¿ĿæĮģåĳ¼åĲ¸éģĵéĢļçķħ": 2921,
      "äº§çĶŁçģ«èĬ±çļĦå·¥åħ·": 2922,
      "UMILITERESIN": 2923,
      "èĦĳæ²¹": 2924,
      "è¦ĨçĽĸ": 2925,
      "310": 2926,
      "319": 2927,
      "340": 2928,
      "420": 2929,
      "UN": 2930,
      "nol": 2931,
      "©åĽ½": 2932,
      "âĹı": 2933,
      "Ġl": 2934,
      "ĠçĶŁäº§": 2935,
      "ĠèģĶç³»": 2936,
      "Ġ9090": 2937,
      "ĠéĨĭéħ¸": 2938,
      "ĨçĤ¸": 2939,
      "Ľæĸ°": 2940,
      "ä½Ľ": 2941,
      "Ġç¡": 2942,
      "çĥ¤": 2943,
      "çĥĪ": 2944,
      "è§Ĩ": 2945,
      "åį«çĶŁ": 2946,
      "åĽ¢": 2947,
      "æĪĸæ··åĲĪçī©": 2948,
      "ä¸įåı¯": 2949,
      "æµ¸": 2950,
      "æľ¬æĸĩä»¶": 2951,
      "ç²¾": 2952,
      "éĥ½": 2953,
      "éģµ": 2954,
      "Ġ32": 2955,
      "å¾ĭ": 2956,
      "ä¸İæ°§åĮĸåīĤ": 2957,
      "128": 2958,
      "éĩįæĸ°": 2959,
      "å¯¹æ°´çĶŁçĶŁçī©": 2960,
      "Ġä¸ª": 2961,
      "ĠSolv": 2962,
      "ç©ºæ°Ķä¸Ń": 2963,
      "ç¼º": 2964,
      "2000": 2965,
      "èĢĲåĮĸåŃ¦": 2966,
      "22113": 2967,
      "ess": 2968,
      "èĭ¯éħļ": 2969,
      "è¡£æľį": 2970,
      "etate": 2971,
      "åıĹå®³": 2972,
      "èĭıå·ŀ": 2973,
      "èĤ¥çļĤåĴĮ": 2974,
      "æĽ´æĸ°": 2975,
      "æĮīçħ§": 2976,
      "èĦ±æİīæīĢæľī": 2977,
      "Ġæ±Łèĭıçľģ": 2978,
      "èİ·å¾Ĺ": 2979,
      "è±¡": 2980,
      "èĸĦèĨľ": 2981,
      "è¿ħéĢŁèĦ±ç¦»": 2982,
      "ĠçĪĨçĤ¸": 2983,
      "Ġ6474": 2984,
      "Ġéķ¿æľŁ": 2985,
      "è¥¿": 2986,
      "ä¸Ńæŀ¢ç¥ŀç»ıç³»ç»Ł": 2987,
      "Ġåģ¥åº·": 2988,
      "è¿Ľåħ¥åĳ¼åĲ¸éģĵåı¯èĥ½èĩ´åĳ½": 2989,
      "è¿ħéĢŁèĦ±ç¦»çİ°åľº": 2990,
      "180": 2991,
      "Gardner": 2992,
      "man": 2993,
      "ªåĪĩ": 2994,
      "°æĢ§": 2995,
      "çª": 2996,
      "ĠJ": 2997,
      "Ģçĸĳ": 2998,
      "æĢĢçĸĳ": 2999,
      "äºĽ": 3000,
      "Ġå½": 3001,
      "ĠåĴ": 3002,
      "Ġæ¼": 3003,
      "Ġç¬¦åĲĪ": 3004,
      "åĮºæ": 3005,
      "éĻ·": 3006,
      "æľīæķĪ": 3007,
      "ç»ĩ": 3008,
      "Ġé»": 3009,
      "åĬŁ": 3010,
      "éĺ²æĬ¤è®¾å¤ĩ": 3011,
      "è®©": 3012,
      "æĿ¯": 3013,
      "æ¯ı": 3014,
      "|-----------": 3015,
      "ç½ĳ": 3016,
      "ä¾¿": 3017,
      "Ġ532": 3018,
      "æĹłèī²": 3019,
      "è¿Ľé£Ł": 3020,
      "2008": 3021,
      "æľīå®³çĩĥçĥ§äº§çī©": 3022,
      "ç´§": 3023,
      "æĺ¯æłĳèĦĤ": 3024,
      "338": 3025,
      "çĿĢèī²": 3026,
      "çĽ¸å½ĵ": 3027,
      "åį±éĻ©æĢ§æ¦Ĥè¿°": 3028,
      "èĩªè¡Į": 3029,
      "ç¾İåĽ½": 3030,
      "ç¡®å®ļ": 3031,
      "åģ¥åº·å½±åĵį": 3032,
      "å¼ºåº¦": 3033,
      "éħ®ç±»": 3034,
      "ä¸ľçľģ": 3035,
      "Ġæİ¨èįĲçĶ¨éĢĶ": 3036,
      "çĽ´å°Ħ": 3037,
      "æĢ»éħįæĸ¹": 3038,
      "Ġæµĵåº¦èĮĥåĽ´": 3039,
      "Ġçī¹å¼ĤæĢ§éĿ¶åĻ¨å®ĺç³»ç»Łæ¯ĴæĢ§": 3040,
      "ĠèĴ¸æ°Ķåİĭ": 3041,
      "ĠçĽ¸å¯¹": 3042,
      "å¤±åİ»": 3043,
      "ä¸İç©ºæ°Ķå½¢æĪĲçĪĨçĤ¸æĢ§æ··åĲĪçī©": 3044,
      "èĦĤèĤªæĹı": 3045,
      "åĩłåĪĨéĴŁ": 3046,
      "Ġæļ´éľ²éĢĶå¾Ħ": 3047,
      "ĠæĢ¥æķĳæĸ¹æ³ķ": 3048,
      "éº»": 3049,
      "ĠæıĲ": 3050,
      "ç¼ºéĻ·": 3051,
      ")**": 3052,
      "512": 3053,
      "Chem": 3054,
      "GI": 3055,
      "ial": 3056,
      "¤ç¦»": 3057,
      "Î¼": 3058,
      "åĦ": 3059,
      "èŀ": 3060,
      "Ġ@": 3061,
      "Ġåı·": 3062,
      "Ġkg": 3063,
      "ĠYD": 3064,
      "Ġè¿ľç¦»çĥŃæºĲ": 3065,
      "ĵ¦": 3066,
      "ĿĲ": 3067,
      "Ġæ¾Ħæ¸ħ": 3068,
      "åºı": 3069,
      "çļĦéĢļé£İ": 3070,
      "çĶ¨æĪ·": 3071,
      "éĻħ": 3072,
      "çģ¼": 3073,
      "æ°´åĸ·": 3074,
      "æ³Ħ": 3075,
      "èĤ²": 3076,
      "èĤº": 3077,
      "ä¸įäº§çĶŁçģ«èĬ±çļĦå·¥åħ·": 3078,
      "éĩıçļĦ": 3079,
      "ç³Ĭ": 3080,
      "çĶµæľ¨": 3081,
      "æ±Łèĭıçľģ": 3082,
      "åĮĸåŃ¦æĢ§è´¨": 3083,
      "å®īåħ¨èµĦæĸĻ": 3084,
      "å¯¹åĻ¨å®ĺ": 3085,
      "æ¶ĤæĸĻä½ĵç³»": 3086,
      "ant": 3087,
      "Ġ48": 3088,
      "ĠçīĪ": 3089,
      "51610": 3090,
      "ont": 3091,
      "å¼ķèµ·çĩĥçĥ§": 3092,
      "çĥ¯çĥĥ": 3093,
      "Ġä¸įéĢĤçĶ¨": 3094,
      "Ġä¸įæĮ¥åıĳ": 3095,
      "çİ¯å¢ĥä¸Ń": 3096,
      "ä½ıåıĭçĶµæľ¨": 3097,
      "æĥ°æĢ§": 3098,
      "|----------|----------|": 3099,
      "çĪĨçĤ¸åį±éĻ©": 3100,
      "éĩĳé»Ħ": 3101,
      "æĮĩå¯¼": 3102,
      "èħĶ": 3103,
      "Ġæł¹æį®": 3104,
      "çĻ½ç²ī": 3105,
      "ç¨ĭåºı": 3106,
      "Ġç«ĭåį³çĶ¨å¤§éĩı": 3107,
      "èģļéħ¯éĩĳé»Ħ": 3108,
      "çī¹æ®Ĭåį±å®³": 3109,
      "act": 3110,
      "æ¸ħæ°´å½»åºķåĨ²æ´Ĺ": 3111,
      "ide": 3112,
      "Ġçİ¯å¢ĥ": 3113,
      "çĽ´æİ¥": 3114,
      "Ġçī¹å¼ĤæĢ§éĿ¶åĻ¨å®ĺæ¯ĴæĢ§": 3115,
      "Ġå»ºè®®çĶ¨éĩı": 3116,
      "ethyl": 3117,
      "æłĩçŃ¾è¦ģç´ł": 3118,
      "ç¼ĸåĪ¶ä¾Ŀæį®": 3119,
      "Ġç½Ĳ": 3120,
      "Ġä¸¥éĩįçľ¼æįŁä¼¤": 3121,
      "TOT": 3122,
      "ĠçĨĶçĤ¹": 3123,
      "ä¸Ńå¿ĥæĪĸåĮ»çĶŁ": 3124,
      "å°ıå¿ĥåĨ²æ´Ĺ": 3125,
      "Ġå¾®": 3126,
      "Ġæ¯ĴçĲĨåŃ¦": 3127,
      "ĠChemical": 3128,
      "è¾¨è¯ĨèµĦæĸĻ": 3129,
      "åĦ¿": 3130,
      "120": 3131,
      "ab": 3132,
      "down": 3133,
      "mb": 3134,
      "ph": 3135,
      "us": 3136,
      "¡é»Ħèī²": 3137,
      "¹æĢ§": 3138,
      "æ¥": 3139,
      "èĳ": 3140,
      "Ġè¯´æĺİ": 3141,
      "Ġä½©": 3142,
      "Ł©åĽ½": 3143,
      "åħŃ": 3144,
      "äºĪ": 3145,
      "Ġæ¹": 3146,
      "åĮĹ": 3147,
      "è¯±": 3148,
      "Ġ18": 3149,
      "ĠéŁ©åĽ½": 3150,
      "åīªåĪĩ": 3151,
      "åĲĪè§Ħ": 3152,
      "èĤ¿": 3153,
      "æĸ¹åı¯": 3154,
      "ä¸įèĥ½": 3155,
      "æĿ¿": 3156,
      "æ´²": 3157,
      "åĪ¶è¡¨": 3158,
      "éĢļçĶ¨": 3159,
      "æķ°åĢ¼": 3160,
      "åİļ": 3161,
      "åĲ¸åħ¥èĴ¸æ°Ķ": 3162,
      "éĩįè¦ģ": 3163,
      "çº¤": 3164,
      "283": 3165,
      "çŃĳ": 3166,
      "ĠåĮĸåŃ¦åĲįç§°": 3167,
      "ĠåĮĸåŃ¦æĢ§è´¨": 3168,
      "æĬĢæľ¯èµĦæĸĻ": 3169,
      "èĩ³ç©ºæ°Ķæĸ°é²ľå¤Ħ": 3170,
      "èĢĲçĥŃ": 3171,
      "éĴ¢": 3172,
      "æĶ¾çĶµ": 3173,
      "é»ı": 3174,
      "ĠTWA": 3175,
      "264": 3176,
      "æĵįä½ľå¤Ħç½®": 3177,
      "æ®ĭ": 3178,
      "åĮĸåŃ¦åĵģåıĬä¼ģä¸ļæłĩè¯Ĩ": 3179,
      "ĠLTD": 3180,
      "ä¸¥éĩįçľ¼åĪºæ¿Ģ": 3181,
      "Ġæ³ķ": 3182,
      "è¯·åıĤ": 3183,
      "Ġå¦Ĥæŀľ": 3184,
      "è¿Ľåħ¥ä¸ĭæ°´éģĵ": 3185,
      "èĪĴ": 3186,
      "æľīæľºç¡ħ": 3187,
      "16013": 3188,
      "åºŁçī©": 3189,
      "é¼»": 3190,
      "Ġèī²æķ°": 3191,
      "æ¶Īéĺ²äººåĳĺéĺ²æĬ¤": 3192,
      "Ġç§»": 3193,
      "Ġç¾İåĽ½": 3194,
      "arkdown": 3195,
      "Ġæ¯ķåħĭåĮĸåŃ¦": 3196,
      "çĥ¤æ¼Ĩ": 3197,
      "ĠåĴĮ": 3198,
      "çģ¼ä¼¤": 3199,
      "èĳĹ": 3200,
      ".ï¼Ī": 3201,
      "500": 3202,
      "ETER": 3203,
      "chem": 3204,
      "eg": 3205,
      "oad": 3206,
      "|:----": 3207,
      "µm": 3208,
      "æĵ¦": 3209,
      "çı": 3210,
      "èĻ": 3211,
      "ĠZ": 3212,
      "Ġ90": 3213,
      "Ġéĺ²æŃ¢": 3214,
      "ĠçĶŁæ®ĸ": 3215,
      "Ħåħ¥": 3216,
      "ï¼ı": 3217,
      "ãĢĤ**": 3218,
      "çīĩ": 3219,
      "|-------": 3220,
      "ä»į": 3221,
      "éĨī": 3222,
      "ĠéĴ": 3223,
      "å¼ł": 3224,
      "æĪĸçĶŁ": 3225,
      "ä¸įåĲĪéĢĤçļĦçģŃçģ«åīĤ": 3226,
      "çĶŁèĤ²": 3227,
      "1608": 3228,
      "1618": 3229,
      "å½©": 3230,
      "åĨĮ": 3231,
      "åı¯èĥ½å¯¹": 3232,
      "æī©": 3233,
      "ä½¿çĶ¨æĹ¶": 3234,
      "äºĮæ°§åĮĸ": 3235,
      "å¾ª": 3236,
      "å¾½": 3237,
      "çĲĨçĽĲ": 3238,
      "åľ¨å®¤": 3239,
      "èģļä¹Ļçĥ¯": 3240,
      "åĲ¸åħ¥ç²īå°ĺ": 3241,
      "å±Ģ": 3242,
      "Ġ(%)": 3243,
      "éĹ¨": 3244,
      "å¿«": 3245,
      "Ġ401": 3246,
      "ä¼ļå¼ķèµ·": 3247,
      "ä¼ļå¯¼èĩ´": 3248,
      "èĢĲåĢĻ": 3249,
      "ater": 3250,
      "ator": 3251,
      "çĪ½": 3252,
      "Ġä¸įè¦ģ": 3253,
      "éģ¿åħįæİ¥è§¦": 3254,
      "âĤĥ": 3255,
      "9562": 3256,
      "ĠKOH": 3257,
      "ä¸īéĥ¨åĪĨ": 3258,
      "Ġç»ĵ": 3259,
      "ACH": 3260,
      "è¿Ľåħ¥çľ¼çĿĽ": 3261,
      "æĻķçľ©": 3262,
      "ç½Ĳå¤´": 3263,
      "æİĴåħ¥": 3264,
      "Ġä¹Ļéħ¸": 3265,
      "æĲħ": 3266,
      "Ġçİ¯æ°§": 3267,
      "çŁ³èĦĳæ²¹": 3268,
      "æ²¾æŁĵçļĦè¡£æľį": 3269,
      "ç«ł": 3270,
      "ĠæłĩåĩĨ": 3271,
      "Ġè¿Ĳè¾ĵä¿¡æģ¯": 3272,
      "åıĸåĩºéļĲå½¢çľ¼éķľ": 3273,
      "æĭħä¿Ŀ": 3274,
      "Ġæ¶Īæ³¡åīĤ": 3275,
      "çĶµåŃĲéĤ®ä»¶": 3276,
      "Ġacetate": 3277,
      "èĥ½åĬĽæĪĸ": 3278,
      "ĠéĤ®": 3279,
      "éĵ¶æµĨ": 3280,
      "Ġ64742": 3281,
      "éº»éĨī": 3282,
      "æĪĸçĶŁçĲĨçĽĲ": 3283,
      "çĶŁèĤ²èĥ½åĬĽæĪĸ": 3284,
      "330": 3285,
      "532": 3286,
      "BL": 3287,
      "DBE": 3288,
      "EACH": 3289,
      "II": 3290,
      "OC": 3291,
      "dur": 3292,
      "gi": 3293,
      "ir": 3294,
      "pec": 3295,
      "si": 3296,
      "ºç»ĩ": 3297,
      "¿æĭħ": 3298,
      "ĠæĢ§èĥ½": 3299,
      "Ġèĭ¥": 3300,
      "Ńéħį": 3301,
      "-----": 3302,
      "è¯Ħ": 3303,
      "åįı": 3304,
      "æľīåħ³": 3305,
      "åı¯åľ¨": 3306,
      "åı¯å¼ķèµ·": 3307,
      "2011": 3308,
      "è¡Ģ": 3309,
      "åĲĪåīĤ": 3310,
      "æĪĸåıįå¤įæİ¥è§¦": 3311,
      "çĶŁæĢģ": 3312,
      "èīº": 3313,
      "æī¿æĭħ": 3314,
      "ä½¿çĶ¨çļĦ": 3315,
      "ĠPHEN": 3316,
      "åĪ¶åīĤ": 3317,
      "Ġç¬¬ä¸īéĥ¨åĪĨ": 3318,
      "86810": 3319,
      "å¦Ĥåĳ¼åĲ¸åģľæŃ¢": 3320,
      "åŁºéħ¯": 3321,
      "Ġäº§åĵģçī¹æĢ§": 3322,
      "Ġä¸»è¦ģ": 3323,
      "anol": 3324,
      "é«ĺåĪĨåŃĲéĩı": 3325,
      "5160": 3326,
      "çī©è´¨æĪĸæ··åĲĪçī©": 3327,
      "ĠGmb": 3328,
      "enator": 3329,
      "ers": 3330,
      "æĿĲæĸĻåĲ¸æĶ¶": 3331,
      "Ġ2022": 3332,
      "åĲİæĸ¹åı¯": 3333,
      "9503": 3334,
      "é¡»åĬł": 3335,
      "Ġå®ī": 3336,
      "æ°´åĨ²æ´Ĺçľ¼çĿĽ": 3337,
      "æ¬§": 3338,
      "åı£æľį": 3339,
      "åı£èħĶ": 3340,
      "éĻ¤æīĢæľī": 3341,
      "ä¼ĺçĤ¹": 3342,
      "æ·»åĬłéĩı": 3343,
      "271": 3344,
      "Ġä¸ĢèĪ¬": 3345,
      "è¢«åĪĨç±»": 3346,
      "åıĳçĶŁçļ®èĤ¤åĪºæ¿Ģ": 3347,
      "ĠÂµm": 3348,
      "å¤´åıĳ": 3349,
      "å¤´çĹĽ": 3350,
      "00413": 3351,
      "æıĲä¾ĽçļĦ": 3352,
      "æĪ´éĺ²æĬ¤çľ¼ç½©": 3353,
      "Ġ0512": 3354,
      "å·¥ä½ľæľį": 3355,
      "Ġå¹³": 3356,
      "Ġå¹¿": 3357,
      "ech": 3358,
      "çŁ³æ²¹": 3359,
      "åºĵæĸĩæ¡£": 3360,
      "www": 3361,
      ":|:--------:|": 3362,
      "éģĩæĺİçģ«": 3363,
      "ĠçģŃçģ«": 3364,
      "åŁºæĿĲ": 3365,
      "æĴ¤ç¦»": 3366,
      "ç§ĳæĬĢæľīéĻĲåħ¬åı¸": 3367,
      "è¿ĩç¨ĭä¸Ń": 3368,
      "Ġç©¿": 3369,
      "çŁ¥è¯Ĩåºĵæĸĩæ¡£": 3370,
      "æħ§æĸ°åĮĸå·¥æľīéĻĲåħ¬åı¸": 3371,
      "Ġéķ¿åħ´æĿĲæĸĻå·¥ä¸ļ": 3372,
      "æģ¶å¿ĥ": 3373,
      "æµ¸æ³¡": 3374,
      "åĬŁèĥ½": 3375,
      "Î¼m": 3376,
      "èŀį": 3377,
      "ĠçīĪæľ¬": 3378,
      "Ġæ³ķè§Ħ": 3379,
      "ĠéĤ®ç¼ĸ": 3380,
      "ĠGmbH": 3381,
      "é¡»åĬłéĶģ": 3382,
      "FR": 3383,
      "STOT": 3384,
      "ast": 3385,
      "ct": 3386,
      "hin": 3387,
      "up": 3388,
      "°å°ĺ": 3389,
      "Ġèĩ´çĻĮæĢ§": 3390,
      "Ġä¹Ŀ": 3391,
      "Ġè¿ħéĢŁèĦ±ç¦»çİ°åľº": 3392,
      "İåĦ¿": 3393,
      "åĪĽ": 3394,
      "æĢĿ": 3395,
      "ĠåĢ": 3396,
      "çļĦåį±éĻ©": 3397,
      "çļĦå®īåħ¨": 3398,
      "åŃĶ": 3399,
      "Ġ14": 3400,
      "Ġ16": 3401,
      "çģ°å°ĺ": 3402,
      "ä½ĵä½į": 3403,
      "èĥİåĦ¿": 3404,
      "æ°´å½»åºķåĨ²æ´Ĺ": 3405,
      "2013": 3406,
      "|------|---------|": 3407,
      "ä¸įéĢĤçĶ¨": 3408,
      "å¯»": 3409,
      "éĺ²æĬ¤çľ¼éķľ": 3410,
      "è®°": 3411,
      "æĿĥ": 3412,
      "çĤİ": 3413,
      "ä¿ĿåŃĺ": 3414,
      "åħ¨èº«": 3415,
      "å¾ģ": 3416,
      "1367": 3417,
      "æĶ¯": 3418,
      "åı·çłģ": 3419,
      "æ³ķå¾ĭ": 3420,
      "åĤ¨åŃĺåľ¨": 3421,
      "åĤ¨åŃĺç¨³å®ļæĢ§": 3422,
      "Ġäº§åĵģæııè¿°": 3423,
      "åĽ½éĻħ": 3424,
      "çº¯": 3425,
      "Ġä¸º": 3426,
      "ane": 3427,
      "éĿ¢éĺ²æĬ¤": 3428,
      "éĢłæĪĲçļ®èĤ¤åĪºæ¿Ģ": 3429,
      "Ġmm": 3430,
      "ä¹Ļéħ¯": 3431,
      "éĢļé£İå¤Ħ": 3432,
      "242": 3433,
      "æľįåĬ¡": 3434,
      "ç»ĦåĲĪ": 3435,
      "ern": 3436,
      "ert": 3437,
      "âĦĥï¼Ī": 3438,
      "ĠMarkdown": 3439,
      "åĸī": 3440,
      "æ¸©æ°´": 3441,
      "ĠEC": 3442,
      "æıĲç¤º": 3443,
      "åĲİå½»åºķæ¸ħæ´Ĺ": 3444,
      "è®¾å¤ĩæİ¥åľ°": 3445,
      "èģĶåĲĪ": 3446,
      "è¿ľç¦»çģ«ç§į": 3447,
      "æ°´åĨ²æ´Ĺèĩ³å°ĳ": 3448,
      "5619": 3449,
      "æĭĮ": 3450,
      "ĠLD": 3451,
      "å±ŀäºİ": 3452,
      "çŁ¥è§ī": 3453,
      "åıĤèĢĥ": 3454,
      "270": 3455,
      "éĶ®": 3456,
      "Ġåı¯èĥ½å¼ķèµ·": 3457,
      "å£¤": 3458,
      "ACumist": 3459,
      "çħ§æĺİ": 3460,
      "æľīæľºæº¶åīĤ": 3461,
      "åįķä½ĵ": 3462,
      "çĶ±äºİ": 3463,
      "çĶ±çŁ¥è¯Ĩåºĵæĸĩæ¡£": 3464,
      "å¹³åĿĩ": 3465,
      "å·¥ä½ľåľºæīĢ": 3466,
      "æ±¡æŁĵçļĦè¡£çī©": 3467,
      "æĲŃéħį": 3468,
      "åľŁå£¤": 3469,
      "æŀģéĻĲ": 3470,
      "|------------|---------": 3471,
      "äº¤èģĶ": 3472,
      "ç§¯èģļ": 3473,
      "è¶³å¤Ł": 3474,
      "14036": 3475,
      "14056": 3476,
      "è½¬æį¢è¯´æĺİ": 3477,
      "è½¬æį¢ä¸º": 3478,
      "dust": 3479,
      "æ£Ģæµĭ": 3480,
      "äºĨè§£": 3481,
      "PHENODUR": 3482,
      "æ¶¦æ¹¿": 3483,
      "Ġå¸¸": 3484,
      "16010": 3485,
      "æº¢åĩºçī©": 3486,
      "Ġç²īæľ«": 3487,
      "Ġç¨³å®ļæĢ§åĴĮåıįåºĶæĢ§": 3488,
      "ĠåŁºäºİ": 3489,
      "Ġé£Łåĵģæİ¥è§¦": 3490,
      "Ľæĸ°æłĳèĦĤ": 3491,
      "æľ¬æĸĩä»¶çĶ±çŁ¥è¯Ĩåºĵæĸĩæ¡£": 3492,
      "éĩįæĸ°ä½¿çĶ¨": 3493,
      "Ġé»Ħ": 3494,
      "æ¸ħæ°´å½»åºķåĨ²æ´Ĺçļ®èĤ¤": 3495,
      "å°ıå¿ĥåĨ²æ´ĹåĩłåĪĨéĴŁ": 3496,
      "åĪ¶è¡¨æĹ¥æľŁ": 3497,
      "æ®ĭçķĻ": 3498,
      "æĲħæĭĮ": 3499,
      "ĠPHENODUR": 3500,
      "DMP": 3501,
      "ET": 3502,
      "TP": 3503,
      "om": 3504,
      "ot": 3505,
      "pp": 3506,
      "¸ç¦»": 3507,
      "»ç": 3508,
      "Ġ01": 3509,
      "Ġä¸ģ": 3510,
      "Ġco": 3511,
      "ĠéĢĤçĶ¨äºİ": 3512,
      "ĠéĻĦçĿĢåĬĽ": 3513,
      "ĠèĦ±åİ»": 3514,
      "Ġéĩįéĩı": 3515,
      "Ġä¿ĿæĮģå®¹åĻ¨å¯ĨéĹŃ": 3516,
      "Ĵĥ": 3517,
      "åħ¸åŀĭ": 3518,
      "éĢī": 3519,
      "çīĮ": 3520,
      "åįģ": 3521,
      "Ġéĥ": 3522,
      "2020": 3523,
      "2015": 3524,
      "ä¼°": 3525,
      "çĽŁ": 3526,
      "æĸ¹ä¾¿": 3527,
      "ç³»åĪĹ": 3528,
      "å¤Ħé¡»åĬłéĶģ": 3529,
      "éħįçī©": 3530,
      "æ´ģ": 3531,
      "çĶµæ°Ķ": 3532,
      "å·¥èīº": 3533,
      "088": 3534,
      "ĠCFR": 3535,
      "ĠPC": 3536,
      "æ²¸çĤ¹": 3537,
      "èģļåĲĪ": 3538,
      "æ¯Ĵçī©": 3539,
      "äººä½ĵ": 3540,
      "çĶ²éĨļ": 3541,
      "è£ħå®¹": 3542,
      "éĩįå¤į": 3543,
      "å®īåħ¨åĤ¨åŃĺ": 3544,
      "åľ°åĮº": 3545,
      "æ°§åĮĸéĵģ": 3546,
      "åĿı": 3547,
      "352": 3548,
      "çº³": 3549,
      "éĢłæĪĲæįŁå®³": 3550,
      "å¹¶åı¯": 3551,
      "å¥½çļĦ": 3552,
      "ä¸Ĭé£İ": 3553,
      "å¤§éĩıæ³Ħæ¼ı": 3554,
      "378": 3555,
      "9504": 3556,
      "95010": 3557,
      "9564": 3558,
      "9567": 3559,
      "äº§çĶŁæľīå®³": 3560,
      "rodu": 3561,
      "ĠçĶ¨èĤ¥çļĤåĴĮ": 3562,
      "æĽ²": 3563,
      "åįĹè·¯": 3564,
      "ç¾ŁåŁº": 3565,
      "çĥ·åŁº": 3566,
      "Ġçļ®èĤ¤èĩ´æķı": 3567,
      "å·ŀå¸Ĥ": 3568,
      "ä¸ªäººéĺ²æĬ¤è®¾å¤ĩ": 3569,
      "Ġä¹ĻäºĮéĨĩ": 3570,
      "æ¶Īæ³¡åīĤ": 3571,
      "æ±½è½¦": 3572,
      "éĻĲåĪ¶çĶ¨éĢĶ": 3573,
      "å®ŀéªĮ": 3574,
      "ĠæłĩçŃ¾": 3575,
      "åı¯èĥ½éĢłæĪĲçļ®èĤ¤è¿ĩæķıåıįåºĶ": 3576,
      "æ°´æĪĸåĲ¸çĥŁ": 3577,
      "ä¸Ļçĥ¯éħ¸æłĳèĦĤ": 3578,
      "ific": 3579,
      "Ġæ³¨æĦı": 3580,
      "éĺ³åħīçĽ´å°Ħ": 3581,
      "Ġç¼ĸåĪ¶": 3582,
      "è§£æ¯Ĵä¸Ńå¿ĥæĪĸåĮ»çĶŁ": 3583,
      "æ½®": 3584,
      "çĶŁæĪĲæĹ¥æľŁ": 3585,
      "ä¿ĿæĮģåĳ¼åĲ¸èĪĴ": 3586,
      "Ġä¸įæĮ¥åıĳä»½": 3587,
      "Ġä½©å¸¦": 3588,
      "çĶŁèĤ²èĥ½åĬĽæĪĸèĥİåĦ¿": 3589,
      "»çĴĥ": 3590,
      "è£ħå®¹åĻ¨": 3591,
      "roduct": 3592,
      ":**": 3593,
      "AT": 3594,
      "PO": 3595,
      "SC": 3596,
      "ail": 3597,
      "hr": 3598,
      "un": 3599,
      "¦åĮĸå·¥æľīéĻĲåħ¬åı¸": 3600,
      "åĺ": 3601,
      "çĨ": 3602,
      "ĠçĶ²": 3603,
      "Ġä½©æĪ´": 3604,
      "Ġä»£çłģ": 3605,
      "Ĥè´¨": 3606,
      "ĩĥ": 3607,
      "--:|": 3608,
      "Ġæ´": 3609,
      "Ġçĩĥ": 3610,
      "æĢ§åıĬ": 3611,
      "çļĦçĹĩçĬ¶": 3612,
      "çļĦæĥħåĨµä¸ĭ": 3613,
      "å¤ª": 3614,
      "è¯Ń": 3615,
      "åĴĮä¸ªä½ĵéĺ²æĬ¤": 3616,
      "2023": 3617,
      "æĪĸç¬¦åĲĪ": 3618,
      "1516": 3619,
      "ä¸įçĽ¸å®¹": 3620,
      "019": 3621,
      "Ġ250": 3622,
      "å®¹æĢ§": 3623,
      "æµħ": 3624,
      "æĺİæĺ¾": 3625,
      "çļ®èĤ¤èħĲèļĢ": 3626,
      "æĿĤè´¨": 3627,
      "åĩĿ": 3628,
      "æīĵ": 3629,
      "åĪºæ¿ĢæĮģç»Ń": 3630,
      "æ··æº¶": 3631,
      "ä½¿çĶ¨ä¸įäº§çĶŁçģ«èĬ±çļĦå·¥åħ·": 3632,
      "åĮ»çĸĹ": 3633,
      "ä¾§": 3634,
      "909": 3635,
      "åĮĸåŃ¦åį±éĻ©": 3636,
      "èģļç¡ħæ°§çĥ·": 3637,
      "èī²ç²īæľ«": 3638,
      "å¦Ĥåĳ¼åĲ¸åĽ°éļ¾": 3639,
      "å±ı": 3640,
      "çī¹çĤ¹": 3641,
      "åıĳå¸ĥ": 3642,
      "Ġäº§åĵģæ¦Ĥè¿°": 3643,
      "353": 3644,
      "çº¿": 3645,
      "æĿĲæ¶ĤæĸĻ": 3646,
      "ĠSUMILITERESIN": 3647,
      "æķ°æį®é¡µ": 3648,
      "ç©ºæ°Ķéĩį": 3649,
      "241": 3650,
      "èĢĲç£¨": 3651,
      "2213": 3652,
      "esmo": 3653,
      "æĪ´éļĲå½¢çľ¼éķľ": 3654,
      "Ġæĺĵçĩĥ": 3655,
      "ä¿ĿæĮģä½İæ¸©": 3656,
      "åĸĤ": 3657,
      "1000": 3658,
      "æ¯Ķç©ºæ°Ķéĩį": 3659,
      "æĺ¯åĬ©åīĤ": 3660,
      "261": 3661,
      "æĵįä½ľå¤Ħç½®ä¸İåĤ¨åŃĺ": 3662,
      "åºĶæĢ¥åĴ¨è¯¢çĶµè¯Ŀ": 3663,
      "èį¯": 3664,
      "åĮĸåŃ¦åĵģå®īåħ¨æĬĢæľ¯è¯´æĺİä¹¦": 3665,
      "roc": 3666,
      "ĠæĬĢæľ¯æĮĩæłĩ": 3667,
      "4007": 3668,
      "åĲŀåĴ½æľīå®³": 3669,
      "Ġé¢Ħ": 3670,
      "ĠVenator": 3671,
      "ç»ĵæŀľ": 3672,
      "ure": 3673,
      "æŁ¥": 3674,
      "è®¤ä¸º": 3675,
      "Ġå¹²": 3676,
      "äºĶéĥ¨åĪĨ": 3677,
      "æ°¨åŁº": 3678,
      "CAL": 3679,
      "é¥®æ°´æĪĸåĲ¸çĥŁ": 3680,
      "åİĤåķĨ": 3681,
      "utyl": 3682,
      "ellow": 3683,
      "æįŁå®³åĻ¨å®ĺ": 3684,
      "æľīæ¯Ĵå¹¶åħ·æľīéķ¿æľŁæĮģç»Ńå½±åĵį": 3685,
      "ï½ľ**": 3686,
      "ãĢĭï¼Ī": 3687,
      "æ°´åĴĮèĤ¥çļĤ": 3688,
      "ĠçĥŃ": 3689,
      "ĠåĬłåħ¥": 3690,
      "åĽŀæĶ¶": 3691,
      "å¿ħè¦ģæĹ¶": 3692,
      "çļ®èĤ¤åĴĮçľ¼çĿĽ": 3693,
      "èıĮ": 3694,
      "éħ°èĥº": 3695,
      "Ġå·²åĪĹåħ¥æĪĸç¬¦åĲĪ": 3696,
      "Ġæ··åĲĪçī©": 3697,
      "ä½ıåıĭçĶµæľ¨æľīéĻĲåħ¬åı¸": 3698,
      "èĢĲçĥŃæĢ§": 3699,
      "è¯Ħä¼°": 3700,
      "åĲİæĸ¹åı¯éĩįæĸ°ä½¿çĶ¨": 3701,
      "Ġå¹³åĿĩ": 3702,
      "Ġéĥ¨": 3703,
      "Ġå·²åĪĹåħ¥æĪĸç¬¦åĲĪè¦ģæ±Ĥ": 3704,
      ".ï¼ī": 3705,
      "260": 3706,
      "6283": 3707,
      "774": 3708,
      "EU": 3709,
      "LC": 3710,
      "STEL": 3711,
      "ea": 3712,
      "ie": 3713,
      "yn": 3714,
      "§½": 3715,
      "®åĸ": 3716,
      "¶æ®": 3717,
      "ç«ĭ": 3718,
      "Ġ00": 3719,
      "Ġè¦ģæ±Ĥ": 3720,
      "Ġéĺ²èĮĥè¯´æĺİ": 3721,
      "Ġè´®åŃĺ": 3722,
      "ĠåıĮéħļA": 3723,
      "ĠçĶµåŃĲéĤ®ä»¶": 3724,
      "Ĺä¼ł": 3725,
      "åĪ®": 3726,
      "æĸ¤": 3727,
      "ä½Ļ": 3728,
      "Ġæ¬": 3729,
      "ï¼ī**ï¼ļ": 3730,
      "çļĦçģŃçģ«ä»ĭè´¨": 3731,
      "åĵ®åĸ": 3732,
      "éĺ¶æ®": 3733,
      "ä»ĺ": 3734,
      "è¿ĳ": 3735,
      "2016": 3736,
      "æĪĸåĵ®åĸ": 3737,
      "èĥ½å¼ķèµ·çĩĥçĥ§": 3738,
      "äº§åĵģä»£çłģ": 3739,
      "Ġâĸ": 3740,
      "1606": 3741,
      "æŃ¥": 3742,
      "808": 3743,
      "éĨĩç±»": 3744,
      "å·¥ç¨ĭ": 3745,
      "éģĹä¼ł": 3746,
      "|------|:----:|": 3747,
      "äºĮçĶ²åŁº": 3748,
      "æ¶ĤèĨľ": 3749,
      "ä¾µ": 3750,
      "èģļå¼Ĥæ°°éħ¸éħ¯": 3751,
      "åħ¬æĸ¤": 3752,
      "äººè½¬ç§»åĪ°ç©ºæ°Ķæĸ°é²ľå¤Ħ": 3753,
      "362": 3754,
      "3625": 3755,
      "çľ¼çĿĽéĺ²æĬ¤": 3756,
      "çľ¼çĿĽæįŁä¼¤": 3757,
      "ance": 3758,
      "æĹłéľĢ": 3759,
      "5161": 3760,
      "243": 3761,
      "çŁŃ": 3762,
      "ä¸ªæľĪ": 3763,
      "çİ¯å¢ĥä¿ĿæĬ¤": 3764,
      "266": 3765,
      "all": 3766,
      "ĠIII": 3767,
      "çł´": 3768,
      "æ±¡æŁĵçļĦ": 3769,
      "æµģå¹³": 3770,
      "åĮħåĲ«": 3771,
      "âĤħ": 3772,
      "æĶ¶å®¹": 3773,
      "æĦıè¯Ĩ": 3774,
      "ç»Ļè¾ĵæ°§": 3775,
      "èħĪ": 3776,
      "ĠKD": 3777,
      "åĮ»çĶŁçļĦ": 3778,
      "Ġçī¹æĢ§": 3779,
      "roup": 3780,
      "çĹĩçĬ¶æĪĸ": 3781,
      "çĹĩçĬ¶æĮģç»Ń": 3782,
      "Ġåı¯å¼ķèµ·": 3783,
      "Ġç«ĭåį³èĦ±åİ»": 3784,
      "éĨļåĮĸ": 3785,
      "æ°´çĶŁåį±å®³": 3786,
      "é¢ľèī²": 3787,
      "åįķä½į": 3788,
      "å¤ĸæĪĸ": 3789,
      "æĪ´éĺ²æĬ¤éĿ¢åħ·": 3790,
      "çĶ¨æ°´æ¸ħæ´Ĺ": 3791,
      "ä¿ĿæĮģå®¹åĻ¨å¯Ĩå°ģ": 3792,
      "ä¸ªäººéĺ²æĬ¤è£ħå¤ĩ": 3793,
      "½ľåľ¨": 3794,
      "æ±¡æŁĵçļĦè¡£çĿĢ": 3795,
      "4605": 3796,
      "Ġçİ¯å·±": 3797,
      "|-------------": 3798,
      "èŃ¦ç¤ºè¯Ń": 3799,
      "Ġå·¥ä½ľ": 3800,
      "äºĮéĨĩçĶ²éĨļ": 3801,
      "Ġçģ«": 3802,
      "åı¯èĥ½å¯¼èĩ´è¿ĩæķı": 3803,
      "ä¸Ńæ¯Ĵæİ§åĪ¶": 3804,
      "çłĤåľŁ": 3805,
      "000000000000": 3806,
      "æļĸ": 3807,
      "ĠçŃī": 3808,
      "éĺ²æŃ¢éĿĻçĶµæĶ¾çĶµ": 3809,
      "é«ĺçĥŃèĥ½å¼ķèµ·çĩĥçĥ§": 3810,
      "çĶ¨æµģåĬ¨æ¸ħæ°´æĪĸçĶŁçĲĨçĽĲ": 3811,
      "åĳ¨åĽ´": 3812,
      "nolo": 3813,
      "è±¡å½¢": 3814,
      "å¤±åİ»çŁ¥è§ī": 3815,
      "æ°´åĸ·å°Ħ": 3816,
      "èģļéħ¯éĩĳé»Ħä½ĵç³»æł·æľ¬": 3817,
      "åīªåĪĩåĬĽ": 3818,
      "echnolo": 3819,
      "ĠåĢ¼": 3820,
      "èģĶåĲĪåĽ½": 3821,
      "çĶŁèĤ²èĥ½åĬĽæĪĸèĥİåĦ¿éĢłæĪĲä¼¤å®³": 3822,
      "åĺ´": 3823,
      "åĸĤé£Ł": 3824,
      "ĠåĬłåħ¥æĸ¹æ³ķ": 3825,
      "éĺ¶æ®µ": 3826,
      "æĪĸåĵ®åĸĺ": 3827,
      "%ï¼Ī": 3828,
      "4251": 3829,
      "Al": 3830,
      "DO": 3831,
      "ER": 3832,
      "OS": 3833,
      "ay": 3834,
      "ain": 3835,
      "im": 3836,
      "qu": 3837,
      "¬¾": 3838,
      "Ġéĺ²": 3839,
      "Ġèĩ³": 3840,
      "ĠçĶ¨éĢĶ": 3841,
      "ĠçĶ²èĭ¯": 3842,
      "ĠæĢ§è´¨": 3843,
      "Ġis": 3844,
      "Ġåħīæ³½": 3845,
      "ĠåĪĿ": 3846,
      "åı°": 3847,
      "åĪ»": 3848,
      "åĲ¬": 3849,
      "æ°ĳ": 3850,
      "æĸŃ": 3851,
      "ĠæĶ": 3852,
      "åĮĢ": 3853,
      "çīĽ": 3854,
      "è¯»": 3855,
      "åĪĨæķ°": 3856,
      "åĴĮæİ¥": 3857,
      "åĴĮéŀĭ": 3858,
      "çĽĳ": 3859,
      "å®¹è®¸": 3860,
      "åº¦æ°¢": 3861,
      "èĦı": 3862,
      "¡æ¬¾": 3863,
      "éĺ²æĬ¤è£ħå¤ĩ": 3864,
      "è®Ń": 3865,
      "æĿ¡æ¬¾": 3866,
      "|----------------": 3867,
      "130": 3868,
      "1355": 3869,
      "åĮĸåŃ¦å·¥ä¸ļ": 3870,
      "å¦ĤæĪ´éļĲå½¢çľ¼éķľ": 3871,
      "åħ¬åı¸æłĩè¯Ĩ": 3872,
      "åŁºæº¶åīĤ": 3873,
      "ä¸ĭçľ¼çĿĳ": 3874,
      "åķĨåĵģ": 3875,
      "åĤ¨åŃĺäºİ": 3876,
      "Ġäº§åĵģç±»åŀĭ": 3877,
      "é«ĺåº¦": 3878,
      "ä¼ļå¯¹åĻ¨å®ĺ": 3879,
      "åħ¶èĴ¸æ°Ķ": 3880,
      "ĠåĮĸåŃ¦ç»ĦæĪĲ": 3881,
      "æĬĢæľ¯å¼Ģåıĳ": 3882,
      "èĩ³æĸ°é²ľç©ºæ°Ķå¤Ħ": 3883,
      "çĻ»": 3884,
      "ĠæĪĸ": 3885,
      "æĵįä½ľæĹ¶": 3886,
      "æıĲåıĸ": 3887,
      "ĠäºĮæ°§åĮĸç¢³": 3888,
      "9502": 3889,
      "è¿ľç¦»çģ«æºĲ": 3890,
      "åħ¶ä»ĸåį±å®³": 3891,
      "ĠåºŁ": 3892,
      "ç»ĻäºĪ": 3893,
      "56128": 3894,
      "æľĢéĩįè¦ģ": 3895,
      "ç®Ķ": 3896,
      "åºķæ¼Ĩ": 3897,
      "è¯·å°±åĮ»": 3898,
      "è¿Ĳè¾ĵåĲįç§°": 3899,
      "éĿŀå¸¸": 3900,
      "ylene": 3901,
      "Ġcont": 3902,
      "ĠçĽ®": 3903,
      "ç»ĵæŀĦ": 3904,
      "å¾®ç²ī": 3905,
      "4604": 3906,
      "çģ«çģ¾æĹ¶": 3907,
      "çī¹åĪ«åį±éĻ©æĢ§": 3908,
      "è¾¾åĪ°": 3909,
      "Ġæµĭè¯ķé¡¹çĽ®": 3910,
      "è´¨éĩıçĻ¾åĪĨæ¯Ķ": 3911,
      "è´¨éĩıåĪĨæķ°": 3912,
      "ä¸ŃæĸĩåĲįç§°": 3913,
      "åı¯çĩĥæĢ§": 3914,
      "å¢ŀå¡ĳ": 3915,
      "Ġåħ¸åŀĭçī©": 3916,
      "èİ·åıĸ": 3917,
      "Ġthe": 3918,
      "æ¸ħæ°´åĨ²æ´Ĺèĩ³å°ĳ": 3919,
      "åİŁæĸĩæľª": 3920,
      "çĹħçĹĩçĬ¶æĪĸ": 3921,
      "æ¸ĹéĢıæĹ¶éĹ´": 3922,
      "åħ±èģļçī©": 3923,
      "å®īå®ļ": 3924,
      "ĠåĲŀåĴ½æľīå®³": 3925,
      "Ġéĺ²æĬ¤ç±»åŀĭ": 3926,
      "ç«ĭåį³åĳ¼åı«åĮ»çĶŁ": 3927,
      "åĽĽéĥ¨åĪĨ": 3928,
      "éĢģåĮ»": 3929,
      "å°½åı¯èĥ½": 3930,
      "è¿ĻäºĽ": 3931,
      "Ġéħ¸ä»·": 3932,
      "56115": 3933,
      "çªģ": 3934,
      "Ġæ¼±åı£": 3935,
      "GIH": 3936,
      "Ġæ¯ĴçĲĨåŃ¦ä¿¡æģ¯": 3937,
      "çº¤ç»´": 3938,
      "æī©æķ£": 3939,
      "åľ¨å®¤å¤ĸæĪĸ": 3940,
      "Ġç»ĵæŀľ": 3941,
      "éĶ®åŁºæº¶åīĤ": 3942,
      "dustri": 3943,
      "Ġçĩĥçĥ§": 3944,
      "éģĹä¼łæĢ§": 3945,
      "åı¯èĥ½å¯¼èĩ´è¿ĩæķıæĪĸåĵ®åĸĺ": 3946,
      "è±¡å½¢åĽ¾": 3947,
      "åº¦æ°¢éĶ®åŁºæº¶åīĤ": 3948,
      "çĹħçĹĩçĬ¶æĪĸåĳ¼åĲ¸åĽ°éļ¾": 3949,
      "åı¯èĥ½å¯¼èĩ´è¿ĩæķıæĪĸåĵ®åĸĺçĹħçĹĩçĬ¶æĪĸåĳ¼åĲ¸åĽ°éļ¾": 3950,
      "318": 3951,
      "411": 3952,
      "BK": 3953,
      "Fe": 3954,
      "TI": 3955,
      "VA": 3956,
      "]*": 3957,
      "ds": 3958,
      "iz": 3959,
      "ment": 3960,
      "mPa": 3961,
      "¿»": 3962,
      "Â²": 3963,
      "Ġf": 3964,
      "ĠÃĹ": 3965,
      "ĠçĶ²åŁº": 3966,
      "Ġèģļéħ¯æłĳèĦĤ": 3967,
      "ä¸ºæ": 3968,
      "æĢ§çĬ¶": 3969,
      "çĶ¨æ°´åĨ²æ´Ĺ": 3970,
      "002": 3971,
      "0045": 3972,
      "éĩĮ": 3973,
      "åį¸": 3974,
      "èĥĥ": 3975,
      "æ°´åĪĨ": 3976,
      "202": 3977,
      "åĲĪæł¼": 3978,
      "æĪĸèĢħ": 3979,
      "äº§åĵģæ¦Ĥè¿°": 3980,
      "1602": 3981,
      "èĦ¸": 3982,
      "éĺ²æĬ¤è¡£": 3983,
      "ä¹³": 3984,
      "ä¹ī": 3985,
      "åı¯èĥ½æľīå®³": 3986,
      "Ġ38": 3987,
      "åıĬè¿Ľåħ¥åĳ¼åĲ¸éģĵåı¯èĥ½èĩ´åĳ½": 3988,
      "Ġç¬¬åĽĽéĥ¨åĪĨ": 3989,
      "æłĩæ³¨": 3990,
      "756": 3991,
      "è£Ĥ": 3992,
      "çī¹å¼ĤæĢ§éĿ¶åĻ¨å®ĺ": 3993,
      "364": 3994,
      "è§Ħç«ł": 3995,
      "é«ĺæµĵåº¦": 3996,
      "ç¨ł": 3997,
      "éĿ¢æ¼Ĩ": 3998,
      "éĢłæĪĲä¸¥éĩįçľ¼æįŁä¼¤": 3999,
      "èµ·çľ¼çĿĳ": 4000,
      "å¹¶ä¸Ķ": 4001,
      "ä¸ºå¯¹": 4002,
      "ç©ºæ°Ķåĳ¼åĲ¸åĻ¨": 4003,
      "ä¸Ĭä¸ĭçľ¼çĿĳ": 4004,
      "ĠBL": 4005,
      "ĠTR": 4006,
      "æ±¡æŁĵçī©": 4007,
      "371": 4008,
      "éļĨ": 4009,
      "åģļ": 4010,
      "å·¥ä¸ļæ¶ĤæĸĻ": 4011,
      "ĠäºĮæ°§åĮĸ": 4012,
      "ä¸Ļçĥ¯": 4013,
      "ä¸ĻåŁºéħ¯": 4014,
      "ĠKCS": 4015,
      "å°ıéĩıæ³Ħæ¼ı": 4016,
      "Ġçī¹åĪ«": 4017,
      "ä¸īåħĥ": 4018,
      "Ġç²Ĵ": 4019,
      "åĿĩåĮĢ": 4020,
      "çº§åĪ«": 4021,
      "åĸ·æ°´": 4022,
      "ä»£è¡¨": 4023,
      "è¢«æ±¡æŁĵçļĦè¡£æľį": 4024,
      "ĠæĢ¥æĢ§ç»ıåı£": 4025,
      "ĠåĤ¨åŃĺæĿ¡ä»¶": 4026,
      "å°Ĩå®¹åĻ¨": 4027,
      "æ¹¾": 4028,
      "ĠåĬ¨": 4029,
      "å®¤æ¸©": 4030,
      "Ġä¹Ļèĭ¯": 4031,
      "ĠéĢłæĪĲä¸¥éĩįçľ¼æįŁä¼¤": 4032,
      "Ġæ²¹": 4033,
      "ellos": 4034,
      "olve": 4035,
      "çī©çĲĨåıĬ": 4036,
      "ç«Ļ": 4037,
      "æ±ĤåĮ»çĸĹ": 4038,
      "ĠGHSåį±éĻ©æĢ§ç±»åĪ«": 4039,
      "Ġç¨ĢéĩĬ": 4040,
      "ĠETERPHEN": 4041,
      "ĠæĪ´éĺ²æĬ¤æīĭå¥Ĺ": 4042,
      "ĠæĹłèī²æ¶²ä½ĵ": 4043,
      "Ġç´§æĢ¥çĶµè¯Ŀ": 4044,
      "å¦Ĥæľīä¸įéĢĤ": 4045,
      "æĢ¥æķĳä¸Ńå¿ĥ": 4046,
      "Ġä¼ģä¸ļåĲįç§°": 4047,
      "mpl": 4048,
      "å§ĭ": 4049,
      "æµ®åŀĭ": 4050,
      "Ġæīĭéĺ²æĬ¤": 4051,
      "Ġä¸Ļçĥ¯éħ¸": 4052,
      "ä¸¥ç¦ģ": 4053,
      "ĠåİŁ": 4054,
      "åįĹéĢļä½ıåıĭçĶµæľ¨æľīéĻĲåħ¬åı¸": 4055,
      "ĠCHE": 4056,
      "ĠSolvent": 4057,
      "æ¥¼": 4058,
      "çıł": 4059,
      "å¯»æ±ĤåĮ»çĸĹ": 4060,
      "ĠæłĩçŃ¾è¦ģç´ł": 4061,
      "ä¿ĿæĮģåĳ¼åĲ¸èĪĴéĢĤ": 4062,
      "çĨŁ": 4063,
      "Ġæ¬§": 4064,
      "å·¥ç¨ĭæİ§åĪ¶": 4065,
      "å®¹è®¸æµĵåº¦": 4066,
      "ĠåºŁå¼ĥ": 4067,
      "éģĹä¼łæĢ§ç¼ºéĻ·": 4068,
      "ellosolve": 4069,
      "(%)": 4070,
      "025": 4071,
      "225": 4072,
      "394": 4073,
      "480": 4074,
      "CR": 4075,
      "TR": 4076,
      "ht": 4077,
      "ra": 4078,
      "ub": 4079,
      "¡ĳ": 4080,
      "¨¡": 4081,
      "¯æĽ²": 4082,
      "å»º": 4083,
      "çĵ": 4084,
      "Ġv": 4085,
      "Ġåħ¬åı¸": 4086,
      "Ġä»¥": 4087,
      "Ġéĩĳå±ŀ": 4088,
      "ĭ¬": 4089,
      "Ļåİ¿": 4090,
      "åıĶ": 4091,
      "Ġå¡ĳ": 4092,
      "ĠæŁ": 4093,
      "Ġç³": 4094,
      "çļĦäººåĳĺ": 4095,
      "ç»ľ": 4096,
      "2017": 4097,
      "2014": 4098,
      "å°¤": 4099,
      "æ³Ľ": 4100,
      "èĤ¾": 4101,
      "çĽĺ": 4102,
      "æºħ": 4103,
      "éħ¸çĽĲ": 4104,
      "1999": 4105,
      "åĩºæ": 4106,
      "åħ¨éĥ¨": 4107,
      "éĨĩéħ¸": 4108,
      "çĶµåĻ¨": 4109,
      "åį±éĻ©çī¹æĢ§": 4110,
      "ä¸İåİĤåķĨ": 4111,
      "ä¸ĢæŃ¥": 4112,
      "Ġç¬¬äºĶéĥ¨åĪĨ": 4113,
      "Ġåį·": 4114,
      "Ġ512": 4115,
      "åľ°ä¸ĭ": 4116,
      "è£ħçī©": 4117,
      "çĤ¹çĩĥ": 4118,
      "9500": 4119,
      "åĤ¨åŃĺåĴĮ": 4120,
      "åĤ¨åŃĺæ¸©åº¦": 4121,
      "Ġäº§åĵģä¿¡æģ¯": 4122,
      "çģŃçģ«æ³¨æĦıäºĭé¡¹": 4123,
      "Ġ45": 4124,
      "ĠSTP": 4125,
      "è¿Ľä¸ĢæŃ¥": 4126,
      "èĢĲåĮĸåŃ¦åĵģ": 4127,
      "Ġ65": 4128,
      "ĠæĺĨ": 4129,
      "æ¯Ķä¾ĭ": 4130,
      "ç´«": 4131,
      "ç´¯": 4132,
      "ç¢³æ°§åĮĸçī©": 4133,
      "æµģåħ¥": 4134,
      "ç«ĭåį³èĦ±æİīæīĢæľī": 4135,
      "ä½İäºİ": 4136,
      "ä¼ģä¸ļåĲįç§°": 4137,
      "372": 4138,
      "æ¼ĨèĨľ": 4139,
      "ç²ĺç»ĵ": 4140,
      "éķ¿æĹ¶éĹ´": 4141,
      "etal": 4142,
      "æĮĩç¤º": 4143,
      "0225": 4144,
      "åĨħè£ħçī©": 4145,
      "å¸¸çĨŁ": 4146,
      "å¹²çĩ¥å¤Ħ": 4147,
      "åĿĩèģļçī©": 4148,
      "éĢĤçĶ¨çģŃçģ«åīĤ": 4149,
      "æĺıçĿ¡æĪĸçľ©æĻķ": 4150,
      "Ġå¦Ĥçļ®èĤ¤": 4151,
      "Ġå¦Ĥè¯¯": 4152,
      "å½¢æĪĲç²īå°ĺ": 4153,
      "ĠFDA": 4154,
      "éķ¿æľŁæİ¥è§¦": 4155,
      "0041": 4156,
      "16012": 4157,
      "Ġch": 4158,
      "Ġæ°´åĪĨ": 4159,
      "ility": 4160,
      "ĠVin": 4161,
      "çĶ¨æ°´å°ıå¿ĥåĨ²æ´ĹåĩłåĪĨéĴŁ": 4162,
      "ĠUN": 4163,
      "isp": 4164,
      "éĨĭéħ¸éħ¯": 4165,
      "£Ģæµĭ": 4166,
      "ä¿Ŀè¯ģæĪĸ": 4167,
      "501774": 4168,
      "Ġé«ĺåĪĨåŃĲéĩı": 4169,
      "ç»Ĩç²Ĵå¾Ħ": 4170,
      "äº¤ä»ĺ": 4171,
      "åĪĩåĭ¿ç»Ļ": 4172,
      "æķ´çĲĨæĹ¥æľŁ": 4173,
      "Ġç¦ģéħįçī©": 4174,
      "æº¶äºİæ°´": 4175,
      "åĲĦç§į": 4176,
      "æº¶è§£åº¦": 4177,
      "Ġåĳ¼åĲ¸ç³»ç»Ł": 4178,
      "éĺ²éĿĻçĶµæİªæĸ½": 4179,
      "æŃ£åİĭèĩªç»Ļå¼ıåĳ¼åĲ¸åĻ¨": 4180,
      "æ¸ħéĻ¤æĸ¹æ³ķ": 4181,
      "atings": 4182,
      "ç»ıæµİæĬĢæľ¯å¼Ģåıĳ": 4183,
      "å°ģéĹŃåŀĭ": 4184,
      "ĠpHåĢ¼": 4185,
      "çĥĪåıįåºĶ": 4186,
      "esso": 4187,
      "çĽ¸å½ĵè¿ľ": 4188,
      "ĠçĽ¸å¯¹å¯Ĩåº¦": 4189,
      "èĦĤèĤªæĹıèģļå¼Ĥæ°°éħ¸éħ¯": 4190,
      "ĠæıĲé«ĺ": 4191,
      "Ġçİ¯å¢ĥåį±å®³": 4192,
      "èĻĳ": 4193,
      "èĢĲåĢĻæĢ§": 4194,
      "æ°´å½»åºķåĨ²æ´Ĺèĩ³å°ĳ": 4195,
      "æĶ¯æĮģ": 4196,
      "çļĦçĹĩçĬ¶åĴĮ": 4197,
      "Ġéĥ¨åĪĨ": 4198,
      "ĠåĪĿæ²¸çĤ¹": 4199,
      "ä¸İåİĤåķĨèµĦæĸĻ": 4200,
      "5017744": 4201,
      "232": 4202,
      "355": 4203,
      ":---": 4204,
      "BA": 4205,
      "FDA": 4206,
      "HO": 4207,
      "LF": 4208,
      "LV": 4209,
      "PM": 4210,
      "iO": 4211,
      "nex": 4212,
      "oc": 4213,
      "tern": 4214,
      "±åĴĮ": 4215,
      "´åĲĪ": 4216,
      "¼çĹĽ": 4217,
      "Â¹": 4218,
      "åĹ": 4219,
      "æ¨¡": 4220,
      "çĭ¬": 4221,
      "Ġä¸ģéĨĩ": 4222,
      "Ġèĩª": 4223,
      "Ġor": 4224,
      "Ġçļ®èĤ¤åĪºæ¿Ģ": 4225,
      "Ġéĩĩåıĸ": 4226,
      "ĠéĢıæĺİæ¶²ä½ĵ": 4227,
      "Ġfor": 4228,
      "ĠæĢĢçĸĳ": 4229,
      "ĠèģĶåĲĪåĽ½": 4230,
      "ĢèıĮ": 4231,
      "Įåħ¨": 4232,
      "ıæķ£": 4233,
      "ĳå¼Ģ": 4234,
      "ä¸°": 4235,
      "ä¸ĥ": 4236,
      "æ°®": 4237,
      "ĠæĴ": 4238,
      "å®Ī": 4239,
      "ï¼ĪÂ°": 4240,
      "çļĦæĿ¡ä»¶": 4241,
      "çļĦä¿ĿæĬ¤": 4242,
      "001": 4243,
      "è¯¦": 4244,
      "Ġ110": 4245,
      "Ġ124": 4246,
      "åįĩ": 4247,
      "åĮĸæķ°æį®": 4248,
      "**ï¼ļ+": 4249,
      "åĴĮå®īåħ¨": 4250,
      "åı¯éĢłæĪĲ": 4251,
      "åı¯çĶ¨äºİ": 4252,
      "ä¿ĥ": 4253,
      "2018": 4254,
      "æĪĸåħ¶ä»ĸ": 4255,
      "Ġ28": 4256,
      "Ġ217": 4257,
      "1607": 4258,
      "ine": 4259,
      "ä¸Ńè·¯": 4260,
      "å¤Ħäºİ": 4261,
      "æİ¥è§¦æİ§åĪ¶": 4262,
      "æĿŁ": 4263,
      "åĩı": 4264,
      "ä¿Ŀæļĸ": 4265,
      "æĸ½å·¥": 4266,
      "åı¯èĥ½èĩ´çĻĮ": 4267,
      "æī«": 4268,
      "|------|:--------": 4269,
      "Ġ35": 4270,
      "ĠCN": 4271,
      "åĮĸåŃ¦çī©è´¨": 4272,
      "æ¸ħæ´ģ": 4273,
      "èī²æ¶²ä½ĵ": 4274,
      "ĠHY": 4275,
      "å¤§çģ«": 4276,
      "å¤§äºİ": 4277,
      "SDSç¼ĸåı·": 4278,
      "9560": 4279,
      "åķĨä¸ļ": 4280,
      "å¿Į": 4281,
      "çģŃçģ«æİªæĸ½": 4282,
      "anco": 4283,
      "ĠSpec": 4284,
      "çĥŃåĪĨè§£": 4285,
      "5164": 4286,
      "èĢĲæº¶åīĤ": 4287,
      "esist": 4288,
      "çĬ¶åĨµ": 4289,
      "Ġåį±éĻ©ç±»åĪ«": 4290,
      "æľīå®³çī©è´¨": 4291,
      "æľīå®³æĪĲåĪĨ": 4292,
      "æ¯Ķéĩį": 4293,
      "ĠEth": 4294,
      "Ġä¸įæ··æº¶": 4295,
      "æīĭéĺ²æĬ¤": 4296,
      "887": 4297,
      "âĤĢ": 4298,
      "æĶ¶è®¾å¤ĩæİ¥åľ°": 4299,
      "0400": 4300,
      "ĠæĹłèµĦæĸĻ": 4301,
      "å·¥ä¸ļçĶ¨éĢĶ": 4302,
      "çĸ¼çĹĽ": 4303,
      "ç²ĺåĲĪåīĤ": 4304,
      "Ġå¤§": 4305,
      "9568": 4306,
      "Ġå®Įåħ¨": 4307,
      "Ġæº¶äºİ": 4308,
      "åĩĨç¡®": 4309,
      "æľĢå¤§": 4310,
      "Ġproduct": 4311,
      "é²ģ": 4312,
      "ING": 4313,
      "Ġçī©åĵģ": 4314,
      "åİŁæĸĻ": 4315,
      "Ġçī¹å®ļ": 4316,
      "å°ĳéĩı": 4317,
      "åĨħéħ°èĥº": 4318,
      "åħ·æľīèī¯å¥½çļĦ": 4319,
      "è¶Ĭ": 4320,
      "ç¡®è®¤": 4321,
      "å¼ºéħ¸": 4322,
      "Ġå°ı": 4323,
      "ĠæĮī": 4324,
      "ĠæĮ¥åıĳ": 4325,
      "åĳ¼åı«åĮ»çĶŁ": 4326,
      "åĳ¼åı«è§£æ¯Ĵä¸Ńå¿ĥæĪĸåĮ»çĶŁ": 4327,
      "Ġæº¶åīĤåŀĭ": 4328,
      "ä¸Ĭæµ·æħ§æĸ°åĮĸå·¥æľīéĻĲåħ¬åı¸": 4329,
      "ĠéĢłæĪĲä¸¥éĩįçľ¼åĪºæ¿Ģ": 4330,
      "æ¶Īæ³¡": 4331,
      "ĠCASåı·çłģ": 4332,
      "Ġæ²¡æľī": 4333,
      "ä¸ĵéĹ¨": 4334,
      "Ġæ·¡é»Ħèī²": 4335,
      "ĠåĮħè£ħè§Ħæł¼": 4336,
      "ç¨ĢéĩĬåīĤ": 4337,
      "Ġé¢ľæĸĻ": 4338,
      "æľ¨åĻ¨": 4339,
      "çķħéĢļ": 4340,
      "80001": 4341,
      "åŁºæ©¡èĥ¶": 4342,
      "éĨĭéħ¸ä¹Ļçĥ¯": 4343,
      "æĳĦåħ¥": 4344,
      "å¹¿æ³Ľ": 4345,
      "éĵģæ¡¶": 4346,
      "ĠåŃĺæĶ¾åľ¨éĢļé£İèī¯å¥½çļĦåľ°æĸ¹": 4347,
      "Ġç½ĳ": 4348,
      "èĬ³é¦ĻæĹı": 4349,
      "æĪĳä»¬çļĦ": 4350,
      "Ġç§ĳ": 4351,
      "èĬ³çĥĥæº¶åīĤ": 4352,
      "|------|--------|": 4353,
      "ä¸īèģļæ°°èĥºçĶ²éĨĽæłĳèĦĤ": 4354,
      "çłĶåıĳ": 4355,
      "çĨĶèŀį": 4356,
      "åħįè´£å£°æĺİ": 4357,
      "Ġå°ĨæĤ£èĢħç§»èĩ³": 4358,
      "ĠYellow": 4359,
      "ĠACumist": 4360,
      "å®īåħ¨èµĦæĸĻè¡¨": 4361,
      "ĠçĶŁæ®ĸæ¯ĴæĢ§": 4362,
      "å¾ªçİ¯": 4363,
      "Ġå®īå¾½": 4364,
      "Ġéķ¿åħ´æĿĲæĸĻå·¥ä¸ļèĤ¡ä»½æľīéĻĲåħ¬åı¸": 4365,
      "å®ŀéªĮå®¤": 4366,
      "Ġæ´»æĢ§": 4367,
      "ĠçĽ®æµĭ": 4368,
      "Ġåħ¸åŀĭçī©åĮĸæķ°æį®": 4369,
      "çī¹å¼ĤæĢ§éĿ¶åĻ¨å®ĺæ¯ĴæĢ§": 4370,
      "ç¨łæ¶²ä½ĵ": 4371,
      "ĠåºŁå¼ĥå¤Ħç½®": 4372,
      "åıĶä¸ģåŁº": 4373,
      "Ġç³»": 4374,
      "å°¤åħ¶": 4375,
      "308": 4376,
      "600": 4377,
      "EA": 4378,
      "NF": 4379,
      "RC": 4380,
      "XID": 4381,
      "YL": 4382,
      "dong": 4383,
      "ium": 4384,
      "umin": 4385,
      "ºçĹĽ": 4386,
      "æ£": 4387,
      "æ§½": 4388,
      "æ½ľåľ¨": 4389,
      "çĲ": 4390,
      "èĽ": 4391,
      "Ġæľī": 4392,
      "Ġéħ¸åĢ¼": 4393,
      "ĠèģļåĲĪçī©": 4394,
      "ħ¢æĢ§": 4395,
      "ĩæ³¨": 4396,
      "įè´£å£°æĺİ": 4397,
      "ĲæĸĻ": 4398,
      "åĪºçĹĽ": 4399,
      "Ġåĩ": 4400,
      "Ġæħ¢æĢ§": 4401,
      "æĢ§ä¸İ": 4402,
      "çļĦåĪĨç±»": 4403,
      "çļĦçİ¯å¢ĥ": 4404,
      "çļĦå½±åĵį": 4405,
      "æĪ¿": 4406,
      "009": 4407,
      "åĪĨæŀ": 4408,
      "éĺ²æ¯Ĵ": 4409,
      "åĮĸçĤ¹": 4410,
      "åĲ¸æ°§": 4411,
      "201": 4412,
      "2021": 4413,
      "å°¼": 4414,
      "æ³°": 4415,
      "ä¸įåĲĮ": 4416,
      "äº§åĵģè§Ħæł¼": 4417,
      "Ġ285": 4418,
      "æµ¦": 4419,
      "éħ¸äºĮ": 4420,
      "æĿ¾": 4421,
      "æĿĢèıĮ": 4422,
      "190": 4423,
      "åĩ¹": 4424,
      "åĩ»": 4425,
      "æīĺ": 4426,
      "ä¸ģèħĪ": 4427,
      "å¾Ī": 4428,
      "ä¸İæĢ§çĬ¶": 4429,
      "æ±¡": 4430,
      "æ±Łèĭı": 4431,
      "åĢĴ": 4432,
      "çĩĥæ¸©åº¦": 4433,
      "ĠPoly": 4434,
      "æłĳèĦĤçļĦ": 4435,
      "åĪ¶å¤ĩ": 4436,
      "Ġ021": 4437,
      "èģļçĥ¯çĥĥ": 4438,
      "Ġç¬¬åħŃ": 4439,
      "Ġ58": 4440,
      "Ġ516": 4441,
      "æŃ£ç¡®": 4442,
      "åľ°éĿ¢": 4443,
      "å¿Ĺ": 4444,
      "è§Ħç¨ĭ": 4445,
      "å¯¹çĶŁèĤ²èĥ½åĬĽæĪĸèĥİåĦ¿éĢłæĪĲä¼¤å®³": 4446,
      "é£İéĻ©": 4447,
      "æ¶ĤæĸĻçļĦ": 4448,
      "é«ĺçļĦ": 4449,
      "é«ĺæ¸©": 4450,
      "é«ĺåĪĨåŃĲ": 4451,
      "Ġ400": 4452,
      "ä¹ĻéĨĩ": 4453,
      "ä¹ĻäºĮéĨĩ": 4454,
      "ä¼ļå½±åĵį": 4455,
      "æĹłæ³ķ": 4456,
      "è½¯": 4457,
      "è½½": 4458,
      "å¹¶å°±åĮ»": 4459,
      "å½¢æĢģ": 4460,
      "Ġ66": 4461,
      "è¯ĨåĪ«": 4462,
      "å¤ĦçĲĨæĸ¹æ³ķ": 4463,
      "èĭ¯å¹¶": 4464,
      "åĪ°æĸ°é²ľç©ºæ°Ķå¤Ħ": 4465,
      "åĪ°çİ¯å¢ĥä¸Ń": 4466,
      "10021": 4467,
      "Ġ2020": 4468,
      "3311": 4469,
      "æįŁåĿı": 4470,
      "ĠåĮĸåŃ¦åĵģèĭ±æĸĩ": 4471,
      "ç«ĭåį³è¿Ľè¡Įäººå·¥åĳ¼åĲ¸": 4472,
      "888": 4473,
      "æ³¨åĨĮ": 4474,
      "åį±éĻ©æĢ§åĪĨç±»": 4475,
      "åħīæĢ§": 4476,
      "éĹŃæĿ¯": 4477,
      "èģĶç»ľ": 4478,
      "9561": 4479,
      "åĪĨåŃĲå¼ı": 4480,
      "æ¬¡æ": 4481,
      "æľĢä½³": 4482,
      "ç¾§": 4483,
      "æĮĩåįĹ": 4484,
      "Ġåħįè´£å£°æĺİ": 4485,
      "æ¸ħæ´ĹåĲİæĸ¹åı¯éĩįæĸ°ä½¿çĶ¨": 4486,
      "é¢ĦæľŁ": 4487,
      "å¸Ĥç»ıæµİæĬĢæľ¯å¼Ģåıĳ": 4488,
      "çĶŁäº§ä¼ģä¸ļ": 4489,
      "ĠçĶ¨æ°´": 4490,
      "åħ·æľīä¼ĺå¼ĤçļĦ": 4491,
      "éĢĤçĶ¨æĢ§": 4492,
      "ç¦ģæŃ¢åĤ¬åĲĲ": 4493,
      "å¡«": 4494,
      ":------:|": 4495,
      "æ°¯åĮĸ": 4496,
      "å¤ļç§į": 4497,
      "Ġçİ»çĴĥ": 4498,
      "é£Łåĵģæ·»åĬłåīĤ": 4499,
      "Ġ0532": 4500,
      "æİĴæ°´": 4501,
      "æĲ¬": 4502,
      "åıĺæĢ§": 4503,
      "MIS": 4504,
      "MIBK": 4505,
      "é¥®æ°´": 4506,
      "åĲ¸æĶ¶æĿĲæĸĻ": 4507,
      "çĿ¡æĪĸæĻķçľ©": 4508,
      "Ġèī²åº¦": 4509,
      "Ġåįģä¸Ģ": 4510,
      "éĩĩåıĸéĺ²éĿĻçĶµæİªæĸ½": 4511,
      "Ġä¸İçİ¯æ°§æłĳèĦĤ": 4512,
      "Ġæ±Łèĭı": 4513,
      "ĠæĿĲæĸĻ": 4514,
      "çĶ¨èĤ¥çļĤæ°´åĴĮ": 4515,
      "æĳ©": 4516,
      "æĳĺ": 4517,
      "OLO": 4518,
      "æº¶è§£æĢ§": 4519,
      "åįİä¼": 4520,
      "æŀĦæĪĲ": 4521,
      "Ġåı¯èĥ½éĢłæĪĲæĺıæĺıæ¬²çĿ¡æĪĸçľ©æĻķ": 4522,
      "Ġç¼ĸåı·": 4523,
      "åĨħå®¹ä¾Ŀæį®": 4524,
      "åħħåĪĨéĢļé£İ": 4525,
      "å®¢æĪ·æľįåĬ¡": 4526,
      "ä¸¥æł¼": 4527,
      "æ¸ħçĲĨæĸ¹æ³ķ": 4528,
      "Ġå±±": 4529,
      "Ġç¦ģæŃ¢åĤ¬åĲĲ": 4530,
      "åł¤": 4531,
      "æī¹åĩĨ": 4532,
      "ĠACGIH": 4533,
      "åį°åĪ·æ²¹å¢¨": 4534,
      "ä½Ľå±±": 4535,
      "éģµå®Ī": 4536,
      "åıĹå®³äººè½¬ç§»åĪ°ç©ºæ°Ķæĸ°é²ľå¤Ħ": 4537,
      "Chemie": 4538,
      "Ġæ¾Ħæ¸ħéĢıæĺİ": 4539,
      "è¯·åıĤéĺħ": 4540,
      "Ġè¿ħéĢŁèĦ±ç¦»çİ°åľºèĩ³ç©ºæ°Ķæĸ°é²ľå¤Ħ": 4541,
      "æĢĿåĪĽ": 4542,
      "Ġå¸¸å·ŀ": 4543,
      "ĠåŁºäºİæĢ»éħįæĸ¹": 4544,
      "Ġç¼ĸåĪ¶ä¾Ŀæį®": 4545,
      "æķ°æį®é¡µæĽ´æĸ°": 4546,
      "åĮ»çĶŁçļĦçī¹åĪ«": 4547,
      "çĶ¨æ°´æ¸ħæ´Ĺçļ®èĤ¤": 4548,
      "Ġçİ¯å·±éħ®": 4549,
      "é«ĺçĥŃèĥ½å¼ķèµ·çĩĥçĥ§çĪĨçĤ¸": 4550,
      "åĴĮæİ¥æĶ¶è®¾å¤ĩæİ¥åľ°": 4551,
      "çĻ»è®°": 4552,
      "æľĢéĩįè¦ģçļĦçĹĩçĬ¶åĴĮ": 4553,
      "XIDE": 4554,
      "åĪĨæŀĲ": 4555,
      "Ġç¬¬åħŃéĥ¨åĪĨ": 4556,
      "%ãĢĤ": 4557,
      "215": 4558,
      "627": 4559,
      "973": 4560,
      "Desmo": 4561,
      "EP": 4562,
      "MR": 4563,
      "PH": 4564,
      "PI": 4565,
      "PMA": 4566,
      "REACH": 4567,
      "TAN": 4568,
      "UK": 4569,
      "eong": 4570,
      "ham": 4571,
      "ia": 4572,
      "ve": 4573,
      "vest": 4574,
      "well": 4575,
      "yc": 4576,
      "yd": 4577,
      "ywell": 4578,
      "´æİ¥": 4579,
      "¿çī©": 4580,
      "¿åĬ¿": 4581,
      "èĶ": 4582,
      "Ġar": 4583,
      "ĠéĢĶå¾Ħ": 4584,
      "Ġæľ¬äº§åĵģ": 4585,
      "ĠèŃ¦åĳĬ": 4586,
      "Ġä¿Ŀè´¨æľŁ": 4587,
      "Ġæ°¯ä¹Ļçĥ¯": 4588,
      "Ġåıªèĥ½": 4589,
      "Ġåħ¬æĸ¤": 4590,
      "ģå¹³": 4591,
      "åı¶": 4592,
      "åĪĴ": 4593,
      "Ġåĵ": 4594,
      "çļĦéĺ²æĬ¤": 4595,
      "çļĦå®¹åĻ¨": 4596,
      "éĺ»": 4597,
      "åŃĹ": 4598,
      "Ġ19": 4599,
      "Ġ180": 4600,
      "|-------|": 4601,
      "105": 4602,
      "è¿ĺ": 4603,
      "è¿Ł": 4604,
      "éĨĴ": 4605,
      "çī©æĪĲåĪĨ": 4606,
      "æĺĨ": 4607,
      "Ġé¥": 4608,
      "æ°´ä¸Ń": 4609,
      "2085": 4610,
      "æ³ª": 4611,
      "ï¼ĽâĹı": 4612,
      "ä¸įå½±åĵį": 4613,
      "ä¸įæŀĦæĪĲ": 4614,
      "éĩıæ¸©æ°´": 4615,
      "ĠâĹ": 4616,
      "è´Ń": 4617,
      "éħ¸æĢ§": 4618,
      "åĨ°": 4619,
      "æľ¬æĸĩ": 4620,
      "å¤Ħä½¿çĶ¨": 4621,
      "æİ¥è§¦åĪ°": 4622,
      "åĪ«åĲį": 4623,
      "æ´ĭ": 4624,
      "175": 4625,
      "éĿ´": 4626,
      "åĪºæ¿Ģçļ®èĤ¤": 4627,
      "Ġ300": 4628,
      "Ġ309": 4629,
      "åĢ¾": 4630,
      "åıĬå®īåħ¨æĬĢæľ¯è¯´æĺİä¹¦": 4631,
      "åľ¨ç©ºæ°Ķä¸Ń": 4632,
      "æ²³": 4633,
      "æ²Ł": 4634,
      "ä¸Ģå®ļ": 4635,
      "åĲ¸åħ¥åį±å®³": 4636,
      "æ¸ħæ¼Ĩ": 4637,
      "866": 4638,
      "åľ°è¡¨": 4639,
      "åĤ¨åŃĺæĿ¡ä»¶": 4640,
      "Ġäº§åĵģæķ°æį®è¡¨": 4641,
      "çººç»ĩ": 4642,
      "ana": 4643,
      "ĠSE": 4644,
      "ĠSt": 4645,
      "ç¦»åŃĲ": 4646,
      "5163": 4647,
      "ata": 4648,
      "atic": 4649,
      "æ¯ĴæĢ§ç±»åĪ«": 4650,
      "çĬ¶æ°´": 4651,
      "ĠGR": 4652,
      "å¤ĦçĲĨçļĦ": 4653,
      "æīĢæıĲä¾ĽçļĦ": 4654,
      "æľīå®³çļĦ": 4655,
      "æľīå®³å¹¶åħ·æľīéķ¿æľŁæĮģç»Ńå½±åĵį": 4656,
      "å¼ıéĿ¢ç½©": 4657,
      "ĠEP": 4658,
      "Ġ2019": 4659,
      "333": 4660,
      "34627": 4661,
      "æµģæ³ª": 4662,
      "ĠAc": 4663,
      "art": 4664,
      "éļĶ": 4665,
      "è¿ĲåĬ¨": 4666,
      "ĠRoad": 4667,
      "6014": 4668,
      "Ġæµ·": 4669,
      "Ġæµģå¹³": 4670,
      "Ġåį±éĻ©æĢ§åĪĨç±»": 4671,
      "Ġ98": 4672,
      "Ġå®¹": 4673,
      "ç»ıè¿ĩ": 4674,
      "çĥ§ä¼¤": 4675,
      "0782": 4676,
      "ĠLI": 4677,
      "äº§çĶŁç²īå°ĺ": 4678,
      "å±ŀæĢ§": 4679,
      "ç²īå°ĺçĪĨçĤ¸": 4680,
      "ç½©åħī": 4681,
      "Ġåı¯çĩĥ": 4682,
      "æĻĴ": 4683,
      "è¡¨éĿ¢å¼ł": 4684,
      "ĠåĲ¸åħ¥æĢ§": 4685,
      "Ġä¸Ģæ°§åĮĸç¢³": 4686,
      "Ġåı¯èĥ½èĩ´çĻĮ": 4687,
      "è¢«æ±¡æŁĵçļĦè¡£çī©": 4688,
      "éĨļæĶ¹æĢ§": 4689,
      "æ°´çĶŁçİ¯å¢ĥ": 4690,
      "ä¹ĭåīį": 4691,
      "èĭ¥åıĳçĶŁ": 4692,
      "èĭ¥åĳ¼åĲ¸åĽ°éļ¾": 4693,
      "çĶ¨å¤§éĩıçļĦ": 4694,
      "éĺ²èĮĥæİªæĸ½": 4695,
      "å¡ĳæĢ§": 4696,
      "éĻĦçĿĢåĬĽåĴĮ": 4697,
      "ĠåĬ©": 4698,
      "Ġå¼º": 4699,
      "ĠSDSç¼ĸåı·": 4700,
      "åı¯èĥ½ä¼ļå¯¼èĩ´": 4701,
      "åıĺåĮĸ": 4702,
      "å¿ħé¡»ä½¿çĶ¨": 4703,
      "ä¸ĵåĪ©": 4704,
      "æħ¢": 4705,
      "Ġæº¶è§£åº¦": 4706,
      "åį°æ²¹å¢¨": 4707,
      "æº¶æĢ§æ³¡æ²«": 4708,
      "çī©çĲĨåį±éĻ©": 4709,
      "ç§¯ç´¯": 4710,
      "è¶³éĩıæ¸©æ°´": 4711,
      "å¢ŀåĬł": 4712,
      ":|:-------------": 4713,
      "ä¸įå¾Ĺè¿Ľé£Ł": 4714,
      "Ġçī©çĲĨçĬ¶æĢģ": 4715,
      "Ġto": 4716,
      "åİŁæĸĩæķ´çĲĨ": 4717,
      "éĴĽçĻ½ç²ī": 4718,
      "æĺ¾èĳĹ": 4719,
      "åĽŀçĩĥ": 4720,
      "ĠhPa": 4721,
      "Ġç¾Ł": 4722,
      "æĢ¥æķĳäººåĳĺ": 4723,
      "ĠåĽºä½ĵåĲ«éĩı": 4724,
      "oneywell": 4725,
      "henol": 4726,
      "Ġç²īå°ĺ": 4727,
      "å§¿åĬ¿": 4728,
      "Ġä¸ĻäºĮéĨĩçĶ²éĨļ": 4729,
      "åħĶåŃĲ": 4730,
      "Ġ8219": 4731,
      "ĠçĶŁäº§ä¼ģä¸ļ": 4732,
      "Ġæ¹Ľæĸ°æłĳèĦĤ": 4733,
      "åİļåº¦": 4734,
      "ETERKYD": 4735,
      "ĠéĴĽ": 4736,
      "Ġ(%)**": 4737,
      "aterial": 4738,
      "ç½Ĳå¤´æ¶ĤæĸĻ": 4739,
      "OCK": 4740,
      "æ¬§çĽŁ": 4741,
      "è¢«åĪĨç±»ä¸º": 4742,
      "å¹¶åı¯æĸ¹ä¾¿": 4743,
      "90932": 4744,
      "rock": 4745,
      "Ġé¢Ħéĺ²": 4746,
      "âĤħâĤĢ": 4747,
      "å¦ĤæĪ´éļĲå½¢çľ¼éķľå¹¶åı¯æĸ¹ä¾¿": 4748,
      "åİŁæĸĩæľªæłĩæ³¨": 4749,
      "dustrial": 4750,
      "VAH": 4751,
      "Ġç²Ĵå¾Ħ": 4752,
      "çıłæµ·": 4753,
      "ç²ĺç»ĵåīĤ": 4754,
      "æ¨¡ç³Ĭ": 4755,
      "åĮĸåŃ¦çī©è´¨åĲįå½ķ": 4756,
      "çłĶåıĳä¸Ńå¿ĥ": 4757,
      "åĮ»çĶŁçļĦçī¹åĪ«æıĲç¤º": 4758,
      "hamrock": 4759,
      "vestro": 4760,
      "è¡¨éĿ¢å¼łåĬĽ": 4761,
      ")-": 4762,
      "325": 4763,
      "311": 4764,
      "610": 4765,
      "760": 4766,
      "960": 4767,
      ":/": 4768,
      "BT": 4769,
      "Em": 4770,
      "Hg": 4771,
      "HRJ": 4772,
      "NG": 4773,
      "SA": 4774,
      "ap": 4775,
      "ber": 4776,
      "ho": 4777,
      "iox": 4778,
      "lor": 4779,
      "ry": 4780,
      "ryl": 4781,
      "tp": 4782,
      "ttp": 4783,
      "ue": 4784,
      "yz": 4785,
      "¦å°Ķ": 4786,
      "®å·¥": 4787,
      "Â±": 4788,
      "Ġat": 4789,
      "Ġä½İ": 4790,
      "Ġst": 4791,
      "Ġæĸĩä»¶": 4792,
      "Ġä¾Ŀæį®": 4793,
      "ĠåıĤæķ°": 4794,
      "ĠãĢĬ": 4795,
      "ĠèģĮä¸ļæİ¥è§¦éĻĲåĢ¼": 4796,
      "ģéĹŃ": 4797,
      "Ħı": 4798,
      "ī´": 4799,
      "įå°¼": 4800,
      "ĵå»¶": 4801,
      "ĺæ²¹": 4802,
      "Ļ®å·¥": 4803,
      "çĶĺæ²¹": 4804,
      "åħ«": 4805,
      "æ°Ł": 4806,
      "Ġæĳ": 4807,
      "ï¼ĪâĦĥï¼ī": 4808,
      "Ġç¢": 4809,
      "Ġç¿»": 4810,
      "æĢ§åĪºæ¿Ģ": 4811,
      "çļĦä¿¡æģ¯": 4812,
      "éĺŁ": 4813,
      "éĻĪ": 4814,
      "Ġ17": 4815,
      "Ġ112": 4816,
      "Ġ135": 4817,
      "éĺ²çģ«": 4818,
      "æľīåĪºæ¿ĢæĢ§": 4819,
      "èĥŀ": 4820,
      "ç»ĥ": 4821,
      "æ°´åīĤ": 4822,
      "æ°´çİ¯å¢ĥ": 4823,
      "æ°´å¹³": 4824,
      "æ°´çĶĺæ²¹": 4825,
      "æ³¥": 4826,
      "çģ«åĬ¿": 4827,
      "ç±»æłĳèĦĤ": 4828,
      "æĪĸæľī": 4829,
      "æĪĸéĩįå¤į": 4830,
      "ä¸įéľĢè¦ģ": 4831,
      "æİ¥åıĹ": 4832,
      "å®¹æĺĵ": 4833,
      "1600": 4834,
      "1609": 4835,
      "è´¹": 4836,
      "çİ¯ä¿Ŀ": 4837,
      "æ·±": 4838,
      "è®º": 4839,
      "çļ®èĤ¤èĩ´æķı": 4840,
      "ä¹¡": 4841,
      "ä¹ħ": 4842,
      "ä¿ĿåŃĺåľ¨": 4843,
      "éĿł": 4844,
      "æĸ½æķĳ": 4845,
      "åĬłçĥŃ": 4846,
      "ä¸ģéĨļ": 4847,
      "Ġ374": 4848,
      "èµ°": 4849,
      "äºĮå¼Ĥæ°°éħ¸éħ¯": 4850,
      "åį±éĻ©çļĦ": 4851,
      "åį±éĻ©åĮĸåŃ¦åĵģ": 4852,
      "åį±éĻ©ç»ĦåĪĨ": 4853,
      "åį±éĻ©çī©åĵģ": 4854,
      "åį±éĻ©çī©è´¨æĪĸæ··åĲĪçī©": 4855,
      "ä¸İåħ¬åı¸æłĩè¯Ĩ": 4856,
      "æ´Ĺæīĭ": 4857,
      "æ´ĹåĩĢ": 4858,
      "ĠCol": 4859,
      "ĠCellosolve": 4860,
      "åĮĸåŃ¦å®īåħ¨": 4861,
      "Ġ07": 4862,
      "éĢļå¸¸": 4863,
      "æĹ¶ä½¿çĶ¨": 4864,
      "åĲ¸åħ¥åı¯èĥ½å¯¼èĩ´è¿ĩæķıæĪĸåĵ®åĸĺçĹħçĹĩçĬ¶æĪĸåĳ¼åĲ¸åĽ°éļ¾": 4865,
      "æ¯ĴçĲĨåŃ¦": 4866,
      "8669": 4867,
      "çĶ²éħ¯": 4868,
      "Ġ515": 4869,
      "å±ķ": 4870,
      "å®īåħ¨ç®¡çĲĨ": 4871,
      "åľ°åıĸåĩº": 4872,
      "559": 4873,
      "æĸ°ä¸°": 4874,
      "éĹªçĤ¹": 4875,
      "åį±å®³è¾¨è¯ĨèµĦæĸĻ": 4876,
      "è§ĦèĮĥ": 4877,
      "Ġäº§åĵģæĬĢæľ¯è¯´æĺİä¹¦": 4878,
      "ç©ºéĹ´": 4879,
      "åĽ½éļĨ": 4880,
      "é«ĺæĢ§èĥ½": 4881,
      "ç½®äºİ": 4882,
      "Ġ74": 4883,
      "Ġ78": 4884,
      "Ġ787": 4885,
      "æĿĲæ¶Ĥå±Ĥ": 4886,
      "æĹłæº¶åīĤ": 4887,
      "ä¸ºåĩĨ": 4888,
      "å¹²æ²Ļ": 4889,
      "18000": 4890,
      "ese": 4891,
      "ĠNO": 4892,
      "èĭ¯ä»£": 4893,
      "çĶ¨äºİéĩĳå±ŀ": 4894,
      "åĪ°çĽ¸å½ĵè¿ľ": 4895,
      "ĠTS": 4896,
      "ĠTechnolo": 4897,
      "åıįåºĶæ´»æĢ§": 4898,
      "æīĭéĥ¨éĺ²æĬ¤": 4899,
      "è®¾æĸ½": 4900,
      "æĺ¯ä¸Ģç§į": 4901,
      "ä¾ĽåºĶå½¢å¼ı": 4902,
      "æ±¡æŁĵè¡£æľį": 4903,
      "è¡Įä¸ļ": 4904,
      "ĠAl": 4905,
      "åĲİåĨį": 4906,
      "åĮħè£ħå®¹åĻ¨": 4907,
      "éĵĤ": 4908,
      "è®¾å¤ĩåĴĮ": 4909,
      "ĠæĹłå·²çŁ¥": 4910,
      "åıĸä¸ĭ": 4911,
      "ä¾ĽåºĶåķĨåĲįç§°": 4912,
      "ç§»éĻ¤": 4913,
      "ç²ĺç¨łæ¶²ä½ĵ": 4914,
      "Ġå¤©": 4915,
      "Ġåį±éĻ©æĢ§è¯´æĺİ": 4916,
      "åı£ç½©": 4917,
      "æľĢé«ĺ": 4918,
      "ete": 4919,
      "ĠåĽ½": 4920,
      "ç¤ºæĪĸ": 4921,
      "Ġçī¹æ®Ĭ": 4922,
      "åĨħå¤ĸ": 4923,
      "85760": 4924,
      "è¯·åĭ¿": 4925,
      "è¯·æŁ¥": 4926,
      "åºĶçĶ¨ä¸Ń": 4927,
      "åºĶçĶ¨é¢ĨåŁŁ": 4928,
      "Ġç»Ĩåº¦": 4929,
      "å¼Ģä¸Ĭä¸ĭçľ¼çĿĳ": 4930,
      "è¡¨éĿ¢åĬ©åīĤ": 4931,
      "ä»»ä½ķä¸ľ": 4932,
      "Ġçľ¼éĿ¢éĺ²æĬ¤": 4933,
      "å¤´æĻķ": 4934,
      "éķ¿æľŁæĪĸåıįå¤įæİ¥è§¦": 4935,
      "ç¦ģæŃ¢ä½¿çĶ¨": 4936,
      "Ġæ¶Īéĺ²äººåĳĺ": 4937,
      "çĦļ": 4938,
      "ä¹ĭå¤Ħä½¿çĶ¨": 4939,
      "æĤ¬": 4940,
      "16014": 4941,
      "æ°¯ä¸ģ": 4942,
      "Ġå°ģéĹŃ": 4943,
      "Ġä½¿çĶ¨éĺ²çĪĨ": 4944,
      "ĠæŃĻåİ¿": 4945,
      "éŁ¦å°Ķ": 4946,
      "Ġ0519": 4947,
      "è½»è£ħ": 4948,
      "è½»åį¸": 4949,
      "éĽĨåĽ¢": 4950,
      "æİĴæ°Ķ": 4951,
      "æİĴæĶ¾": 4952,
      "ĠUn": 4953,
      "ĠåºĶçĶ¨ç±»åŀĭ": 4954,
      "èģĶç³»çĶµè¯Ŀ": 4955,
      "ĠWEK": 4956,
      "è½¬ç§»èĩ³æĸ°é²ľç©ºæ°Ķå¤Ħ": 4957,
      "éĵĿéĵ¶æµĨ": 4958,
      "CAB": 4959,
      "ECH": 4960,
      "Ġæ·»åĬł": 4961,
      "æĬĹæº¶æĢ§æ³¡æ²«": 4962,
      "Ġä¸Ĭæµ·å¸Ĥ": 4963,
      "ç»Ĩèĥŀ": 4964,
      "æĢ»éĥ¨": 4965,
      "è´®åŃĺäºİ": 4966,
      "æ©¡èĥ¶æīĭå¥Ĺ": 4967,
      "äºĭæķħåºĶæĢ¥åĴ¨è¯¢çĶµè¯Ŀ": 4968,
      "Ġ1510": 4969,
      "åºĵæĪ¿": 4970,
      "ĠçĽ¸å®¹æĢ§": 4971,
      "åĪĩåĭ¿åĲ¸çĥŁ": 4972,
      "åŁºäºİæĢ»éħįæĸ¹": 4973,
      "ç¼©æ°´çĶĺæ²¹": 4974,
      "æģĴ": 4975,
      "Ġèģļçĥ¯çĥĥ": 4976,
      "çĹħäºº": 4977,
      "ç¼ĸåĪ¶æĹ¥æľŁ": 4978,
      "Ġæİ¥è§¦æİ§åĪ¶åĴĮä¸ªä½ĵéĺ²æĬ¤": 4979,
      "ĠåºĶæĢ¥åĴ¨è¯¢çĶµè¯Ŀ": 4980,
      "Ġhttp": 4981,
      "çĦ¶èĢĮ": 4982,
      "Ġbe": 4983,
      "Ġæ¯ķåħĭåĬ©åīĤ": 4984,
      "Ġ50173": 4985,
      "Ġç©º": 4986,
      "å°½éĩı": 4987,
      "ĠéĵĿéĵ¶æµĨ": 4988,
      "ight": 4989,
      "é©¬ä¸Ĭ": 4990,
      "æĬ¥åĳĬæĹ¥æľŁ": 4991,
      "Ġä¸ªäºº": 4992,
      "èĢĲåĮĸåŃ¦æĢ§": 4993,
      "èĢĲåĮĸåŃ¦èħĲèļĢ": 4994,
      "ĠçĪĨçĤ¸ä¸ĬéĻĲ": 4995,
      "Ġåģ¥åº·åį±å®³": 4996,
      "è¯±å¯¼": 4997,
      "é»ıåº¦": 4998,
      "äºĮæ°§åĮĸéĴĽ": 4999,
      "å±Ģéĥ¨": 5000,
      "éģ¿åħįæİ¥è§¦çļ®èĤ¤åĴĮçľ¼çĿĽ": 5001,
      "gies": 5002,
      "çĶŁæĢģåŃ¦": 5003,
      "æī¿æĭħä»»ä½ķ": 5004,
      "æ°´åĨ²æ´Ĺçľ¼çĿĽèĩ³å°ĳ": 5005,
      "Ġç©¿æĪ´": 5006,
      "åħ¨èº«éĺ²æĬ¤æľį": 5007,
      "¸ç¦»çĶ²éĨĽ": 5008,
      "æ°§åĮĸéĵģçº¢": 5009,
      "ification": 5010,
      "SCBA": 5011,
      "Ġ25036": 5012,
      "æ°¨åŁºæłĳèĦĤ": 5013,
      "ĠçĶµåŃĲéĤ®ä»¶åľ°åĿĢ": 5014,
      "allnex": 5015,
      "åľ¨å®¤å¤ĸæĪĸéĢļé£İèī¯å¥½": 5016,
      "ä¸Ļçĥ¯éħ¸éħ¯": 5017,
      "ĠVinyl": 5018,
      "äº¤ä»ĺå½¢å¼ı": 5019,
      "Ġç³»åĪĹ": 5020,
      "çĲĥ": 5021,
      "éĺ²æ¯ĴéĿ¢åħ·": 5022,
      "çĶ¨èĤ¥çļĤæ°´åĴĮæ¸ħæ°´å½»åºķåĨ²æ´Ĺçļ®èĤ¤": 5023,
      "åįİä¼¦åĮĸå·¥æľīéĻĲåħ¬åı¸": 5024,
      "UKDO": 5025,
      "èĶĵå»¶": 5026,
      "Ġåĵģ": 5027,
      "æ´ĭæ±¡æŁĵçī©": 5028,
      "Ġå®¹åĻ¨": 5029,
      "ĠåĬ©åīĤ": 5030,
      "įå°¼éŁ¦å°Ķ": 5031,
      "Ļ®å·¥è·¯": 5032,
      "85760266": 5033,
      "ä»»ä½ķä¸ľè¥¿": 5034,
      "ĠæŃĻåİ¿æĸ°ä¸°": 5035,
      "ç¼©æ°´çĶĺæ²¹éĨļ": 5036,
      "350": 5037,
      "524": 5038,
      "886": 5039,
      "FI": 5040,
      "HDI": 5041,
      "In": 5042,
      "ISO": 5043,
      "LAC": 5044,
      "Lanco": 5045,
      "PP": 5046,
      "SI": 5047,
      "VAL": 5048,
      "YVAL": 5049,
      "af": 5050,
      "aph": 5051,
      "cc": 5052,
      "der": 5053,
      "gu": 5054,
      "sds": 5055,
      "¾Ļ": 5056,
      "çĮ": 5057,
      "é¾Ļ": 5058,
      "Ġ&": 5059,
      "ĠQ": 5060,
      "Ġåħ¨": 5061,
      "Ġæ°§åĮĸ": 5062,
      "Ġåħ·": 5063,
      "Ġä¿ĿæĮģ": 5064,
      "Ġä¼ĺ": 5065,
      "ĠéĢĤçĶ¨": 5066,
      "ĠéĢıæĺİ": 5067,
      "ĠåĪĨè§£": 5068,
      "Ġè½»": 5069,
      "Ġ000000000000": 5070,
      "ģè®¸": 5071,
      "ĲåŃĹ": 5072,
      "Ĵç²¾": 5073,
      "**:": 5074,
      "åı¦": 5075,
      "ãĢĤï¼ī": 5076,
      "äº¦": 5077,
      "ï¼īï¼ļ**": 5078,
      "Ġç£": 5079,
      "Ġçł": 5080,
      "æĢ§çī©è´¨": 5081,
      "éħĴç²¾": 5082,
      "çļĦæİªæĸ½": 5083,
      "çļĦç»ĵæŀĦ": 5084,
      "çļĦåºĵæĪ¿": 5085,
      "003": 5086,
      "éĢĲåŃĹ": 5087,
      "éĻĨ": 5088,
      "åįĬ": 5089,
      "éĺ²æ¸ĹéĢı": 5090,
      "101": 5091,
      "102": 5092,
      "çģĮ": 5093,
      "æĬĳ": 5094,
      "åĮĸæıĲåıĸ": 5095,
      "ä»¤": 5096,
      "è¿·": 5097,
      "æĺŁ": 5098,
      "ĠéĶ": 5099,
      "æ°´åıĬ": 5100,
      "åĴĮåħ¶ä»ĸ": 5101,
      "åĴĮåĮĸåŃ¦åį±éĻ©": 5102,
      "2025": 5103,
      "2022": 5104,
      "è¡¬": 5105,
      "è¡Ĺ": 5106,
      "æĹŃ": 5107,
      "æĪĸçŃī": 5108,
      "æĪĸå¤´åıĳ": 5109,
      "ä¸įåºĶ": 5110,
      "ä¸įä½ľä¸º": 5111,
      "äº§åĵģä¿¡æģ¯": 5112,
      "æ°Ķæ³¡": 5113,
      "åĨĻ": 5114,
      "æľ¬ä¿¡æģ¯": 5115,
      "æĺİç¤ºæĪĸ": 5116,
      "809": 5117,
      "éħįåĲĪ": 5118,
      "çĽ®æłĩ": 5119,
      "æ´Ĵ": 5120,
      "åı¯èĥ½çļĦ": 5121,
      "éĨĩç¼©": 5122,
      "åĳ¼åĲ¸è£ħç½®": 5123,
      "éĥ¨ä½į": 5124,
      "éĻĲäºİ": 5125,
      "å¾ħ": 5126,
      "åį±éĻ©è¯´æĺİ": 5127,
      "åį±éĻ©åĪĨè§£äº§çī©": 5128,
      "ä¸İçİ¯æ°§æłĳèĦĤ": 5129,
      "ä¸İæķ´çĲĨ": 5130,
      "ä½ĵç³»ä¸Ń": 5131,
      "æ´Ĺçľ¼": 5132,
      "åľ¨éĺ´åĩī": 5133,
      "åĪ¶åĵģ": 5134,
      "éĢļçŁ¥": 5135,
      "èģļäºĮçĶ²åŁº": 5136,
      "Ġç¬¬ä¸ĥ": 5137,
      "æłĩå¿Ĺ": 5138,
      "æł·æ°Ķåĳ³": 5139,
      "æ¸ħæī«": 5140,
      "æ¸ħéĨĴ": 5141,
      "èī²è®¡": 5142,
      "å¦ĤåĲ¸åħ¥": 5143,
      "å¦ĤéľĢ": 5144,
      "å¦Ĥè¯¯": 5145,
      "å¦Ĥè¿Ľåħ¥çľ¼çĿĽ": 5146,
      "çī¹å¾ģ": 5147,
      "æŃ£ä¸ģéħ¯": 5148,
      "éĹ®": 5149,
      "ĠåĨħå®¹ä¸ºå¯¹": 5150,
      "å¯¹äºİ": 5151,
      "356": 5152,
      "å°±åĮ»è¯Ĭ": 5153,
      "çŃĽ": 5154,
      "Ġ77": 5155,
      "ä¹Ļéħ®": 5156,
      "åĽºåĲ«éĩı": 5157,
      "æº¶åīĤä¸Ń": 5158,
      "5168": 5159,
      "éĢļé£İä¸į": 5160,
      "èĢĲéħ¸": 5161,
      "èĢĲåħīæĢ§": 5162,
      "çĬ¯": 5163,
      "ä»¥æºĲæĸĩä»¶": 5164,
      "olit": 5165,
      "olid": 5166,
      "ç»Ħä»½": 5167,
      "ĠGroup": 5168,
      "æĹ¥æľŁèµ·": 5169,
      "âĦĥ)": 5170,
      "æĿĲæĸĻæľīéĻĲåħ¬åı¸": 5171,
      "æĿĲæĸĻå®īåħ¨æķ°æį®è¡¨": 5172,
      "Ġåį±éĻ©ç»ĦåĪĨ": 5173,
      "ĠBR": 5174,
      "å¼Ĥä¸ĻéĨĩ": 5175,
      "ĠMG": 5176,
      "ĠMS": 5177,
      "ĠMethyl": 5178,
      "ĠMaterial": 5179,
      "åĸĿ": 5180,
      "10037": 5181,
      "10029": 5182,
      "åĩºçļĦ": 5183,
      "ç±»åŀĭçİ¯æ°§": 5184,
      "ĠEF": 5185,
      "Ġ2015": 5186,
      "Ġä¸įæº¶": 5187,
      "Ġä¸įåĲ«": 5188,
      "æĺ¯æº¶åīĤ": 5189,
      "33356": 5190,
      "éģ¿åħįåĲ¸åħ¥": 5191,
      "çŃīåĬ¿": 5192,
      "344": 5193,
      "348": 5194,
      "ç«ĭåį³çĶ¨å¤§éĩı": 5195,
      "èĦ±æ°´åīĤ": 5196,
      "Ġå¯Ĩ": 5197,
      "çĸ¹": 5198,
      "åĪĨéĴŁä»¥ä¸Ĭ": 5199,
      "é¡º": 5200,
      "ç§»åĪ°ç©ºæ°Ķæĸ°é²ľå¤Ħ": 5201,
      ":|:---": 5202,
      "orea": 5203,
      "heon": 5204,
      "çĹĩæ²»çĸĹ": 5205,
      "itan": 5206,
      "å°ıäºİ": 5207,
      "ç¤ºçļĦ": 5208,
      "Ġæĺĵçĩĥæ¶²ä½ĵç±»åĪ«": 5209,
      "ä¸¥éĩįçļĦ": 5210,
      "åıĹè¿ĩ": 5211,
      "åıĹçĥŃ": 5212,
      "Ġçī¹æĢ§åĴĮ": 5213,
      "8599": 5214,
      "çģ«èĬ±æĪĸ": 5215,
      "ä¸īåı¶": 5216,
      "æĸĩæ¡£ä¿¡æģ¯": 5217,
      "æĸĩæ¡£çĶŁæĪĲæĹ¥æľŁ": 5218,
      "ç¨ĭåº¦": 5219,
      "åĤ¬åĮĸ": 5220,
      "åıĤè§ģ": 5221,
      "æĪĲåĪĨä¿¡æģ¯": 5222,
      "273": 5223,
      "æĺıçĿ¡æĪĸæĻķçľ©": 5224,
      "æĺıè¿·": 5225,
      "Ġå¦Ĥè¿Ľåħ¥çľ¼çĿĽ": 5226,
      "ENOL": 5227,
      "å¾ĹåĪ°": 5228,
      "åĩīçĪ½": 5229,
      "¬¦åı·": 5230,
      "çĥĥç±»": 5231,
      "éĢıæĺİåº¦": 5232,
      "çħ§å½ķ": 5233,
      "éĿŀéĢĲåŃĹ": 5234,
      "èĩ´çĻĮçī©": 5235,
      "ĠåĤ¨åŃĺäºİéĺ´åĩī": 5236,
      "ĠVMA": 5237,
      "Ġéģ¿åħįä¸İ": 5238,
      "å¦ĤæŀľåĪºæ¿Ģ": 5239,
      "å°ĨæĤ£èĢħ": 5240,
      "å°ĨåıĹå®³äººè½¬ç§»åĪ°ç©ºæ°Ķæĸ°é²ľå¤Ħ": 5241,
      "æļ´éľ²é¢Ħéĺ²æİªæĸ½": 5242,
      "idisp": 5243,
      "ç´§æĢ¥çĶµè¯Ŀ": 5244,
      "åĪĨæķ£æĢ§": 5245,
      "Ġå¼¯æĽ²": 5246,
      "MICAL": 5247,
      "ect": 5248,
      "åŃĺæĶ¾åľ¨éĢļé£İèī¯å¥½çļĦåľ°æĸ¹": 5249,
      "Ġä¸ŃåĽ½ä¸Ĭæµ·": 5250,
      "Ġä¸ŃåĽ½å·¥åİĤ": 5251,
      "é¦ı": 5252,
      "é¥®é£Ł": 5253,
      "ä¿Ŀè¯ģåħħåĪĨéĢļé£İ": 5254,
      "ä¸ĵçĶ¨": 5255,
      "ä¸ĵä¸ļ": 5256,
      "æħķ": 5257,
      "RAYVAL": 5258,
      "IOXIDE": 5259,
      "ä¸ŃæĸĩåĲį": 5260,
      "éĩįéĩıçĻ¾åĪĨæ¯Ķ": 5261,
      "ĠèĴ¸æ°Ķå¯Ĩåº¦": 5262,
      "å·±åĨħéħ°èĥº": 5263,
      "åı¯èĥ½éĢłæĪĲæĺıæĺıæ¬²çĿ¡æĪĸçľ©æĻķ": 5264,
      "éĩĬæĶ¾åĪ°çİ¯å¢ĥä¸Ń": 5265,
      "åİŁæĸĩçħ§å½ķ": 5266,
      "çĶ¨èĤ¥çļĤåĴĮ": 5267,
      "Ġèģļæ°¨éħ¯": 5268,
      "ĠåŃĺæĶ¾å¤Ħé¡»åĬłéĶģ": 5269,
      "ĠéĿŀæĮ¥åıĳ": 5270,
      "æľ¬äº§åĵģæĹ¶": 5271,
      "estolit": 5272,
      "è±Ĩ": 5273,
      "åĩĢéĩį": 5274,
      "èĬ³é¦Ļçĥĥ": 5275,
      "ĠåĬłå·¥": 5276,
      "çĸĳèĻĳ": 5277,
      "ĠåĲŀåĴ½åıĬè¿Ľåħ¥åĳ¼åĲ¸éģĵåı¯èĥ½èĩ´åĳ½": 5278,
      "æºĲæĸĩä»¶åİŁæĸĩæķ´çĲĨ": 5279,
      "æºĲæĸĩä»¶çļĦç»ĵæŀĦ": 5280,
      "ç¡ħæ°§çĥ·æº¶æ¶²": 5281,
      "Ġåĳ¼åĲ¸éĺ²æĬ¤": 5282,
      "ropert": 5283,
      "èı²": 5284,
      "ä¹Ļéħ¸ä¹Ļéħ¯": 5285,
      "é£Łåĵģæİ¥è§¦åºĶçĶ¨": 5286,
      "çĶµåŃĲéĤ®ç®±": 5287,
      "form": 5288,
      "è¿ĩæ»¤å¼ı": 5289,
      "çłĶç£¨": 5290,
      "åįĹéĢļå¸Ĥç»ıæµİæĬĢæľ¯å¼Ģåıĳ": 5291,
      "Ġå¯¹æ°´çĶŁçĶŁçī©æľīæ¯Ĵå¹¶åħ·æľīéķ¿æľŁæĮģç»Ńå½±åĵį": 5292,
      "ĠçŁ³": 5293,
      "è¿ŀæİ¥": 5294,
      "ĠĠĠĠĠĠĠĠĠĠĠĠĠĠĠĠĠĠĠĠĠĠĠĠĠĠĠĠĠĠĠĠĠĠĠĠĠĠĠĠĠĠĠĠĠĠĠĠĠĠĠĠĠĠĠĠĠĠĠĠĠĠĠĠ": 5295,
      "æĸ°æĿĲæĸĻç§ĳæĬĢæľīéĻĲåħ¬åı¸": 5296,
      "evel": 5297,
      "é©¬æĿ¥": 5298,
      "ĠæľĢå¤§": 5299,
      "4208": 5300,
      "ĠèģĶç³»çĶµè¯Ŀ": 5301,
      "ĠèģĶç³»æĸ¹å¼ı": 5302,
      "ä¸İæ°§åĮĸåīĤæİ¥è§¦": 5303,
      "ĠSolvesso": 5304,
      "Ġå½¢": 5305,
      "æ³Ħéľ²": 5306,
      "able": 5307,
      "oadd": 5308,
      "Ġä¸įè¦ģåĤ¬åĲĲ": 5309,
      "BLE": 5310,
      "éĻ¤æīĢæľīçĤ¹çģ«æºĲ": 5311,
      "åĬŁèĥ½çļĦ": 5312,
      "Ġæ³ķè§Ħä¿¡æģ¯": 5313,
      "Ġé»Ħèī²": 5314,
      "ä¸Ĭé£İåĲĳ": 5315,
      "æµħé»Ħèī²": 5316,
      "åĩĿåĽº": 5317,
      "å±ıåįĹ": 5318,
      "æ°´åĴĮèĤ¥çļĤåĨ²æ´Ĺ": 5319,
      "Ġå¹³åĿĩç²Ĵå¾Ħ": 5320,
      "ynoadd": 5321,
      "Ġâĸł": 5322,
      "ä¾µçĬ¯": 5323,
      "Ġçģ«çģ¾": 5324,
      "éĺ²æŃ¢éĿĻçĶµæĶ¾çĶµçļĦæİªæĸ½": 5325,
      "å¤±åİ»çŁ¥è§īèĢħ": 5326,
      "åı°æ¹¾": 5327,
      "è®Ńç»ĥ": 5328,
      "åķĨåĵģåĲį": 5329,
      "çªģåıĺæĢ§": 5330,
      "ĠæĢ¥æĢ§ç»ıåı£æ¯ĴæĢ§": 5331,
      "Ġç¨ĢéĩĬæĢ§": 5332,
      "ĠCHEMICAL": 5333,
      "Ġå¡ĳæĸĻ": 5334,
      "åĪĩåĭ¿ç»Ļå¤±åİ»çŁ¥è§īèĢħ": 5335,
      "ĠæĴĳå¼Ģ": 5336,
      "å¤§äºİæĪĸçŃī": 5337,
      "Ġç§ĳæĢĿåĪĽ": 5338,
      "Ġå®īå¾½çľģ": 5339,
      "uminum": 5340,
      "åĨħå®¹ä¾Ŀæį®æºĲæĸĩä»¶åİŁæĸĩæķ´çĲĨ": 5341,
      "¿çī©æ²¹": 5342,
      "æİ¥è§¦åĪ°æĪĸæľī": 5343,
      "ç¦»åŃĲæ°´": 5344,
      "Ġæµģå¹³åīĤ": 5345,
      "henolic": 5346,
      "ĠéĴĽçĻ½ç²ī": 5347,
      "å¦ĤæĪ´éļĲå½¢çľ¼éķľå¹¶åı¯æĸ¹ä¾¿åľ°åıĸåĩº": 5348,
      "://": 5349,
      "éĻĪè¿°": 5350,
      "Ġå°ģéĹŃåŀĭ": 5351,
      "è½»è£ħè½»åį¸": 5352,
      "åĮĸæıĲåıĸä¸İæķ´çĲĨ": 5353,
      "Ġç¬¬ä¸ĥéĥ¨åĪĨ": 5354,
      "ĠåĨħå®¹ä¸ºå¯¹æºĲæĸĩä»¶çļĦç»ĵæŀĦ": 5355,
      "å°±åĮ»è¯Ĭæ²»": 5356,
      "ä»¥æºĲæĸĩä»¶ä¸ºåĩĨ": 5357,
      "Ġçī¹æĢ§åĴĮä¼ĺçĤ¹": 5358,
      "éĿŀéĢĲåŃĹåİŁæĸĩçħ§å½ķ": 5359,
      "RAYVALLAC": 5360,
      "å¤§äºİæĪĸçŃīäºİ": 5361,
      "ĠåĨħå®¹ä¸ºå¯¹æºĲæĸĩä»¶çļĦç»ĵæŀĦåĮĸæıĲåıĸä¸İæķ´çĲĨ": 5362,
      "%**": 5363,
      "119": 5364,
      "220": 5365,
      "412": 5366,
      "726": 5367,
      "AM": 5368,
      "BC": 5369,
      "Bç±»": 5370,
      "But": 5371,
      "Chin": 5372,
      "EM": 5373,
      "IS": 5374,
      "NO": 5375,
      "SN": 5376,
      "SU": 5377,
      "Solv": 5378,
      "__": 5379,
      "ai": 5380,
      "ak": 5381,
      "ben": 5382,
      "eo": 5383,
      "ep": 5384,
      "eq": 5385,
      "hang": 5386,
      "ip": 5387,
      "line": 5388,
      "od": 5389,
      "oth": 5390,
      "odur": 5391,
      "ppm": 5392,
      "sb": 5393,
      "ty": 5394,
      "ual": 5395,
      "ªçģ«": 5396,
      "ªå¼ı": 5397,
      "®åĬ©": 5398,
      "³ç±³": 5399,
      "¾Ī": 5400,
      "âģ": 5401,
      "æ¾Ī": 5402,
      "èĵ": 5403,
      "ĠçĶ¨äºİ": 5404,
      "ĠRH": 5405,
      "ĠåĪĨéĴŁ": 5406,
      "ĠåĪĨåŃĲéĩı": 5407,
      "Ġè´¨éĩı": 5408,
      "Ġèī¯å¥½çļĦ": 5409,
      "Ġä»¥ä¸Ĭ": 5410,
      "Ġä¼ĺå¼ĤçļĦ": 5411,
      "ĠäºĭæķħåĵįåºĶ": 5412,
      "Ġæĸĩæ¡£æĿ¥æºĲ": 5413,
      "Ġæľ¬åĵģ": 5414,
      "ĠåĪĨåŃĲå¼ı": 5415,
      "Ķ¹æĢ§": 5416,
      "ĺé«ĺ": 5417,
      "ä¸»": 5418,
      "ãĢĤ*": 5419,
      "åħģè®¸": 5420,
      "æ°¸": 5421,
      "####": 5422,
      "Ġæŀ": 5423,
      "ï¼ī/": 5424,
      "çļĦä½¿çĶ¨": 5425,
      "çļĦé«ĺ": 5426,
      "çļĦæĿĲæĸĻ": 5427,
      "å¤¹": 5428,
      "è¯º": 5429,
      "è¯ĦåĪĨ": 5430,
      "åĪĨå¼Ģ": 5431,
      "åĪĨå¸ĥ": 5432,
      "Ġ120": 5433,
      "Ġ136": 5434,
      "Ġ111": 5435,
      "Ġ199": 5436,
      "Ġ123": 5437,
      "Ġ178": 5438,
      "æł¸": 5439,
      "æłªå¼ı": 5440,
      "104": 5441,
      "æĬ½": 5442,
      "æľīåĪºæ¿Ģ": 5443,
      "æľīæĦı": 5444,
      "æĺ¥": 5445,
      "èĥĢ": 5446,
      "ç»Ŀ": 5447,
      "Ġéľ": 5448,
      "åĴĮçĪĨçĤ¸": 5449,
      "åĴĮèģļåĲĪçī©": 5450,
      "åı¯ä¸İ": 5451,
      "åı¯éĿł": 5452,
      "|------|-------": 5453,
      "ä¼¼": 5454,
      "æĪĸèĴ¸æ°Ķ": 5455,
      "åºĶå°±åĮ»": 5456,
      "èĥ½åĽ¢": 5457,
      "ä¸įå®ľ": 5458,
      "ä¸įå±ŀäºİ": 5459,
      "Ġ22": 5460,
      "Ġ27": 5461,
      "Ġ2000": 5462,
      "å¯¸": 5463,
      "162": 5464,
      "å·¦": 5465,
      "æľ¬æĿĲæĸĻ": 5466,
      "èĩŃ": 5467,
      "è®¯": 5468,
      "çļ®èĤ¤çģ¼ä¼¤": 5469,
      "æ¯ķåħĭ": 5470,
      "éħįå¤ĩ": 5471,
      "åħ¨å¥Ĺ": 5472,
      "æīĳ": 5473,
      "æº¶èĥ¶": 5474,
      "åĳ¼åĲ¸ä¿ĿæĬ¤": 5475,
      "åĪºæ¿Ģçľ¼çĿĽ": 5476,
      "ä¸ģéĨĽ": 5477,
      "ä¸ģåŁºæ©¡èĥ¶": 5478,
      "|------|:----": 5479,
      "æ··åĤ¨": 5480,
      "Ġ39": 5481,
      "Ġ308": 5482,
      "Ġ307": 5483,
      "Ġ3251": 5484,
      "åį±éĻ©çŃīçº§": 5485,
      "éĢĤå®ľ": 5486,
      "æłĳèĦĤæº¶æ¶²": 5487,
      "åľ¨ä½¿çĶ¨åīį": 5488,
      "åľ¨æŃ£å¸¸": 5489,
      "éĢļè¾¾": 5490,
      "èģļæ°¯ä¹Ļçĥ¯": 5491,
      "8650": 5492,
      "Ġ55": 5493,
      "å¦ĤåĪºæ¿Ģ": 5494,
      "è¦ģçĤ¹": 5495,
      "åŁºæĸĻ": 5496,
      "ĠHD": 5497,
      "ĠHRJ": 5498,
      "ĠHDI": 5499,
      "ĠHoneywell": 5500,
      "å¤§éģĵ": 5501,
      "å¸®åĬ©": 5502,
      "360": 5503,
      "557": 5504,
      "5566": 5505,
      "603": 5506,
      "æĸ°åĮº": 5507,
      "åĿĹ": 5508,
      "è§ĦåĪĻ": 5509,
      "Ġäº§åĵģçļĦ": 5510,
      "çģŃçģ«ç¨ĭåºı": 5511,
      "æŀĹ": 5512,
      "å¯¹çļ®èĤ¤": 5513,
      "å¯¹åĮ»çĶŁçļĦçī¹åĪ«æıĲç¤º": 5514,
      "Ġ722": 5515,
      "ä¹Ļéħ¸éħ¯": 5516,
      "ĠSTEL": 5517,
      "ä¼ļç¤": 5518,
      "3010": 5519,
      "ç¡«": 5520,
      "å¹¶ä¸į": 5521,
      "å¹¶éĿŀ": 5522,
      "æĬĢæľ¯æĮĩæłĩ": 5523,
      "å¹²çłĤ": 5524,
      "èĢĲåĪ®": 5525,
      "old": 5526,
      "atch": 5527,
      "çī©è´¨ç¬¬": 5528,
      "Ġ85": 5529,
      "erv": 5530,
      "å¤Ħç½®åĨħè£ħçī©": 5531,
      "çŁ¿çī©æ²¹": 5532,
      "ĠMVAH": 5533,
      "çĶ¨äºİå·¥ä¸ļçĶ¨éĢĶ": 5534,
      "ç´¢": 5535,
      "Ġ2024": 5536,
      "Ġä¸įåı¯": 5537,
      "Ġä¸įåĲ«æľī": 5538,
      "Ġä¸įæº¶äºİæ°´": 5539,
      "337": 5540,
      "åĬĽæ¨¡ç³Ĭ": 5541,
      "3463": 5542,
      "æµģæ°´": 5543,
      "æıĲèµ·çľ¼çĿĳ": 5544,
      "ĠæĹ¥": 5545,
      "arr": 5546,
      "çĽ¸åºĶ": 5547,
      "âĤģ": 5548,
      "âĤĨ": 5549,
      "ĠREACH": 5550,
      "746": 5551,
      "åĮĸåŃ¦åĵģåĲįç§°": 5552,
      "åĮĸåŃ¦åĵģæľīéĻĲåħ¬åı¸": 5553,
      "åĮĸåŃ¦åĵģåĲįå½ķ": 5554,
      "è·Ŀ": 5555,
      "å·¥ä¸ļåĽŃ": 5556,
      "æķıæĦŁ": 5557,
      "9508": 5558,
      "èģĶæİ¥": 5559,
      "æľªçŁ¥": 5560,
      "orf": 5561,
      "hechem": 5562,
      "Ġ96": 5563,
      "çĪĨçĤ¸åį±å®³": 5564,
      "ç»Ļæ°§": 5565,
      "éķ¿çļĦ": 5566,
      "æľĢåĲİ": 5567,
      "ä¸Ļçĥ·": 5568,
      "ä¸Ļéħ®": 5569,
      "ç®Ĺ": 5570,
      "ite": 5571,
      "æĭ©": 5572,
      "ĠKorea": 5573,
      "åıĹæ±¡æŁĵçļĦè¡£æľį": 5574,
      "å¸¸è§Ħ": 5575,
      "æĸĩæ¡£çīĪæľ¬": 5576,
      "çĻ½èī²": 5577,
      "æĪĲåĪĨè¾¨è¯ĨèµĦæĸĻ": 5578,
      "ä½įç½®": 5579,
      "Ġå¦ĤåıĳçĶŁçļ®èĤ¤åĪºæ¿Ģ": 5580,
      "ä»»ä½ķéĺ¶æ®µ": 5581,
      "Ġåı¯èĥ½å¯¹çĶŁèĤ²èĥ½åĬĽæĪĸèĥİåĦ¿éĢłæĪĲä¼¤å®³": 5582,
      "Ġå¤ĸè§Ĥä¸İæĢ§çĬ¶": 5583,
      "ĠFl": 5584,
      "çīĪæľ¬åı·": 5585,
      "è¿ĩæķıæĢ§": 5586,
      "çķĮ": 5587,
      "å¹²ç²īçģŃçģ«åĻ¨": 5588,
      "éĿŀæµ®åŀĭ": 5589,
      "æ»¡": 5590,
      "Ġçººç»ĩ": 5591,
      "Ġçº³ç±³": 5592,
      "æĤ¨": 5593,
      "ĠcP": 5594,
      "å¤ļå¼Ĥæ°°éħ¸éħ¯": 5595,
      "æ³ķè§Ħä¿¡æģ¯": 5596,
      "ilber": 5597,
      "ç»ĵæĿŁ": 5598,
      "ç»ĵåĿĹ": 5599,
      "åĳ¼åı«æĢ¥æķĳä¸Ńå¿ĥ": 5600,
      "Ġéģ¿åħįåĲ¸åħ¥ç²īå°ĺ": 5601,
      "pment": 5602,
      "Ġ0514": 5603,
      "å±±æ½": 5604,
      "è®¤åı¯": 5605,
      "è®¤è¯ģ": 5606,
      "ä½©æĪ´èĩªç»Ļå¼ıåĳ¼åĲ¸åĻ¨": 5607,
      "Ġå¼ķ": 5608,
      "ĠWN": 5609,
      "åı¯èĥ½å¼ķèµ·æĺıçĿ¡æĪĸæĻķçľ©": 5610,
      "Ġçī©è´¨å®īåħ¨æķ°æį®è¡¨": 5611,
      "åŃĺæĶ¾å¤Ħé¡»åĬłéĶģ": 5612,
      "æĢ¥æĢ§ç»ıåı£": 5613,
      "å®¶åħ·": 5614,
      "ĠæŃ£ä¸ģåŁº": 5615,
      "Ġwt": 5616,
      "Ġé«ĺåº¦": 5617,
      "ute": 5618,
      "èĩªç»Ļå¼ı": 5619,
      "ä»ħåľ¨": 5620,
      "7120": 5621,
      "tha": 5622,
      "å¾·çº³": 5623,
      "ĠåŃĺåĤ¨": 5624,
      "ĠåįģäºĮ": 5625,
      "Ġåįģä¸ī": 5626,
      "ĠçĶµè¯Ŀåı·çłģ": 5627,
      "å·±çĥ·": 5628,
      "åŁºæĶ¹æĢ§": 5629,
      "ĠæĹłèī²èĩ³": 5630,
      "ĠæľªçŁ¥": 5631,
      "å¹¿ä¸ľ": 5632,
      "Ġç´§æĢ¥æĥħåĨµæ¦Ĥè¿°": 5633,
      "ĠèģļéĨļæĶ¹æĢ§": 5634,
      "æľºæ¢°æĢ§åĪºæ¿Ģ": 5635,
      "ĠéĿŀå¸¸": 5636,
      "3060": 5637,
      "æĴŃ": 5638,
      "1135": 5639,
      "ä½Ĩä¸į": 5640,
      "çĦ¶åĲİ": 5641,
      "éĺħè¯»": 5642,
      "è¾ĥä½İ": 5643,
      "henodur": 5644,
      "ĠçŃĽ": 5645,
      "oxy": 5646,
      "ä¸īèģļæ°°èĥºæłĳèĦĤ": 5647,
      "Ġå¼Ĥä¸ģéĨĩ": 5648,
      "å±±å¸Ĥé¡º": 5649,
      "éĶĢåĶ®åħ¬åı¸": 5650,
      "åį·éĴ¢": 5651,
      "ä½¿çĶ¨éĺ²çĪĨçĶµåĻ¨": 5652,
      "ĠçĻ½èī²": 5653,
      "å®Įåħ¨åĽºåĮĸ": 5654,
      "æī¹æ¬¡æ": 5655,
      "ä½Ľå±±å¸Ĥé¡º": 5656,
      "Ġç¡¬åº¦": 5657,
      "è§ĨåĬĽæ¨¡ç³Ĭ": 5658,
      "åıĹå®³èĢħ": 5659,
      "Ġéķ¿æľŁæĪĸåıįå¤įæİ¥è§¦": 5660,
      "Ġåģ¥åº·åį±éĻ©": 5661,
      "ç´§å¯Ĩ": 5662,
      "çĿĢèī²åīĤ": 5663,
      "ç¡®å®ļçĶ¨éĢĶ": 5664,
      "Ġ4818": 5665,
      "è¯±åĲĲ": 5666,
      "åºŁçī©å¤ĦçĲĨ": 5667,
      "èģļä¹Ļçĥ¯éĨĩç¼©": 5668,
      "é«ĺåĪĨåŃĲéĩıçİ¯æ°§æłĳèĦĤ": 5669,
      "ĠçģŃçģ«ä»ĭè´¨": 5670,
      "ĠçīĪæľ¬åı·": 5671,
      "Ġ1434": 5672,
      "æ³ķå¾ĭæ³ķè§Ħ": 5673,
      "ĠmmHg": 5674,
      "å¹³åĿĩç²Ĵå¾Ħ": 5675,
      "å¹³åĿĩå®¹è®¸æµĵåº¦": 5676,
      "|------------|---------|----------|": 5677,
      "éĢīæĭ©": 5678,
      "Ġåı¯å¼ķèµ·åĳ¼åĲ¸éģĵåĪºæ¿Ģ": 5679,
      "ä¸Ńæ¯Ĵæİ§åĪ¶ä¸Ńå¿ĥ": 5680,
      "ĠçŃīçº§": 5681,
      "çº¤ç»´ç´ł": 5682,
      "æī©æķ£åĪ°çĽ¸å½ĵè¿ľ": 5683,
      "ĠäºĮæ°§åĮĸéĴĽ": 5684,
      "å¯»æ±ĤåĮ»çĸĹæķĳ": 5685,
      "çĵ¶": 5686,
      "Ġåį·æĿĲæ¶ĤæĸĻ": 5687,
      "ĠæĺĨå±±æ½": 5688,
      "ä¿Ŀè¯ģæĪĸæĭħä¿Ŀ": 5689,
      "Ġèĩªçĩĥæ¸©åº¦": 5690,
      "ä¿ĥè¿Ľ": 5691,
      "Ġæ·¡é»Ħèī²æ¶²ä½ĵ": 5692,
      "æ£ķ": 5693,
      "æİĴæ°´æ²Ł": 5694,
      "æĳ©æĵ¦": 5695,
      "Ġæ¾Ħæ¸ħéĢıæĺİç²ĺç¨łæ¶²ä½ĵ": 5696,
      "æľĢéĩįè¦ģçļĦçĹĩçĬ¶åĴĮåģ¥åº·å½±åĵį": 5697,
      "Ġare": 5698,
      "34627371": 5699,
      "yzor": 5700,
      "Ġæĸĩä»¶çĶŁæĪĲæĹ¥æľŁ": 5701,
      "æĸ½æķĳèĢħ": 5702,
      "æĤ¬æµ®": 5703,
      "åľ¨å®¤å¤ĸæĪĸéĢļé£İèī¯å¥½ä¹ĭå¤Ħä½¿çĶ¨": 5704,
      "ĠåĵģçīĮ": 5705,
      "ĠæŃĻåİ¿æĸ°ä¸°åĮĸå·¥æľīéĻĲåħ¬åı¸": 5706,
      "aphtha": 5707,
      "æ°´åıĬæ¸ħæ°´å½»åºķåĨ²æ´Ĺçļ®èĤ¤": 5708,
      "çĽ®æłĩåĻ¨å®ĺ": 5709,
      "èģļäºĮçĶ²åŁºç¡ħæ°§çĥ·æº¶æ¶²": 5710,
      "ĠMaterials": 5711,
      "çŃīåĬ¿èģĶæİ¥": 5712,
      "itanium": 5713,
      "çģ«èĬ±æĪĸçģ«çĦ°": 5714,
      "formation": 5715,
      "è¿ĩæ»¤å¼ıéĺ²æ¯ĴéĿ¢åħ·": 5716,
      "æİ¥è§¦åĪ°æĪĸæľīçĸĳèĻĳ": 5717,
      "ĺé«ĺåĮĸå·¥æľīéĻĲåħ¬åı¸": 5718,
      "æłªå¼ıä¼ļç¤": 5719,
      "éĢļè¾¾è·¯": 5720,
      "ilberline": 5721,
      "æī¹æ¬¡æ£Ģæµĭ": 5722,
      "èģļä¹Ļçĥ¯éĨĩç¼©ä¸ģéĨĽ": 5723,
      "ĠæĺĨå±±æ½ĺé«ĺåĮĸå·¥æľīéĻĲåħ¬åı¸": 5724,
      "æłªå¼ıä¼ļç¤¾": 5725,
      "#-": 5726,
      "),": 5727,
      ").": 5728,
      ".**": 5729,
      "110": 5730,
      "314": 5731,
      "3000": 5732,
      "391": 5733,
      "455": 5734,
      "514": 5735,
      "850": 5736,
      "AD": 5737,
      "AP": 5738,
      "Aéħįæĸ¹": 5739,
      "BR": 5740,
      "Butyl": 5741,
      "DIN": 5742,
      "IV": 5743,
      "KUKDO": 5744,
      "MAC": 5745,
      "OSHA": 5746,
      "Pv": 5747,
      "Poly": 5748,
      "Phenodur": 5749,
      "QU": 5750,
      "SS": 5751,
      "SUMILITERESIN": 5752,
      "UEL": 5753,
      "ag": 5754,
      "cat": 5755,
      "hpp": 5756,
      "ies": 5757,
      "ied": 5758,
      "our": 5759,
      "ps": 5760,
      "smo": 5761,
      "uf": 5762,
      "|:--------": 5763,
      "¡¶": 5764,
      "ªç¦": 5765,
      "®çĽĸ": 5766,
      "±¡æŁĵ": 5767,
      "¹çģ«": 5768,
      "¹åı·": 5769,
      "½è½¦": 5770,
      "âĹ": 5771,
      "çħ": 5772,
      "ç¬¦åı·": 5773,
      "ðŁ": 5774,
      "Ġe": 5775,
      "Ġ---": 5776,
      "ĠåĲ«": 5777,
      "Ġèī¯å¥½": 5778,
      "Ġæĸĩæ¡£": 5779,
      "Ġæľīæľº": 5780,
      "Ġeth": 5781,
      "Ġex": 5782,
      "ĠåĲĮ": 5783,
      "ĠÎ¼m": 5784,
      "ĠåĲĪæł¼": 5785,
      "Ġè½¯": 5786,
      "ĠçĶŁæĢģåŃ¦": 5787,
      "ĠðŁ": 5788,
      "Ĥ¹çģ«": 5789,
      "ĨèĨľ": 5790,
      "īç±³": 5791,
      "Ĳæĸĩä»¶": 5792,
      "ãĢĮ": 5793,
      "ãĢį": 5794,
      "ï¼Į+": 5795,
      "çĶ³": 5796,
      "æ°ı": 5797,
      "äº¬": 5798,
      "äº®": 5799,
      "äºĳ": 5800,
      "Ġå¢": 5801,
      "ï¼ī>": 5802,
      "ĠçĤ¹çģ«": 5803,
      "çļĦçģŃçģ«åīĤ": 5804,
      "006": 5805,
      "Ġ125": 5806,
      "Ġ140": 5807,
      "Ġ177": 5808,
      "Ġ170": 5809,
      "|-----": 5810,
      "åįļ": 5811,
      "åĮĸæĢ§": 5812,
      "ä»ĵ": 5813,
      "æĺĮ": 5814,
      "èĥį": 5815,
      "æ°´ä½ĵ": 5816,
      "æ°´èĤ¿": 5817,
      "åĴĮè®¾å¤ĩ": 5818,
      "åĴĮçĤ¹çģ«æºĲ": 5819,
      "åĬ³": 5820,
      "æ³µ": 5821,
      "æĪĸåħ¶å®ĥ": 5822,
      "ä¸įä½ľ": 5823,
      "ä¸įåıĹ": 5824,
      "011": 5825,
      "Ġ26": 5826,
      "Ġ215": 5827,
      "Ġ255": 5828,
      "çĶŁæķĪ": 5829,
      "æµĬ": 5830,
      "å¯Ł": 5831,
      "è´Ł": 5832,
      "è´´åĲĪ": 5833,
      "ina": 5834,
      "int": 5835,
      "çļ®çĸ¹": 5836,
      "æĪĲåĵģ": 5837,
      "æĪĲä»½": 5838,
      "æľ¬åħ¬åı¸": 5839,
      "éĺ²æĬ¤éĿ¢åħ·": 5840,
      "çľ¼çļ®": 5841,
      "æ·¡é»Ħèī²": 5842,
      "éħįåĪ¶": 5843,
      "éĿ©": 5844,
      "åĬłéĩį": 5845,
      "åı¯èĥ½æįŁå®³åĻ¨å®ĺ": 5846,
      "æīį": 5847,
      "åĪºæ¿Ģåĳ¼åĲ¸ç³»ç»Ł": 5848,
      "Ġ33": 5849,
      "Ġ3405": 5850,
      "åį±éĻ©ç±»åĪ«": 5851,
      "åıĬå®¹åĻ¨": 5852,
      "åıĬè´®åŃĺ": 5853,
      "ĠPark": 5854,
      "åľ¨é«ĺ": 5855,
      "åľ¨å¹²çĩ¥": 5856,
      "åĪ¶å®ļ": 5857,
      "åĮĸåŃ¦æľīéĻĲåħ¬åı¸": 5858,
      "åĮĸåŃ¦æłªå¼ıä¼ļç¤¾": 5859,
      "æ²¸": 5860,
      "æ²¿": 5861,
      "ä¸Ģå¹´": 5862,
      "æĹ¶åı¯èĥ½": 5863,
      "æĹ¶è¦ģ": 5864,
      "æĹ¶å°±åĮ»": 5865,
      "åĲ¸åħ¥æľīå®³": 5866,
      "äººæ°ĳ": 5867,
      "ĠåįĹ": 5868,
      "çĶ²éĨĩ": 5869,
      "çĶ²éħļ": 5870,
      "Ġ52": 5871,
      "Ġ5355": 5872,
      "å¦ĤæĹł": 5873,
      "å¦Ĥä»į": 5874,
      "åŁºèĭ¯": 5875,
      "å¤§è±Ĩ": 5876,
      "å®īåħ¨å¤Ħç½®ä¸İåĤ¨åŃĺ": 5877,
      "åĨ²åĩ»": 5878,
      "åį±å®³åĪĨç±»": 5879,
      "è¡¥åħħ": 5880,
      "Ġäº§åĵģåºĶçĶ¨": 5881,
      "Ġäº§åĵģä»£çłģ": 5882,
      "å¯¹çĹĩæ²»çĸĹ": 5883,
      "ä¾ĽåıĤèĢĥ": 5884,
      "èĴ¸æ°Ķåı¯èĥ½": 5885,
      "èĴ¸æ°Ķæ¯Ķç©ºæ°Ķéĩį": 5886,
      "éĢłæĪĲä¸¥éĩį": 5887,
      "Ġ72": 5888,
      "è¿ĩéĩı": 5889,
      "æ¡Ĩ": 5890,
      "æĹłèµĦæĸĻ": 5891,
      "æĹłåı¯çĶ¨": 5892,
      "åĽºæĢ§": 5893,
      "æº¶åīĤé¢Ħ": 5894,
      "å¹¶ç©¿": 5895,
      "å¹¶è¿Ľåħ¥åĳ¼åĲ¸éģĵåı¯èĥ½èĩ´åĳ½": 5896,
      "éľįå°¼éŁ¦å°Ķ": 5897,
      "ç¼ĵ": 5898,
      "å¹²åĩĢ": 5899,
      "éĢļé£İçļĦåºĵæĪ¿": 5900,
      "çĹķ": 5901,
      "ĠæĢ¥æ¯ĴæĢ§": 5902,
      "Ġ67": 5903,
      "Ġ897": 5904,
      "ĠGardner": 5905,
      "éĴĪ": 5906,
      "ä¸Ĭè¿°": 5907,
      "Ġæĺĵ": 5908,
      "ĠNJ": 5909,
      "ĠNP": 5910,
      "âĦĥÃĹ": 5911,
      "321": 5912,
      "Ġæİ§åĪ¶": 5913,
      "æīĢåĲ«": 5914,
      "ĠBF": 5915,
      "çĶ¨äºİé£Łåĵģ": 5916,
      "10036": 5917,
      "ĠTLV": 5918,
      "ĠTECH": 5919,
      "ĠEtern": 5920,
      "Ġ2025": 5921,
      "å¤§éĩıæ°´åĸ·å°Ħ": 5922,
      "331": 5923,
      "334": 5924,
      "éģ¿åħįåĲ¸åħ¥èĴ¸æ°Ķ": 5925,
      "éģ¿åħįå½¢æĪĲç²īå°ĺ": 5926,
      "éģ¿åħįäº§çĶŁç²īå°ĺ": 5927,
      "æĵįä½ľäººåĳĺ": 5928,
      "æĵįä½ľåĲİå½»åºķæ¸ħæ´Ĺ": 5929,
      "æĵįä½ľåıĬè´®åŃĺ": 5930,
      "åĲİæ·»åĬł": 5931,
      "ä½İéĢŁ": 5932,
      "éĵ¾": 5933,
      "âĤĦ": 5934,
      "æĿ¡ä¾ĭ": 5935,
      "äººåĳĺéĺ²æĬ¤æİªæĸ½": 5936,
      "å¿ĥèĤº": 5937,
      "2119": 5938,
      "çĸıæķ£": 5939,
      "ĠæºĲæĸĩä»¶": 5940,
      "æķıåĮĸ": 5941,
      "å®ĺèĥ½åĽ¢": 5942,
      "ç§»åĪ°æĸ°é²ľç©ºæ°Ķå¤Ħ": 5943,
      "Ġå¤ĩæ³¨": 5944,
      "|----------|--------": 5945,
      "|----------|---------|": 5946,
      "Ġ93": 5947,
      "ĠæĬĹ": 5948,
      "ä¿ĿæĬ¤çľ¼éķľ": 5949,
      "Ġ1000": 5950,
      "æīĢæľīå®īåħ¨": 5951,
      "æīĢæľīæķ°åĢ¼": 5952,
      "çīĪæ²¹å¢¨": 5953,
      "æ¶Īéĺ²éĺŁ": 5954,
      "éĻĦå½ķ": 5955,
      "ĠKetal": 5956,
      "åİŁè£ħå®¹åĻ¨": 5957,
      "åİŁå§ĭ": 5958,
      "Ġçī¹çĤ¹": 5959,
      "å»ºè®®ä½¿çĶ¨": 5960,
      "å»ºè®®çĶ¨éĩı": 5961,
      "åĨħè¡¬": 5962,
      "Ġæ³¡æ²«": 5963,
      "åºĶçĶ¨çī¹æĢ§": 5964,
      "ĠåºĶéģ¿åħį": 5965,
      "ç²īå°ĺçĪĨçĤ¸åį±éĻ©": 5966,
      "ä¼ĺèī¯": 5967,
      "åĿĩä»¥æºĲæĸĩä»¶ä¸ºåĩĨ": 5968,
      "èĤ¥çļĤæ°´åĴĮ": 5969,
      "å¤įèĭı": 5970,
      "èŃ¦æĬ¥": 5971,
      "Ġåı¯æº¶": 5972,
      "ä¿®æĶ¹": 5973,
      "åĸ·æ°´æĪĸ": 5974,
      "Ġåı¯èĥ½å¯¼èĩ´": 5975,
      "åıĳçĶŁåį±éĻ©": 5976,
      "çķªç¦": 5977,
      "å¯ĨéĹŃå®¹åĻ¨ä¸Ń": 5978,
      "åĪĹäºİ": 5979,
      "ä¹Ļçĥ¯éĨĩ": 5980,
      "ĠéĹªçģ«": 5981,
      "|---------|:--------": 5982,
      "Ġçº¯": 5983,
      "ä¹ĭéĹ´": 5984,
      "ä¿®è®¢çīĪ": 5985,
      "åįķçĭ¬": 5986,
      "547": 5987,
      "ĠæĢ¥æĢ§ç»ıçļ®": 5988,
      "æ°¯éĨĭ": 5989,
      "å¤ļæķ°": 5990,
      "å¤ļåħĥ": 5991,
      "çĶ±åıĹè¿ĩ": 5992,
      "å¤ĸæ³Ħ": 5993,
      "ill": 5994,
      "Ġä½¿çĶ¨ä¸ªäººéĺ²æĬ¤è£ħå¤ĩ": 5995,
      "ç®¡åĪ¶": 5996,
      "çĶ¨æ°´å½»åºķ": 5997,
      "Ġçľ¼çĿĽéĺ²æĬ¤": 5998,
      "Ġéģ¿åħįåĲ¸åħ¥èĴ¸æ°Ķ": 5999,
      "è§īçľ¼åĪºæ¿Ģ": 6000,
      "å°Ĩäººåĳĺ": 6001,
      "æļ´éľ²äºİ": 6002,
      "æ¹Ľæĸ°æłĳèĦĤ": 6003,
      "ç½ĲåĲ¬": 6004,
      "æĽ´å¤ļ": 6005,
      "æĽ´éķ¿çļĦ": 6006,
      "éĢŁçİĩ": 6007,
      "è®¤è¯Ĩ": 6008,
      "489": 6009,
      "ish": 6010,
      "ç§ĳåĮ»çĶŁ": 6011,
      "Ġåį±å®³æĢ§": 6012,
      "Ġåį±å®³ç±»åĪ«": 6013,
      "æ¶Īåħī": 6014,
      "åı¯èĥ½ä¼ļå¼ķèµ·": 6015,
      "ĠWD": 6016,
      "Ġsolid": 6017,
      "Ġå¹´": 6018,
      "çģ«çģ¾åį±éĻ©": 6019,
      "ĠCompl": 6020,
      "Ġæİ¨èįĲçĶ¨äºİ": 6021,
      "åŃĺæĶ¾äºİ": 6022,
      "Ġä¸ŃåĽ½æ±Łèĭıçľģ": 6023,
      "éĵĿé¢ľæĸĻ": 6024,
      "éĵĿç®Ķ": 6025,
      "CATION": 6026,
      "é¦ĸ": 6027,
      "é¥®æĸĻ": 6028,
      "Ġresist": 6029,
      "Ġwit": 6030,
      "Ġwww": 6031,
      "ä»ħéĢĤçĶ¨äºİ": 6032,
      "æĪĳåħ¬åı¸": 6033,
      "éĻĲåĪ¶ä½¿çĶ¨": 6034,
      "Ġå»ºè®®çĶ¨éĢĶ": 6035,
      "Ġæ±½è½¦": 6036,
      "Ġåħ¸åŀĭåĢ¼": 6037,
      "ä»İçģ«åľº": 6038,
      "æº¢æ¼ı": 6039,
      "ç¼©åĲĪ": 6040,
      "å¹¿ä¸ľçľģ": 6041,
      "ĠåŃĺæĶ¾äºİ": 6042,
      "éľĢè¦ģæĽ´éķ¿çļĦ": 6043,
      "ĠOSHA": 6044,
      "åĽłæŃ¤": 6045,
      "ä½ľä¸ļåĲİå½»åºķæ¸ħæ´Ĺ": 6046,
      "ç§ĳæĬĢåĽŃ": 6047,
      "æ»ĳçĪ½": 6048,
      "æ±Łä¸Ńè·¯": 6049,
      "ç§»èĩ³ç©ºæ°Ķæĸ°é²ľå¤Ħ": 6050,
      "æ°´æĢ§ä½ĵç³»": 6051,
      "Ġåı¯èĥ½éĢłæĪĲçļ®èĤ¤è¿ĩæķıåıįåºĶ": 6052,
      "æļĹ": 6053,
      "Ġåħ¶ä»ĸåĲįç§°": 6054,
      "è´§çī©": 6055,
      "Ġè¿ľç¦»çģ«ç§į": 6056,
      "çģ«åľºä¸ŃçļĦ": 6057,
      "Covestro": 6058,
      "8102": 6059,
      "è¿ĩæ»¤åĻ¨": 6060,
      "äºļçĶ²åŁº": 6061,
      "ĠçŁŃ": 6062,
      "SHAMR": 6063,
      "ORMA": 6064,
      "Ġnot": 6065,
      "åĲ¦åĪĻ": 6066,
      "åį·æĿĲæ¶ĤæĸĻ": 6067,
      "åĲ¸éĻĦæĿĲæĸĻåĲ¸æĶ¶": 6068,
      "--------------------------------": 6069,
      "ç©¿æĪ´éĢĤå½ĵçļĦ": 6070,
      "Ġæ¸ħæ¾Ī": 6071,
      "UNç¼ĸåı·": 6072,
      "nolit": 6073,
      "Ġli": 6074,
      "ĠéĨĭéħ¸ä¸ģéħ¯": 6075,
      "éģµå¾ª": 6076,
      "Ġä¸ªä½ĵéĺ²æĬ¤": 6077,
      "æĽ´æĸ°æĹ¥æľŁ": 6078,
      "Ġå½±åĵį": 6079,
      "æ¯ıå¤©": 6080,
      "æ¯ıæī¹æ¬¡æ£Ģæµĭ": 6081,
      "èĤºéĥ¨": 6082,
      "çīĩåŀĭ": 6083,
      "å½©åĮĸå·¥æľīéĻĲåħ¬åı¸": 6084,
      "éº»éĨīæķĪåºĶ": 6085,
      "è¡Ģæ¶²": 6086,
      "éĻ¤æīĢæľīçģ«æºĲ": 6087,
      "Ġå¹¿å·ŀ": 6088,
      "åĤ¨åŃĺåľ¨å¹²çĩ¥": 6089,
      "äº¤èģĶåīĤ": 6090,
      "æ®ĭçķĻçī©": 6091,
      "ĠçĶ²éħļ": 6092,
      "ĠçĶ²ä¹Ļéħ®": 6093,
      "åıĳå¸ĥæĹ¶éĹ´": 6094,
      "åĮħåĲ«çļĦä¿¡æģ¯": 6095,
      "Ġåı¯å¼ķèµ·æĺıçĿ¡æĪĸçľ©æĻķ": 6096,
      "|-------------|": 6097,
      "Ġå·¥ä½ľåľºæīĢ": 6098,
      "çĶ¨æµģåĬ¨æ¸ħæ°´æĪĸçĶŁçĲĨçĽĲæ°´åĨ²æ´Ĺèĩ³å°ĳ": 6099,
      "åĸĤé£Łä»»ä½ķä¸ľè¥¿": 6100,
      "çīĽçļ®": 6101,
      "çĽĳç®¡": 6102,
      "æĿ¡æ¬¾åĿĩä»¥æºĲæĸĩä»¶ä¸ºåĩĨ": 6103,
      "|-------------------|": 6104,
      "å¾®ç²īåĮĸ": 6105,
      "ĠåĬ¨æĢģ": 6106,
      "Ġæ²¹å¢¨": 6107,
      "çī©çĲĨåıĬåĮĸåŃ¦æĢ§è´¨": 6108,
      "Ġæ¬§æ´²": 6109,
      "TREC": 6110,
      "ĠæŁĶ": 6111,
      "åĤ¨åŃĺåĴĮä½¿çĶ¨": 6112,
      "æµģåħ¥ä¸ĭæ°´éģĵ": 6113,
      "Ġå¦Ĥè¯¯åĲ¸åħ¥": 6114,
      "Ġæ°´åĪĨåĲ«éĩı": 6115,
      "å°ģéĹŃåŀĭèĦĤèĤªæĹıèģļå¼Ĥæ°°éħ¸éħ¯": 6116,
      "ĠèģĶåĲĪåĽ½ç¼ĸåı·": 6117,
      "æ°®æ°§åĮĸçī©": 6118,
      "åĩıå°ĳ": 6119,
      "Ġå°ıæĹ¶": 6120,
      "Ġç½ĳç«Ļ": 6121,
      "èĬ³çĥĥæº¶åīĤçŁ³èĦĳæ²¹": 6122,
      "æµ¦ä¸ľ": 6123,
      "æīĺçĽĺ": 6124,
      "ä¹ĻäºĮéĨĩéĨļ": 6125,
      "Ġ6665": 6126,
      "èĭ¯å¹¶èĥį": 6127,
      "ĠåĮĸåŃ¦åĵģèĭ±æĸĩåĲį": 6128,
      "ç¾§åŁº": 6129,
      "çĻ»è®°ä¸Ńå¿ĥ": 6130,
      "ioxide": 6131,
      "åħ«éĥ¨åĪĨ": 6132,
      "ĠæĳĦåħ¥": 6133,
      "ä¹ħæĢ§": 6134,
      "Ġ7429": 6135,
      "èĭ¯ä»£ä¸īèģļæ°°èĥºçĶ²éĨĽæłĳèĦĤ": 6136,
      "ç§»éĻ¤éļĲå½¢çľ¼éķľ": 6137,
      "çĦļçĥ§": 6138,
      "æİĴæĶ¾åĪ°": 6139,
      "è¯±å¯¼åĳķåĲĲ": 6140,
      "85997120": 6141,
      "å¤§äºİæĪĸçŃīäºİä¸ĭéĻĲ": 6142,
      "sbhpp": 6143,
      "è¯ºå½©åĮĸå·¥æľīéĻĲåħ¬åı¸": 6144,
      "åĪĨå¼ĢåŃĺæĶ¾": 6145,
      "Ġ1993": 6146,
      "æľ¬æĿĲæĸĻä¸Ń": 6147,
      "çĽ®æłĩåĻ¨å®ĺæ¯ĴæĢ§": 6148,
      "PvB": 6149,
      "smooth": 6150,
      "®çĽĸåĬĽ": 6151,
      "īç±³çīĩåŀĭ": 6152,
      "å®īåħ¨å¤Ħç½®ä¸İåĤ¨åŃĺæĸ¹æ³ķ": 6153,
      "Ġæİ§åĪ¶åıĤæķ°": 6154,
      "ĠTECHN": 6155,
      "ĠEternal": 6156,
      "å¿ĥèĤºå¤įèĭı": 6157,
      "èŃ¦æĬ¥ä»£çłģ": 6158,
      "çķªç¦º": 6159,
      "ĠéĹªçģ«çĤ¹": 6160,
      "æ°¯éĨĭæłĳèĦĤ": 6161,
      "ĠComplete": 6162,
      "Ġresistance": 6163,
      "SHAMROCK": 6164,
      "åĮħåĲ«çļĦä¿¡æģ¯æĺ¯": 6165,
      "%]": 6166,
      "213": 6167,
      "214": 6168,
      "272": 6169,
      "316": 6170,
      "393": 6171,
      "510": 6172,
      "615": 6173,
      "7102": 6174,
      "819": 6175,
      "AR": 6176,
      "BI": 6177,
      "Béħįæĸ¹": 6178,
      "HE": 6179,
      "Ha": 6180,
      "HMIS": 6181,
      "IL": 6182,
      "IP": 6183,
      "MG": 6184,
      "OW": 6185,
      "PE": 6186,
      "St": 6187,
      "TA": 6188,
      "TS": 6189,
      "VOC": 6190,
      "ZHO": 6191,
      "cn": 6192,
      "ian": 6193,
      "iang": 6194,
      "impl": 6195,
      "lyc": 6196,
      "opment": 6197,
      "res": 6198,
      "ren": 6199,
      "tana": 6200,
      "watch": 6201,
      "ys": 6202,
      "zene": 6203,
      "£åĳĬ": 6204,
      "¥è¯Ĩ": 6205,
      "®è¶³éĩıæ¸©æ°´": 6206,
      "®ä¹¡": 6207,
      "¯åı£": 6208,
      "±¼": 6209,
      "±æķ": 6210,
      "³äºİ": 6211,
      "¶æĢģ": 6212,
      "¸¯åı£": 6213,
      "æŀĭ": 6214,
      "æļ´": 6215,
      "Ġ95": 6216,
      "ĠçĶ±": 6217,
      "Ġä¼ĺå¼Ĥ": 6218,
      "Ġèĭ±": 6219,
      "ĠéĢļè¿ĩ": 6220,
      "Ġèº«ä½ĵéĺ²æĬ¤": 6221,
      "ĠåĲ¦": 6222,
      "Ġèĭıå·ŀ": 6223,
      "Ġä¹³": 6224,
      "Ġè¿ĲåĬ¨": 6225,
      "ĥé²ģ": 6226,
      "ħæĢĿ": 6227,
      "Ĭ¶æĢģ": 6228,
      "Ĳå°Ħ": 6229,
      "ĳæµĬ": 6230,
      "Ķç»Ĩ": 6231,
      "Ļéķĩ": 6232,
      "ĽçĥĪåıįåºĶ": 6233,
      "ľçĿ¡": 6234,
      "**ï¼Ľ": 6235,
      "**ï½ľ**": 6236,
      "åı¹åı·": 6237,
      "äººæ": 6238,
      "Ġæ¡¶": 6239,
      "å®£åĳĬ": 6240,
      "ï¼Ī>": 6241,
      "ĠçĬ¶æĢģ": 6242,
      "åº§": 6243,
      "çļĦæ··åĲĪçī©": 6244,
      "çļĦå»ºè®®": 6245,
      "çļĦåĮºåŁŁ": 6246,
      "çļĦçĶµæ°Ķ": 6247,
      "çĶ¨åĮĸåŃ¦åĵģ": 6248,
      "0001": 6249,
      "è§Ĵ": 6250,
      "Ġ190": 6251,
      "Ġ104": 6252,
      "Ġ138": 6253,
      "çģŃ": 6254,
      "ä»Ķç»Ĩ": 6255,
      "åĲ¸æ²¹": 6256,
      "æ°´ç³»": 6257,
      "æ°´æŀ": 6258,
      "æ°´åĸ·éĽ¾": 6259,
      "åĴĮç»ı": 6260,
      "åĴĮçģ«èĬ±": 6261,
      "åĴĮæĺİçģ«": 6262,
      "åĴĮçľ¼æįŁä¼¤": 6263,
      "åĴĮèģļç¡ħæ°§çĥ·": 6264,
      "åı¯åĽºåĮĸ": 6265,
      "åı¯è¾¾": 6266,
      "åı¯è§ģ": 6267,
      "åı¯å½¢æĪĲçĪĨçĤ¸æĢ§æ··åĲĪçī©": 6268,
      "åī§": 6269,
      "å°¿": 6270,
      "æ³³": 6271,
      "|------|----------|": 6272,
      "æ°§æ°Ķ": 6273,
      "èĤĿ": 6274,
      "ä¼Ļéķĩ": 6275,
      "æĪĸçĪĨçĤ¸": 6276,
      "æĪĸä¸¥éĩį": 6277,
      "æĪĸä»İ": 6278,
      "æĪĸæŃ£åİĭèĩªç»Ļå¼ıåĳ¼åĲ¸åĻ¨": 6279,
      "æĪĸçļ®çĸ¹": 6280,
      "ä¸įæĺ¯": 6281,
      "ä¸įæĺİæĺ¾": 6282,
      "äº§åĵģæĢ§èĥ½": 6283,
      "äº§åĵģæĮĩæłĩ": 6284,
      "016": 6285,
      "æ°Ķä¸Ń": 6286,
      "æ°Ķå¼ıéĿ¢ç½©": 6287,
      "éĩıå¹³åĿĩå®¹è®¸æµĵåº¦": 6288,
      "æİ¥çĿĢ": 6289,
      "æµĳæµĬ": 6290,
      "å¯®ä¹¡": 6291,
      "1604": 6292,
      "1603": 6293,
      "060": 6294,
      "ä¸ŃçŃī": 6295,
      "ç³»æķ°": 6296,
      "å·Ŀ": 6297,
      "éħ¸ç±»": 6298,
      "å½¤": 6299,
      "çľ¼éĿ¢éĺ²æĬ¤": 6300,
      "çľ¼ç§ĳåĮ»çĶŁ": 6301,
      "çļ®èĤ¤æĪĸ": 6302,
      "ä¿Ŀç®¡": 6303,
      "1795": 6304,
      "ä½¿æĤ£èĢħ": 6305,
      "åħ¨éĿ¢": 6306,
      "åħ¨çĲĥ": 6307,
      "æī¬": 6308,
      "éģŃ": 6309,
      "éģ¿åħ": 6310,
      "ä¸ģä¼Ļéķĩ": 6311,
      "äºĮçĶ²": 6312,
      "çĲĨåĮĸçī¹æĢ§": 6313,
      "åį±éĻ©åıįåºĶ": 6314,
      "æ±ī": 6315,
      "åĢ¦": 6316,
      "131": 6317,
      "135": 6318,
      "åıĬå®īåħ¨": 6319,
      "åıĬåħ¶ä»ĸ": 6320,
      "åıĬçĶŁäº§åķĨ": 6321,
      "æĶ¿": 6322,
      "éħįæĸ¹ä¸Ń": 6323,
      "ĠPast": 6324,
      "æłĳèĦĤçłĶåıĳä¸Ńå¿ĥ": 6325,
      "åľ¨æ°´": 6326,
      "åľ¨å®ŀéªĮå®¤": 6327,
      "åĮĸåŃ¦å·¥ä¸ļåĮº": 6328,
      "éĢļæ°Ķå¼ıéĿ¢ç½©": 6329,
      "Ġç¬¬åįģ": 6330,
      "Ġç¬¬åħ«éĥ¨åĪĨ": 6331,
      "å¥¶": 6332,
      "755": 6333,
      "æ¸ħæĸ°": 6334,
      "127": 6335,
      "129": 6336,
      "Ġ56": 6337,
      "Ġ500": 6338,
      "å¦Ĥçļ®èĤ¤": 6339,
      "å¦ĤåıĳçĶŁçļ®èĤ¤åĪºæ¿Ģ": 6340,
      "å¤§åŃ¦": 6341,
      "å®īåħ¨ä½¿çĶ¨": 6342,
      "æ¶²ä½ĵçĬ¶": 6343,
      "551": 6344,
      "Ġ(>": 6345,
      "å¿½": 6346,
      "åıĳçĤİ": 6347,
      "Ġäº§åĵģæĬĢæľ¯æķ°æį®è¡¨": 6348,
      "å¯¹äººä½ĵ": 6349,
      "çľ¼çĿĽåĴĮ": 6350,
      "çľ¼çĿĽèĩ³å°ĳ": 6351,
      "æ¶ĤæĸĻä¸Ń": 6352,
      "æ¶ĤæĸĻå·¥ä¸ļ": 6353,
      "ä¾Ľè´§": 6354,
      "anuf": 6355,
      "é«ĺäºİ": 6356,
      "Ġ49": 6357,
      "284": 6358,
      "è¾Ĳå°Ħ": 6359,
      "èĴ¸æ°ĶåĴĮ": 6360,
      "èĩ´çªģåıĺæĢ§": 6361,
      "èĩ´è¿ĩæķıæĢ§": 6362,
      "ĠSol": 6363,
      "ĠSEC": 6364,
      "æ¡¥": 6365,
      "ä¼ļéĢłæĪĲ": 6366,
      "æĹłæľº": 6367,
      "æĹłæķĪ": 6368,
      "ç¡¬": 6369,
      "å¹¶ä½¿": 6370,
      "ä¸ºæ¶²ä½ĵçĬ¶": 6371,
      "ç¦»å¼Ģ": 6372,
      "è¿Ľåı£": 6373,
      "å¹²æĢ§": 6374,
      "2400": 6375,
      "èĢĲçĩĥ": 6376,
      "èĢĲç¢±": 6377,
      "æ¯ĴæĢ§èµĦæĸĻ": 6378,
      "å½¢çĬ¶": 6379,
      "Ġ61": 6380,
      "Ġ62": 6381,
      "Ġ800": 6382,
      "Ġ8888": 6383,
      "enol": 6384,
      "âĦĥãĢģ": 6385,
      "âĦĥï¼Į": 6386,
      "âĦĥï¼Ľ": 6387,
      "éĽĦ": 6388,
      "éĽħæĢĿ": 6389,
      "Ġåį±éĻ©è¯´æĺİ": 6390,
      "æīĢè½½": 6391,
      "å¼Ĥä¸ģåŁº": 6392,
      "æĶ¾åħ¥": 6393,
      "å¼ķèµ·çļĦ": 6394,
      "-----------": 6395,
      "ĠDevel": 6396,
      "çĥ¯ç±»æłĳèĦĤ": 6397,
      "ĠThe": 6398,
      "ĠTiO": 6399,
      "ĠTIOXIDE": 6400,
      "æ¯Ķèī²è®¡": 6401,
      "ĠEU": 6402,
      "Ġ2026": 6403,
      "Ġ2023": 6404,
      "æĺ¯åĽºåĮĸåīĤ": 6405,
      "999": 6406,
      "éģ¿åħįéĺ³åħīçĽ´å°Ħ": 6407,
      "æĵįä½ľå¤ĦçĲĨ": 6408,
      "ĠåĮĸåŃ¦åĵģä¸ŃæĸĩåĲįç§°": 6409,
      "altana": 6410,
      "çŃīçĹĩçĬ¶": 6411,
      "æµģéĢŁ": 6412,
      "è¡Įä¸º": 6413,
      "ĠAD": 6414,
      "ä½İä½į": 6415,
      "æ³Ħæ¼ıåĮºåŁŁ": 6416,
      "æ³Ħæ¼ıå¤ĦçĲĨæĸ¹æ³ķ": 6417,
      "379": 6418,
      "è¿ĲéĢģ": 6419,
      "ĠReg": 6420,
      "å½ĵéĩı": 6421,
      "èĩªå¤ĩ": 6422,
      "èĩªå·±": 6423,
      "054": 6424,
      "æĥ¯": 6425,
      "æĥ³": 6426,
      "èĥ¶åį°æ²¹å¢¨": 6427,
      "èģĶéĽħæĢĿ": 6428,
      "æľªç»ı": 6429,
      "æµ·æ´ĭæ±¡æŁĵçī©": 6430,
      "ç²ĺèĨľ": 6431,
      "Ġå¤ĸ": 6432,
      "9565": 6433,
      "äºĭä¸ļ": 6434,
      "Ġåį±éĻ©æĢ§æłĩè¯Ĩ": 6435,
      "éķ¿æĺ¥": 6436,
      "æľĢä½İ": 6437,
      "ä¿ĿæĬ¤è®¾å¤ĩ": 6438,
      "æīĢæľīçĤ¹çģ«æºĲ": 6439,
      "éľĢæ±Ĥ": 6440,
      "æĭ¿": 6441,
      "ĠKG": 6442,
      "ĠLEL": 6443,
      "äº§çĶŁçļĦ": 6444,
      "åİŁè£ħ": 6445,
      "åİŁä½ĵä½į": 6446,
      "ä¸¥éĩįçľ¼çĿĽæįŁä¼¤": 6447,
      "åĨħçļĦ": 6448,
      "rov": 6449,
      "è¯·èģĶç³»": 6450,
      "è¯·åĴ¨è¯¢": 6451,
      "åºĶçĶ¨èĮĥåĽ´": 6452,
      "é»Ħå±±å¸Ĥ": 6453,
      "GHSåį±å®³": 6454,
      "GHSæłĩåĩĨ": 6455,
      "ç§įç±»": 6456,
      "IARC": 6457,
      "å¸¸çļĦ": 6458,
      "æĸĩæ¡£æķ´çĲĨæĹ¥æľŁ": 6459,
      "ä¼łæĴŃ": 6460,
      "ĠçĶ¨æ°´åĨ²æ´Ĺ": 6461,
      "åĽ´åł": 6462,
      "è¿Ĳè¾ĵåĴĮ": 6463,
      "è¿Ĳè¾ĵä¿¡æģ¯": 6464,
      "Ġç»Ħ": 6465,
      "Ġç»ı": 6466,
      "æ·»åĬłçļĦ": 6467,
      "æ·»åĬłåĪ°": 6468,
      "èĤ¥çļĤåĨ²æ´Ĺ": 6469,
      "äºĮæ°§åĮĸç¢³æĪĸ": 6470,
      "å¤įåĲĪ": 6471,
      "å¤įåİŁä½ĵä½į": 6472,
      "å¼Ģå°ģ": 6473,
      "å¼Ģå¤§åŃ¦": 6474,
      "èĨľåİļ": 6475,
      "Ġåı¯çĶ¨äºİ": 6476,
      "æ°Ķåĳ³ä¸įæĺİæĺ¾": 6477,
      "éĢļé£İèī¯å¥½çļĦåľ°æĸ¹": 6478,
      "ĠåĲ¸åħ¥åį±å®³": 6479,
      "Ġç«ĭåį³çĶ¨": 6480,
      "è¿Ľè¡ĮåĪĨç±»": 6481,
      "å½¢æĪĲåı¯çĩĥ": 6482,
      "è¢«æ±¡æŁĵçļĦ": 6483,
      "è¢«çĤ¹çĩĥ": 6484,
      "å£«": 6485,
      "å¼ºç¢±": 6486,
      "å¼ºçĥĪåıįåºĶ": 6487,
      "æ¸©åº¦ä¸ĭ": 6488,
      "ACUR": 6489,
      "åįĹå¼Ģå¤§åŃ¦": 6490,
      "éĤ¦åĮĸå·¥æľīéĻĲåħ¬åı¸": 6491,
      "åĪĩå¿Į": 6492,
      "åīįåħĪ": 6493,
      "ĠÂ·": 6494,
      "å¤´æĺı": 6495,
      "å¤´ä½İä½į": 6496,
      "ç¦ģæŃ¢æİĴåħ¥": 6497,
      "æĸĩä»¶å¤¹": 6498,
      "åĮħè£ħç±»åĪ«": 6499,
      "åĮħè£ħè¢ĭ": 6500,
      "éĩĳå±ŀæ¶ĤæĸĻ": 6501,
      "ç¾ŁçĶ²åŁº": 6502,
      "å¹²ç²īæĪĸ": 6503,
      "ĠéĹ´æİ¥": 6504,
      "Ġæ¶Īéĺ²åĳĺ": 6505,
      "Ġå¯¹åıĶä¸ģåŁº": 6506,
      "Ġå¯¹æ°´çİ¯å¢ĥ": 6507,
      "åįķæ¬¡æİ¥è§¦": 6508,
      "çĶ¨å¤§éĩıæ°´åĨ²æ´Ĺ": 6509,
      "é¥°": 6510,
      "é¥±åĴĮ": 6511,
      "Ġæ°´éĽ¾": 6512,
      "ç®¡éģĵ": 6513,
      "åıĮä¸Ļéħ®": 6514,
      "ĠGBA": 6515,
      "Ġéģ¿åħįæİ¥è§¦": 6516,
      "å¯Ĩå°ģå®¹åĻ¨ä¸Ń": 6517,
      "æµĵåº¦èĮĥåĽ´": 6518,
      "æŁ±": 6519,
      "ANO": 6520,
      "ANY": 6521,
      "ĠåĽºåĮĸ": 6522,
      "åĽºä½ĵåĪĨ": 6523,
      "åĽºä½ĵçİ¯æ°§æłĳèĦĤ": 6524,
      "962": 6525,
      "ĠUV": 6526,
      "Ġä¹ĻåŁºèĭ¯": 6527,
      "åĪĨæķ£ä½ĵ": 6528,
      "èģĶç³»æĸ¹å¼ı": 6529,
      "666": 6530,
      "Ġå¼±": 6531,
      "ç§ĳéĤ¦åĮĸå·¥æľīéĻĲåħ¬åı¸": 6532,
      "Ġåį±å®³çī©æĪĲåĪĨ": 6533,
      "æĲº": 6534,
      "æ¶ĪéĻ¤": 6535,
      "åı¯èĥ½ä¼ļäº§çĶŁ": 6536,
      "åı¯èĥ½ä¼ļåĪºæ¿Ģåĳ¼åĲ¸ç³»ç»Ł": 6537,
      "Ġsec": 6538,
      "åı¯èĥ½å¼ķèµ·åĳ¼åĲ¸éģĵåĪºæ¿Ģ": 6539,
      "æµģåĬ¨æ¸ħæ°´åĨ²æ´Ĺ": 6540,
      "è½¬ç§»åĩºæ": 6541,
      "Ġçī©è´¨å®īåħ¨èµĦæĸĻè¡¨": 6542,
      "Ġçī©è´¨ä¸İåħ¬åı¸æłĩè¯Ĩ": 6543,
      "ECK": 6544,
      "Ġrpm": 6545,
      "æŃ¤ç±»": 6546,
      "è¾¾é¢ľæĸĻ": 6547,
      "Ġwarr": 6548,
      "åħĭèı²": 6549,
      "Ġä¸Ĭæµ·æħ§æĸ°åĮĸå·¥æľīéĻĲåħ¬åı¸": 6550,
      "èģļåĲĪçī©æľīéĻĲåħ¬åı¸": 6551,
      "ellus": 6552,
      "|--------------": 6553,
      "IOSH": 6554,
      "åĪºæ¿ĢæĢ§æ°Ķä½ĵ": 6555,
      "ĠæłĳèĦĤæº¶æ¶²": 6556,
      "å¾·ç²ĺåº¦": 6557,
      "è¯¥äº§åĵģä¸ºæ¶²ä½ĵçĬ¶": 6558,
      "æł¹æį®çĹĩçĬ¶": 6559,
      "ĠIndustrial": 6560,
      "ĠGHSåį±éĻ©æĢ§åĪĨç±»": 6561,
      "èĦ±æİīæ±¡æŁĵè¡£çī©": 6562,
      "æ°§åŁºä¹ĻéĨĩ": 6563,
      "æĿ¡ä»¶ä¸ĭåĤ¨åŃĺ": 6564,
      "æĿ¡ä»¶ä¸ĭç¨³å®ļ": 6565,
      "å¤±æĺİ": 6566,
      "éģĩçģ«æºĲ": 6567,
      "ä¸įè¦ģåĤ¬åĲĲ": 6568,
      "ä¸įè¦ģè¿Ľé£Ł": 6569,
      "Ġçī©çĲĨåį±éĻ©": 6570,
      "çĶ¨èĤ¥çļĤæ°´åıĬæ¸ħæ°´å½»åºķåĨ²æ´Ĺçļ®èĤ¤": 6571,
      "ç¼©åŃĶ": 6572,
      "ade": 6573,
      "Ġdata": 6574,
      "Ġæľªè¢«åĪĨç±»": 6575,
      "çº¢èĤ¿": 6576,
      "ĠCOMP": 6577,
      "ĠXn": 6578,
      "äºİéĺ´åĩīå¤Ħ": 6579,
      "èĬ³é¦Ļæ°Ķåĳ³": 6580,
      "æĪĳä»¬çļĦäº§åĵģ": 6581,
      "åĨ·åį´å®¹åĻ¨": 6582,
      "Ġinformation": 6583,
      "åħ±åĴĮ": 6584,
      "Ġä¸¥éĩįçľ¼çĿĽæįŁä¼¤": 6585,
      "æ±Łéĥ½": 6586,
      "èĭ±æĸĩåĲįç§°": 6587,
      "Ġä¼ģä¸ļåľ°åĿĢ": 6588,
      "çº¸è¢ĭ": 6589,
      "china": 6590,
      "Ġå¸ĥé²ģ": 6591,
      "ä¿ĿæĮģåĳ¼åĲ¸éģĵçķħéĢļ": 6592,
      "ropanol": 6593,
      "æļĤ": 6594,
      "ĠçĪ±æķ": 6595,
      "ä¹Ļéħ¸ä¸ģéħ¯": 6596,
      "ä¸Ńå¿ĥæĪĸå°±åĮ»": 6597,
      "å»¶éķ¿": 6598,
      "çģ«çĦ°åĴĮçģ«èĬ±": 6599,
      "æħ¢æĢ§çļĦå½±åĵį": 6600,
      "Ġæīĭéĥ¨éĺ²æĬ¤": 6601,
      "Ġè¿ľç¦»çģ«æºĲ": 6602,
      "Coæ¯Ķèī²è®¡": 6603,
      "Ġåİ»": 6604,
      "åİ¿æŀĭ": 6605,
      "è¯ķéªĮçļĦ": 6606,
      "ĠçĶ¨å¤§éĩıæ°´å½»åºķåĨ²æ´Ĺèĩ³å°ĳ": 6607,
      "ĠçŁ¥è¯Ĩ": 6608,
      "å°Ķå¾·ç²ĺåº¦": 6609,
      "åĲĪæĪĲæĿĲæĸĻæľīéĻĲåħ¬åı¸": 6610,
      "Ġéķ¿åħ´åĮĸåŃ¦å·¥ä¸ļ": 6611,
      "ulation": 6612,
      "ĠYas": 6613,
      "|------|------|------|---------|": 6614,
      "ç»ıæµİåĽŃ": 6615,
      "è¿Ľè¡Įäººå·¥åĳ¼åĲ¸æĪĸ": 6616,
      "igment": 6617,
      "å·¥ä¸ļåĮºå±ı": 6618,
      "Ġæ··åĲĪ": 6619,
      "Ġç¡®": 6620,
      "ĠJin": 6621,
      "ĠJiang": 6622,
      "Ġæ¼ĨèĨľ": 6623,
      "åĮºæ¸¯åı£": 6624,
      "ç½ĳåĿĢ": 6625,
      "ç´§éĹŃ": 6626,
      "Chemwatch": 6627,
      "GIES": 6628,
      "anty": 6629,
      "æĥ°æĢ§åĲ¸éĻĦæĿĲæĸĻåĲ¸æĶ¶": 6630,
      "actur": 6631,
      "Ġå¾®ç±³": 6632,
      "Ġæ¯ĴçĲĨåŃ¦èµĦæĸĻ": 6633,
      "ability": 6634,
      "phor": 6635,
      "åĲĪè§Ħå£°æĺİ": 6636,
      "çŃĳåł¤": 6637,
      "è¿Ľåħ¥ä¸ĭæ°´éģĵæĪĸ": 6638,
      "ĠçĶŁæ®ĸç»Ĩèĥŀ": 6639,
      "å½©èī²": 6640,
      "äºĮæ°§åĮĸç¡ħ": 6641,
      "irenol": 6642,
      "åįıåĬ©": 6643,
      "æ¬§æ´²": 6644,
      "Ġè¿ħéĢŁèĦ±ç¦»çİ°åľºç§»åĪ°ç©ºæ°Ķæĸ°é²ľå¤Ħ": 6645,
      "åĽ½éĻħè§Ħç«ł": 6646,
      "ertellus": 6647,
      "ç§¯èģļéĿĻçĶµ": 6648,
      "ETèĨľ": 6649,
      "ĠæĺĵçĩĥæĢ§": 6650,
      "ç«ĭåĪ»": 6651,
      "çİ¯å¢ĥä¿ĿæĬ¤æİªæĸ½": 6652,
      "ä¸Ńæ¯Ĵæİ§åĪ¶ä¸Ńå¿ĥæĪĸå°±åĮ»": 6653,
      "åĳ¨åĽ´çİ¯å¢ĥ": 6654,
      "quatic": 6655,
      "çīĽå¥¶": 6656,
      "åĴĮéŀĭåŃĲ": 6657,
      "åĮĸåŃ¦å·¥ä¸ļåĮºæ": 6658,
      "ä¼ļå¯¹åĻ¨å®ĺéĢłæĪĲæįŁå®³": 6659,
      "ĠçĶ²åŁºä¸Ļçĥ¯éħ¸": 6660,
      "ä¸ºæ·": 6661,
      "ä¸īåħĥåħ±èģļçī©": 6662,
      "çī©çĲĨåıĬåĮĸåŃ¦": 6663,
      "Ġä¸Ļçĥ¯éħ¸æłĳèĦĤ": 6664,
      "å»ºçŃĳ": 6665,
      "èĤ¾èĦı": 6666,
      "éĨĩéħ¸æłĳèĦĤ": 6667,
      "Ġå¦Ĥçļ®èĤ¤æ²¾æŁĵ": 6668,
      "éķ¿æľŁæİ¥è§¦åı¯èĥ½ä¼ļå¯¼èĩ´": 6669,
      "åĹľçĿ¡": 6670,
      "çļĦä¿ĿæĬ¤æīĭå¥Ĺ": 6671,
      "åı¯éĢłæĪĲéģĹä¼łæĢ§ç¼ºéĻ·": 6672,
      "Ġ2811": 6673,
      "å¤Ħäºİå¤įåİŁä½ĵä½į": 6674,
      "æİ¥è§¦æİ§åĪ¶åĴĮä¸ªä½ĵéĺ²æĬ¤": 6675,
      "å¾ªçİ¯ç»ıæµİåĽŃ": 6676,
      "å°¤åħ¶æĺ¯": 6677,
      "NFPA": 6678,
      "æĿ¾æ±Ł": 6679,
      "ä¸ģèħĪæ©¡èĥ¶": 6680,
      "é«ĺåĪĨåŃĲèģļéħ¯": 6681,
      "èģĶç»ľçĶµè¯Ŀ": 6682,
      "æĳĺè¦ģ": 6683,
      "OLOGIES": 6684,
      "Ġå¸¸å·ŀç§ĳéĤ¦åĮĸå·¥æľīéĻĲåħ¬åı¸": 6685,
      "çļĦéĺ²æĬ¤çľ¼ç½©": 6686,
      "æĺĨå±±å¸Ĥ": 6687,
      "Ġé¥®è¶³éĩıæ¸©æ°´": 6688,
      "åĲ¸åħ¥åį±å®³ç±»åĪ«": 6689,
      "éļĶç¦»": 6690,
      "ĠLIQU": 6691,
      "ä¹ĭåīįåĪĩåĭ¿": 6692,
      "éĺ²èĮĥæİªæĸ½ä¹ĭåīįåĪĩåĭ¿": 6693,
      "å¿ħé¡»ä½¿çĶ¨éĢļæ°Ķå¼ıéĿ¢ç½©": 6694,
      "Ġä¸ĻäºĮéĨĩçĶ²éĨļéĨĭéħ¸éħ¯": 6695,
      "Email": 6696,
      "çģ«åĬ¿èĶĵå»¶": 6697,
      "Ġ3749": 6698,
      "åĮĸåŃ¦å®īåħ¨éĺ²æĬ¤çľ¼éķľ": 6699,
      "8669009": 6700,
      "å®īåħ¨ç®¡çĲĨæĿ¡ä¾ĭ": 6701,
      "åĽ½éļĨæłĳèĦĤçłĶåıĳä¸Ńå¿ĥ": 6702,
      "éĵĤèģĶéĽħæĢĿ": 6703,
      "è¯·æŁ¥éĺħ": 6704,
      "¸ç¦»çĶ²éĨĽåĲ«éĩı": 6705,
      "ĠåĬ©åīĤçĶ¨éĩı": 6706,
      "çĮĽçĥĪåıįåºĶ": 6707,
      "åįĬéĿ¢ç½©": 6708,
      "çģĮè£ħ": 6709,
      "æĬĳåĪ¶": 6710,
      "æĹŃéĺ³": 6711,
      "æĺİç¤ºæĪĸæļĹ": 6712,
      "34419": 6713,
      "å°ıäºİä¸ĬéĻĲ": 6714,
      "åįĹéĢļå¸Ĥç»ıæµİæĬĢæľ¯å¼ĢåıĳåĮºæ¸¯åı£": 6715,
      "å±ıåįĹå·¥ä¸ļåĮºå±ı": 6716,
      "è®Ńç»ĥçļĦäººåĳĺ": 6717,
      "Ġå®īå¾½çľģé»Ħå±±å¸Ĥ": 6718,
      "AMMA": 6719,
      "ĠRHE": 6720,
      "Ġæŀģ": 6721,
      "Ġ13690": 6722,
      "åĴĮèģļåĲĪçī©æ¶Ĥå±Ĥ": 6723,
      "çļ®èĤ¤çģ¼ä¼¤åĴĮçľ¼æįŁä¼¤": 6724,
      "æ¯ķåħĭåĬ©åīĤ": 6725,
      "oldt": 6726,
      "è·Ŀç¦»": 6727,
      "æ»¡è¶³": 6728,
      "Ġçº³ç±³æ°§åĮĸéĵģçº¢": 6729,
      "å®¶åħ·æ¶ĤæĸĻ": 6730,
      "æĸ½æķĳèĢħçļĦ": 6731,
      "±¡æŁĵåĮº": 6732,
      "âĹĭ": 6733,
      "çħ®": 6734,
      "Ġether": 6735,
      "ĠçĤ¹çģ«æ¸©åº¦": 6736,
      "çĶŁæķĪæĹ¥æľŁ": 6737,
      "æ²¿åľ°éĿ¢": 6738,
      "å¤§è±Ĩæ²¹": 6739,
      "æīĢåĲ«ä¿¡æģ¯": 6740,
      "2119489": 6741,
      "æīĢæľīå®īåħ¨éĺ²èĮĥæİªæĸ½ä¹ĭåīįåĪĩåĭ¿": 6742,
      "æĽ´å¤ļä¿¡æģ¯": 6743,
      "æ»ĳçĪ½æĢ§": 6744,
      "çģ«åľºä¸ŃçļĦå®¹åĻ¨": 6745,
      "ORMATION": 6746,
      "ĠåĬ¨æĢģç²ĺåº¦": 6747,
      "ĠæŁĶéŁ§æĢ§": 6748,
      "èĭ¯å¹¶èĥįèĥº": 6749,
      "ĠTECHNOLOGIES": 6750,
      "å¿ĥèĤºå¤įèĭıæľ¯": 6751,
      "ZHOU": 6752,
      "Ġè¿ĲåĬ¨é»ıåº¦": 6753,
      "æ°´æŀª": 6754,
      "å¯®ä¹¡å±ıåįĹå·¥ä¸ļåĮºå±ı": 6755,
      "ä½¿æĤ£èĢħå¤Ħäºİå¤įåİŁä½ĵä½į": 6756,
      "åıĬçĶŁäº§åķĨèµĦæĸĻ": 6757,
      "ĠPaste": 6758,
      "anufactur": 6759,
      "ĠSECTION": 6760,
      "ĠDevelopment": 6761,
      "åĽ´åłµ": 6762,
      "ACURE": 6763,
      "åĪĩå¿Įæ··åĤ¨": 6764,
      "ĠéĹ´æİ¥é£Łåĵģæ·»åĬłåīĤ": 6765,
      "åıĮä¸Ļéħ®éĨĩ": 6766,
      "è½¬ç§»åĩºæ±¡æŁĵåĮº": 6767,
      "Ġwarranty": 6768,
      "åħĭèı²å°Ķå¾·ç²ĺåº¦": 6769,
      "ĠCOMPANY": 6770,
      "Ġå¸ĥé²ģåħĭèı²å°Ķå¾·ç²ĺåº¦": 6771,
      "ĠçĪ±æķ¬": 6772,
      "åİ¿æŀĭå¯®ä¹¡å±ıåįĹå·¥ä¸ļåĮºå±ı": 6773,
      "ĠçŁ¥è¯Ĩåºĵ": 6774,
      "éķ¿æľŁæİ¥è§¦åı¯èĥ½ä¼ļå¯¼èĩ´æħ¢æĢ§çļĦå½±åĵį": 6775,
      "ĠLIQUID": 6776,
      "å¿ħé¡»ä½¿çĶ¨éĢļæ°Ķå¼ıéĿ¢ç½©æĪĸæŃ£åİĭèĩªç»Ļå¼ıåĳ¼åĲ¸åĻ¨": 6777,
      "éĵĤèģĶéĽħæĢĿè¾¾é¢ľæĸĻ": 6778,
      "åįĹéĢļå¸Ĥç»ıæµİæĬĢæľ¯å¼ĢåıĳåĮºæ¸¯åı£å·¥ä¸ļ": 6779,
      "2119489379": 6780,
      "ä½¿æĤ£èĢħå¤Ħäºİå¤įåİŁä½ĵä½įå¹¶å°±åĮ»": 6781,
      "åİ¿æŀĭå¯®ä¹¡å±ıåįĹå·¥ä¸ļåĮºå±ıåįĹè·¯": 6782,
      "-(": 6783,
      "-:|": 6784,
      "234": 6785,
      "320": 6786,
      "424": 6787,
      "5100": 6788,
      "5746": 6789,
      "8130": 6790,
      "8131": 6791,
      "900": 6792,
      "9300": 6793,
      ":|------|": 6794,
      "Aç±»": 6795,
      "DG": 6796,
      "Dynoadd": 6797,
      "HC": 6798,
      "IM": 6799,
      "IEC": 6800,
      "NI": 6801,
      "NIOSH": 6802,
      "OEL": 6803,
      "PBT": 6804,
      "RE": 6805,
      "SM": 6806,
      "ST": 6807,
      "Shamrock": 6808,
      "The": 6809,
      "UL": 6810,
      "Un": 6811,
      "UCA": 6812,
      "YM": 6813,
      "amin": 6814,
      "dit": 6815,
      "em": 6816,
      "eat": 6817,
      "ear": 6818,
      "fo": 6819,
      "ib": 6820,
      "iu": 6821,
      "lid": 6822,
      "pos": 6823,
      "phen": 6824,
      "qiu": 6825,
      "rol": 6826,
      "su": 6827,
      "san": 6828,
      "ust": 6829,
      "vPvB": 6830,
      "¡æł¸": 6831,
      "§è¡Į": 6832,
      "³åĹ": 6833,
      "·å¤Ħ": 6834,
      "¹åĸĦ": 6835,
      "¿ä»£": 6836,
      "âĨ": 6837,
      "æĩ": 6838,
      "ĠÎ": 6839,
      "Ġæľ¬": 6840,
      "ĠåĲįç§°": 6841,
      "Ġæĸ°": 6842,
      "Ġæľīå®³": 6843,
      "ĠåıįåºĶ": 6844,
      "Ġåħ·æľī": 6845,
      "ĠæľĪ": 6846,
      "Ġèģļéħ¯": 6847,
      "Ġth": 6848,
      "Ġä¿¡åı·è¯į": 6849,
      "Ġä»¥ä¸ĭ": 6850,
      "ĠéĻįä½İ": 6851,
      "Ġèĥ¶ç²ĺåīĤ": 6852,
      "ĠåĲįå½ķ": 6853,
      "ĠæľīæķĪ": 6854,
      "Ġåı£æľį": 6855,
      "ĠçĶ±äºİ": 6856,
      "Ġè±¡å½¢åĽ¾": 6857,
      "Ġè¯¦": 6858,
      "ĤæīĢæľīå®īåħ¨éĺ²èĮĥæİªæĸ½ä¹ĭåīįåĪĩåĭ¿": 6859,
      "ĪæĿĥ": 6860,
      "ıåı·": 6861,
      "ĺæ¼Ĩ": 6862,
      "łåĳĬ": 6863,
      "ŃçŁ³": 6864,
      "ï¼ģ": 6865,
      "ä¸´": 6866,
      "åĲ¨": 6867,
      "åħ¼": 6868,
      "æĸĳ": 6869,
      "æĸŃçģ«": 6870,
      "Ġå¥": 6871,
      "Ġåĸ": 6872,
      "Ġæ£Ģ": 6873,
      "ï¼ī*": 6874,
      "ï¼ī.": 6875,
      "ï¼īï½ľ": 6876,
      "Ġç«ĭ": 6877,
      "éħĲ": 6878,
      "çļĦåĪºæ¿Ģ": 6879,
      "çļĦäºº": 6880,
      "çļĦèĸĦèĨľ": 6881,
      "æİ¨": 6882,
      "éĻ¢": 6883,
      "åĪĨåĪĨæŀĲ": 6884,
      "Ġ106": 6885,
      "Ġ119": 6886,
      "Ġ160": 6887,
      "Ġ128": 6888,
      "Ġ118": 6889,
      "Ġ137": 6890,
      "Ġ152": 6891,
      "Ġ105": 6892,
      "Ġ1866": 6893,
      "åį§": 6894,
      "éĺ²æ¸Ĺ": 6895,
      "éĺ²æ½®": 6896,
      "109": 6897,
      "åĮĸæ°¢": 6898,
      "åĴĻ": 6899,
      "åĴ³åĹ": 6900,
      "**ï¼ļ(": 6901,
      "è¿ª": 6902,
      "Ġé¦": 6903,
      "æ°´æµģ": 6904,
      "åı¯ä½ľ": 6905,
      "åı¯æĬĹ": 6906,
      "åı¯æĶ¹åĸĦ": 6907,
      "2024": 6908,
      "2062": 6909,
      "è¡¡": 6910,
      "åĳĪ": 6911,
      "æĹ¦": 6912,
      "æĹ·å¤Ħ": 6913,
      "æ³¢": 6914,
      "å¼¹æĢ§": 6915,
      "çľĭ": 6916,
      "æĪĸæĮģç»Ń": 6917,
      "æĪĸåıįå¤į": 6918,
      "æĪĸåķĨä¸ļ": 6919,
      "æĪĸä¸Ńæ¯Ĵæİ§åĪ¶ä¸Ńå¿ĥ": 6920,
      "æĪĸæµĵåº¦èĮĥåĽ´": 6921,
      "åºĶå¤ĩ": 6922,
      "èĥ½åľ¨": 6923,
      "èĥ½ä¸İç©ºæ°Ķå½¢æĪĲçĪĨçĤ¸æĢ§æ··åĲĪçī©": 6924,
      "çİ»çĴĥ": 6925,
      "ä¸įçĩĥ": 6926,
      "äº§åĵģæķ°æį®è¡¨": 6927,
      "äº§åĵģæııè¿°": 6928,
      "äº§åĵģè¿Ľåħ¥ä¸ĭæ°´éģĵ": 6929,
      "Ġ23": 6930,
      "Ġ245": 6931,
      "Ġ242": 6932,
      "163": 6933,
      "å·´": 6934,
      "æ¶²æĢģ": 6935,
      "çļ®éĿ©": 6936,
      "åĨ³äºİ": 6937,
      "æľ¬æĸĩæ¡£": 6938,
      "å¤Ħæī©æķ£åĪ°çĽ¸å½ĵè¿ľ": 6939,
      "æİ¥è§¦çľ¼çĿĽ": 6940,
      "çļ®èĤ¤ä¸Ĭ": 6941,
      "äºİå¤ĸæ³Ħ": 6942,
      "éħįæĪ´": 6943,
      "åŁİ": 6944,
      "1790": 6945,
      "éĨĩæ³¡æ²«": 6946,
      "æº¶æ³¡æ²«": 6947,
      "æº¶çº¤": 6948,
      "çĶµæ³³": 6949,
      "åĳ¼åĲ¸è®¾å¤ĩ": 6950,
      "åĪºæ¿Ģç±»åĪ«": 6951,
      "éģ®çĽĸåĬĽ": 6952,
      "Ġ304": 6953,
      "ä½¿çĶ¨ä¸įä¼ļ": 6954,
      "ä¸İå®īåħ¨æĬĢæľ¯è¯´æĺİä¹¦": 6955,
      "åĲįæĸ¯": 6956,
      "åıĬåħ¶": 6957,
      "åıĬçģŃçģ«åīĤ": 6958,
      "åıĬæĵįä½ľå¤ĦçĲĨ": 6959,
      "ĠCE": 6960,
      "ĠCR": 6961,
      "ĠPU": 6962,
      "ĠPVC": 6963,
      "åĮĸåŃ¦èĤ¡ä»½æľīéĻĲåħ¬åı¸": 6964,
      "Ġ022": 6965,
      "åŀĭåı·": 6966,
      "æĹ¶ä¼ļ": 6967,
      "æĹ¶çļĦéĢļé£İ": 6968,
      "çĥĺçĥ¤æĿ¡ä»¶": 6969,
      "åĲ¸åħ¥æīĢ": 6970,
      "äººèº«": 6971,
      "7570": 6972,
      "86501": 6973,
      "126": 6974,
      "è£Ļ": 6975,
      "Ġ57": 6976,
      "å¦Ĥåı¯èĥ½": 6977,
      "å¦Ĥåĩºçİ°": 6978,
      "å¦Ĥæ²Ļ": 6979,
      "åŁºæľ¬ä¿¡æģ¯": 6980,
      "å®īåħ¨åĮºåŁŁ": 6981,
      "åľ°çĤ¹": 6982,
      "åľ°æĸ¹æ³ķ": 6983,
      "Ġ(%": 6984,
      "æĹ¥èµ·": 6985,
      "éķ¿åħ´": 6986,
      "å¿łåĳĬ": 6987,
      "åĤ¨åŃĺæ³¨æĦıäºĭé¡¹": 6988,
      "åį±å®³æ°´çĶŁçİ¯å¢ĥ": 6989,
      "åıĳæĹ¥æľŁ": 6990,
      "åıĳçº¢": 6991,
      "åıĳå±ķ": 6992,
      "Ġäº§åĵģè¯´æĺİ": 6993,
      "çģŃçģ«ç²īæľ«": 6994,
      "ç©ºè¿Ĳ": 6995,
      "ç©ºæĹ·å¤Ħ": 6996,
      "çľ¼çĿĽåĪºæ¿ĢæĢ§": 6997,
      "3550": 6998,
      "ç£ģ": 6999,
      "å®¹åĻ¨åĨ·åį´": 7000,
      "å®¹åĻ¨åĴĮæİ¥æĶ¶è®¾å¤ĩæİ¥åľ°": 7001,
      "Ġ42": 7002,
      "éĢłæĪĲä¸¥éĩįçľ¼åĪºæ¿Ģ": 7003,
      "Ġ723": 7004,
      "ä¹ĻåŁº": 7005,
      "ä¹ĻéĨļ": 7006,
      "ä¹Ļçĥ·": 7007,
      "ĠSM": 7008,
      "ĠSTM": 7009,
      "ä¼ļçł´": 7010,
      "æĹłåį±å®³": 7011,
      "æĹłçģ«èĬ±": 7012,
      "æĹłå·²çŁ¥": 7013,
      "ç¡Ŀ": 7014,
      "æº¶åīĤä¸º": 7015,
      "æº¶åīĤçļĦä¿ĿæĬ¤æīĭå¥Ĺ": 7016,
      "å¹¶æĮģç»Ń": 7017,
      "ä¸ºå¤§äºİæĪĸçŃīäºİä¸ĭéĻĲ": 7018,
      "æĬĢæľ¯æĶ¯æĮģ": 7019,
      "çĥŃåıįåºĶæĢ§": 7020,
      "189": 7021,
      "åĮºåºĶå¤ĩ": 7022,
      "Ġ886": 7023,
      "ĠGer": 7024,
      "ĠGlid": 7025,
      "è§£å°ģ": 7026,
      "ĠNCO": 7027,
      "ĠNAN": 7028,
      "ĠNaphtha": 7029,
      "âĦĥ,": 7030,
      "æĿĲæĸĻçļĦ": 7031,
      "Ġåį±éĻ©çº§åĪ«": 7032,
      "ĠBel": 7033,
      "ä¿ĿæĮģçģ«åľº": 7034,
      "ä¿ĿæĮģå¤´ä½İä½į": 7035,
      "ĠMA": 7036,
      "ĠMel": 7037,
      "ĠMEK": 7038,
      "ĠManufactur": 7039,
      "æ²¹æ¼Ĩ": 7040,
      "10024": 7041,
      "èµĦæĸĻè¡¨": 7042,
      "ĠDesmo": 7043,
      "åĪĨç±»åĴĮ": 7044,
      "æ¸©ä¸ĭ": 7045,
      "ĠTM": 7046,
      "ĠTown": 7047,
      "Ġ2017": 7048,
      "Ġä¸įå±ŀäºİ": 7049,
      "è®¾è®¡": 7050,
      "æĺ¯é¢ľæĸĻ": 7051,
      "æĺ¯åĲ¦": 7052,
      "33160": 7053,
      "æĵįä½ľæ³¨æĦıäºĭé¡¹": 7054,
      "ĠåĮĸåŃ¦åĵģä¸ŃæĸĩåĲį": 7055,
      "ç¼ĸçłģ": 7056,
      "ales": 7057,
      "çŃīè¦ĨçĽĸ": 7058,
      "è¿ľç§ĳæĬĢ": 7059,
      "æµģåıĺ": 7060,
      "ĠAPP": 7061,
      "åĲİåıĳçĶŁ": 7062,
      "åĲİæīį": 7063,
      "ä¼ģä¸ļåľ°åĿĢ": 7064,
      "çļ®èĤ¤æİ¥è§¦æĪĸ": 7065,
      "èĦ±éĻ¤": 7066,
      "äººåĳĺéĺ²æĬ¤": 7067,
      "åĮĸåŃ¦åĵģçĻ»è®°ä¸Ńå¿ĥ": 7068,
      "åģ¶": 7069,
      "èĩªåĲ¸": 7070,
      "ĠæĹłæķ°æį®": 7071,
      "ĠæĹłçĽ¸åħ³": 7072,
      "0513": 7073,
      "0532": 7074,
      "åıĸä»£": 7075,
      "åıĸå¾Ĺ": 7076,
      "åıĸåĨ³äºİ": 7077,
      "60115": 7078,
      "æľªæıĲä¾Ľ": 7079,
      "ç§»èµ°": 7080,
      "ç²ĺè¿ŀ": 7081,
      "Ġå¤Ħ": 7082,
      "Ġå®¢æĪ·": 7083,
      "Ġåºıåı·": 7084,
      "è§Ĥå¯Ł": 7085,
      "ĠæĪĲåĪĨåĲįç§°": 7086,
      "ĠæĬĺ": 7087,
      "ä¿ĿæĬ¤æīĭå¥Ĺ": 7088,
      "ä¿ĿæĬ¤æĸ½æķĳèĢħçļĦ": 7089,
      "æīĢæľīè¢«æ±¡æŁĵçļĦè¡£çī©": 7090,
      "æ¶Īéĺ²æ°´": 7091,
      "æ¶Īéĺ²æľį": 7092,
      "æ¶Īéĺ²åĳĺ": 7093,
      "éľĢéĩĩåıĸ": 7094,
      "070": 7095,
      "åºķæĿĲ": 7096,
      "éĽ¾çĬ¶æ°´": 7097,
      "ĠLC": 7098,
      "å°ģåı£": 7099,
      "é¢Ħæµ¸æ³¡": 7100,
      "é¢Ħç¼©åĲĪ": 7101,
      "å»ºè®®çļĦ": 7102,
      "ä¸ŃåĽ½åºĶæĢ¥çĶµè¯Ŀ": 7103,
      "æľºå¯Ĩ": 7104,
      "ç²īå°ĺåı¯èĥ½": 7105,
      "IATA": 7106,
      "ä¸īæľ¨": 7107,
      "å¸¸çĶ¨": 7108,
      "ä¼ĺåĬ¿": 7109,
      "çĻ½åīĤ": 7110,
      "çĻ½èī²ç²īæľ«": 7111,
      "çĹĩçĬ¶åı¯èĥ½ä¼ļ": 7112,
      "åĿĩä¸Ģ": 7113,
      "åĽ´è£Ļ": 7114,
      "Ġç»ıåı£": 7115,
      "æ³¡æ²«çģŃçģ«": 7116,
      "ç¨³å®ļæĢ§åĴĮåıįåºĶæĢ§": 7117,
      "æ³¡èģļåĲĪçī©": 7118,
      "åĽºåĮĸåĲİ": 7119,
      "éĶ¦": 7120,
      "ä¿®è¡¥": 7121,
      "ç©¿çĿĢ": 7122,
      "ç©¿å¯ĨéĹŃ": 7123,
      "æĻ¶": 7124,
      "åĸ·æºħ": 7125,
      "ĠåĲ¸åħ¥æľīå®³": 7126,
      "ENE": 7127,
      "98189": 7128,
      "åıĳçĶŁçģ«çģ¾æĹ¶": 7129,
      "éĤ¦": 7130,
      "åĪĩæĸŃ": 7131,
      "åĪĩæĸŃçģ«": 7132,
      "Ġgu": 7133,
      "æ°´çĶŁçī©": 7134,
      "æ°´çĶŁæ¯ĴæĢ§": 7135,
      "ĠFH": 7136,
      "åĴĮèĴ¸æ°Ķæĺĵçĩĥ": 7137,
      "å¯ĨéĹŃå®¹åĻ¨": 7138,
      "åĪĹåĩº": 7139,
      "åİĭæ°´æŀª": 7140,
      "éĩĳå±ŀæ¡¶": 7141,
      "æµĭå®ļ": 7142,
      "çħ§å°Ħ": 7143,
      "ä¸įéĢĤæĦŁ": 7144,
      "ä¹ĭæ°Ķä½ĵ": 7145,
      "çī¹æ®ĬçģŃçģ«ç¨ĭåºı": 7146,
      "éĺ´åĩīå¹²çĩ¥å¤Ħ": 7147,
      "çĶ¨å¤§éĩıèĤ¥çļĤåĴĮ": 7148,
      "çĶ¨å¤§éĩıèĤ¥çļĤæ°´åĴĮ": 7149,
      "è¯ģæį®": 7150,
      "Ġçļ®èĤ¤éĺ²æĬ¤": 7151,
      "æİ¨èįĲä½¿çĶ¨": 7152,
      "æİ¨èįĲæ·»åĬłéĩı": 7153,
      "iliz": 7154,
      "Ġä½¿çĶ¨æĮĩåįĹ": 7155,
      "çľ¼åĪºæ¿Ģç±»åĪ«": 7156,
      "èĮĥåĽ´ä¸ºå¤§äºİæĪĸçŃīäºİä¸ĭéĻĲ": 7157,
      "Ġå®īåħ¨æķ°æį®è¡¨": 7158,
      "Ġå®īåħ¨çľ¼éķľ": 7159,
      "Ġå®īåħ¨èµĦæĸĻè¡¨": 7160,
      "çĶ¨æ°´æ¼±åı£": 7161,
      "å¾®éĩı": 7162,
      "ĠæŃ¤": 7163,
      "åĽ°åĢ¦": 7164,
      "å¯Ĩå°ģèĥ¶": 7165,
      "å¯Ĩå°ģä¿ĿåŃĺ": 7166,
      "edi": 7167,
      "ä¸ľåİ¿æŀĭå¯®ä¹¡å±ıåįĹå·¥ä¸ļåĮºå±ıåįĹè·¯": 7168,
      "å¹³è¡¡": 7169,
      "ANG": 7170,
      "Ġ0513": 7171,
      "ida": 7172,
      "9685": 7173,
      "çĶ²åŁºçİ¯": 7174,
      "ĠUSA": 7175,
      "381": 7176,
      "ç§ĳæħķ": 7177,
      "å¸¦æľī": 7178,
      "Ġåį±å®³çī©è´¨": 7179,
      "Ġåį±å®³ç±»åŀĭ": 7180,
      "ä¸Ĭæµ·å¸Ĥ": 7181,
      "owder": 7182,
      "ĠWHMIS": 7183,
      "Ġspec": 7184,
      "åıĺèī²": 7185,
      "ĠComp": 7186,
      "Ġæİ¨èįĲçĶ¨éĩı": 7187,
      "ESTAN": 7188,
      "Ġ1186": 7189,
      "Ġåľ°åĮº": 7190,
      "çĽ´èĩ³": 7191,
      "çĽ´æµģæ°´": 7192,
      "ĠæŃ£å¸¸": 7193,
      "æŃ¤ä»½": 7194,
      "Ġ1319": 7195,
      "æħİ": 7196,
      "æĬĹæº¶æ³¡æ²«": 7197,
      "ĠåĮħè£ħçŃīçº§": 7198,
      "Ġä¸Ĭæµ·åĮĸåŃ¦å·¥ä¸ļåĮºæ": 7199,
      "æŀģæĢ§": 7200,
      "æŀģä½³": 7201,
      "åĴ¨è¯¢ä¸ĵ": 7202,
      "ODA": 7203,
      "æĢ»å±Ģ": 7204,
      "ä»ħä¾ĽåıĤèĢĥ": 7205,
      "Ġæµĵåº¦æĪĸæµĵåº¦èĮĥåĽ´": 7206,
      "äº¤è´§": 7207,
      "åı¯çĩĥæ°Ķä½ĵ": 7208,
      "å¾·åĮº": 7209,
      "æĶ¶éĽĨäºİ": 7210,
      "æĶ¶éĽĨåĪ°": 7211,
      "è¯¥äº§åĵģçļĦ": 7212,
      "åħħè¶³": 7213,
      "çī©çĲĨåĴĮåĮĸåŃ¦åį±éĻ©": 7214,
      "Ġèī²çĽ¸": 7215,
      "æĺĵçĩĥåĽºä½ĵ": 7216,
      "æ¸Ĺæ¼ı": 7217,
      "åĳ¼åĲ¸ç³»ç»Łéĺ²æĬ¤": 7218,
      "ä¸ģåŁºæº¶çº¤": 7219,
      "å¢ŀå¼º": 7220,
      "ethoxy": 7221,
      "å°ıæĹ¶åºĶæĢ¥çĶµè¯Ŀ": 7222,
      "ĠçĽ¸åħ³": 7223,
      "è¢ĭè£ħ": 7224,
      "åĪĩåĭ¿åĲ¸åħ¥æīĢ": 7225,
      "æŁĶéŁ§": 7226,
      "éĩĬæĶ¾ä¹ĭæ°Ķä½ĵ": 7227,
      "èĩªç»Ļå¼ıåĳ¼åĲ¸åĻ¨åĴĮ": 7228,
      "ä»İèĢĮ": 7229,
      "æ¶Īéĺ²äººåĳĺçī¹æ®Ĭ": 7230,
      "æ¶Īéĺ²äººåĳĺå¿ħé¡»ä½¿çĶ¨éĢļæ°Ķå¼ıéĿ¢ç½©æĪĸæŃ£åİĭèĩªç»Ļå¼ıåĳ¼åĲ¸åĻ¨": 7231,
      "åºŁå¼ĥçī©": 7232,
      "ĠæĹłèī²éĢıæĺİ": 7233,
      "Ġdioxide": 7234,
      "ĠæľªåĪĨç±»": 7235,
      "æĺĵäº§çĶŁçģ«èĬ±çļĦ": 7236,
      "å¹¿å·ŀ": 7237,
      "ä¸Ģæ¬¡æİ¥è§¦ç±»åĪ«": 7238,
      "4660": 7239,
      "æľºæ¢°æĢ§èĥ½": 7240,
      "æľºæ¢°è®¾å¤ĩåĴĮ": 7241,
      "ĠéĿŀåĪºæ¿ĢæĢ§": 7242,
      "ĠéĿŀæµ®åŀĭ": 7243,
      "æ£ĢéªĮ": 7244,
      "åĪ©äºİ": 7245,
      "ester": 7246,
      "Ġæİ¥è§¦æİ§åĪ¶ä¸İ": 7247,
      "Ġçĥĥ": 7248,
      "Ġçĥĺçĥ¤": 7249,
      "æ·ĭæ´Ĺ": 7250,
      "ĠXX": 7251,
      "æĺ¾ç¤º": 7252,
      "å¦ĤæľīåĪºæ¿Ģ": 7253,
      "å¦Ĥæľīå¿ħè¦ģ": 7254,
      "èŃ¦åĳĬè®¯": 7255,
      "lear": 7256,
      "ĠOB": 7257,
      "åħĪæµ¸æ³¡": 7258,
      "çī©æĸĻå¦Ĥæ²Ļ": 7259,
      "åı¯çĶ¨ä½ľ": 7260,
      "åĽłä¸º": 7261,
      "ä½ľä¸ļåľºæīĢ": 7262,
      "çļ®èĤ¤åĴĮå¤´åıĳ": 7263,
      "ç§»èĩ³ç©ºæĹ·å¤Ħ": 7264,
      "ĠResins": 7265,
      "æĶ¹æĢ§çļĦ": 7266,
      "ĠçŃ¾": 7267,
      "Ġ50174": 7268,
      "ä¼ĳæģ¯å§¿åĬ¿": 7269,
      "å»¶åĲİåıĳçĶŁ": 7270,
      "éŀĭåŃĲ": 7271,
      "Ġè§Ħæł¼åıĤæķ°": 7272,
      "è§£æ¯ĴåīĤ": 7273,
      "åıªèĥ½ä½¿çĶ¨ä¸įäº§çĶŁçģ«èĬ±çļĦå·¥åħ·": 7274,
      "åıªèĥ½åľ¨å®¤å¤ĸæĪĸéĢļé£İèī¯å¥½ä¹ĭå¤Ħä½¿çĶ¨": 7275,
      "å½ĵåľ°çļĦ": 7276,
      "reat": 7277,
      "çī¹å®ļçĶ¨éĢĶ": 7278,
      "Ġå¯¹æ°´çĶŁçĶŁçī©æľīå®³å¹¶åħ·æľīéķ¿æľŁæĮģç»Ńå½±åĵį": 7279,
      "Ġå·¥ä¸ļæĪĸåķĨä¸ļ": 7280,
      "çĨĶçĤ¹": 7281,
      "åĪĿç¼ĸåĪ¶æĹ¥æľŁ": 7282,
      "Ġå±ı": 7283,
      "éĢĤåĲĪçļĦ": 7284,
      "èº«ä½ĵåģ¥åº·": 7285,
      "ä½¿çĶ¨éĺ²çĪĨåŀĭ": 7286,
      "ĠçĻ½èī²ç²īæľ«": 7287,
      "ä¿ĿæĮģåĳ¼åĲ¸çķħéĢļ": 7288,
      "çĿĢçģ«åĽŀçĩĥ": 7289,
      "åĲŀé£Łæľīå®³": 7290,
      "Ġ3272": 7291,
      "æĮīçħ§å½ĵåľ°": 7292,
      "èĦ±æİīæīĢæľīæ²¾æŁĵçļĦè¡£æľį": 7293,
      "ĠçĪĨçĤ¸æŀģéĻĲ": 7294,
      "Ġéķ¿æľŁæ°´çĶŁåį±å®³": 7295,
      "many": 7296,
      "Ġå½ĵ": 7297,
      "ç½ĳç«Ļ": 7298,
      "çĽ¸å½ĵäºİ": 7299,
      "ĠçĽ¸å¯¹æ¯Ķéĩį": 7300,
      "ĠæıĲèµ·çľ¼çĿĳ": 7301,
      "ialty": 7302,
      "Ġæ¾Ħæ¸ħæ¶²ä½ĵ": 7303,
      "çĶ¨æĪ·èĩªè¡Į": 7304,
      "Ġ4806": 7305,
      "Ġç«ĭåį³çĶ¨å¤§éĩıçļĦ": 7306,
      "ĠChemicals": 7307,
      "Ġæ¹ĸ": 7308,
      "ĠéŁ©åĽ½å·¥åİĤ": 7309,
      "èĤ¿èĥĢ": 7310,
      "é¼»åŃĲ": 7311,
      "egman": 7312,
      "Ġéĺ²æŃ¢äº§åĵģè¿Ľåħ¥ä¸ĭæ°´éģĵ": 7313,
      "ä¼ļå¼ķèµ·çģ«åĬ¿èĶĵå»¶": 7314,
      "Ġçİ¯æ°§æłĳèĦĤ": 7315,
      "æ²¾æŁĵçļĦè¡£æľįæ¸ħæ´ĹåĲİæĸ¹åı¯éĩįæĸ°ä½¿çĶ¨": 7316,
      "gium": 7317,
      "ĠæĢ§èĥ½é¡¹çĽ®": 7318,
      "åĪ¶åīĤåıĬ": 7319,
      "ersion": 7320,
      "æµ¸æ³¡æĹ¶éĹ´": 7321,
      "astman": 7322,
      "çļĦå®īåħ¨çľ¼éķľ": 7323,
      "ä¸įéĢĤçĶ¨çļĦçģŃçģ«ä»ĭè´¨": 7324,
      "åĤ¨åŃĺç¨³å®ļæĢ§èĩ³å°ĳ": 7325,
      "çº¯åĵģ": 7326,
      "åĸīåĴĻ": 7327,
      "çħ§æĺİè®¾å¤ĩ": 7328,
      "|------------|---------|-------------------|": 7329,
      "æĲħæĭĮåĿĩåĮĢ": 7330,
      "ppear": 7331,
      "Ġä¸ģéĨļåĮĸ": 7332,
      "Ġcoatings": 7333,
      "ĠèĦ±åİ»æ±¡æŁĵçļĦè¡£çĿĢ": 7334,
      "ĠçĶ¨èĤ¥çļĤåĴĮæ°´æ¸ħæ´Ĺ": 7335,
      "Ġä¹ĻäºĮéĨĩä¸ģéĨļ": 7336,
      "Ġæ³¨æĦıäºĭé¡¹": 7337,
      "Ġæ³¨æĦıæĵįä½ľåıĬè´®åŃĺ": 7338,
      "æ½®æ°Ķ": 7339,
      "Ġä½©å¸¦èĢĲæº¶åīĤ": 7340,
      "Ġä½©å¸¦ä¿ĿæĬ¤çľ¼éķľ": 7341,
      "POKUKDO": 7342,
      "ä¸įçĽ¸å®¹æĿĲæĸĻ": 7343,
      "åıĳå¸ĥæĹ¥æľŁ": 7344,
      "ä½Ļçī©": 7345,
      "çŁŃæľŁ": 7346,
      "Ġçģ«çĦ°": 7347,
      "çłĤåľŁæīĳ": 7348,
      "çĶ¨æµģåĬ¨æ¸ħæ°´æĪĸçĶŁçĲĨçĽĲæ°´åĨ²æ´Ĺ": 7349,
      "èģļéħ¯éĩĳé»Ħä½ĵç³»æł·æľ¬èģļéħ¯éĩĳé»Ħ": 7350,
      "echnologies": 7351,
      "Ġåħīæ³½åº¦": 7352,
      "ĠæĶ¹æĢ§": 7353,
      "ĠæĶ¹åĸĦ": 7354,
      "è¯»æĩ": 7355,
      "æĵįä½ľæĹ¶è¯·åĭ¿": 7356,
      "ç«ĭåį³åĳ¼åı«åĮ»çĶŁæĪĸä¸Ńæ¯Ĵæİ§åĪ¶ä¸Ńå¿ĥ": 7357,
      "ize": 7358,
      "Ġfin": 7359,
      "ä»£è¡¨æĪĸ": 7360,
      "å°Ĩå®¹åĻ¨ä»İçģ«åľº": 7361,
      "ĠåĬ¨åĬĽ": 7362,
      "ä¸¥ç¦ģåĲ¸çĥŁ": 7363,
      "ä¿ĿæĮģåĳ¼åĲ¸èĪĴéĢĤçļĦ": 7364,
      "Ġæ¬§çĽŁ": 7365,
      "åħ¨éĥ¨æ¯Ķä¾ĭ": 7366,
      "ç´«å¤ĸ": 7367,
      "Ġå¦Ĥè¯¯åĲŀåĴ½": 7368,
      "Ġchlor": 7369,
      "Ġé«ĺåĪĨåŃĲéĩıèģļéħ¯æłĳèĦĤ": 7370,
      "ä¿Ŀæļĸä¼ĳæģ¯": 7371,
      "ĠSpecialty": 7372,
      "Ġçī¹å®ļçĽ®æłĩåĻ¨å®ĺæ¯ĴæĢ§": 7373,
      "èĽĭ": 7374,
      "èĽŃçŁ³": 7375,
      "æ±Łèĭıåįİä¼¦åĮĸå·¥æľīéĻĲåħ¬åı¸": 7376,
      "ä¼ļå½±åĵįèº«ä½ĵåģ¥åº·": 7377,
      "é¢ĦæľŁçĶ¨éĢĶ": 7378,
      "å¡«æĸĻ": 7379,
      "Ġçİ»çĴĥè½¬": 7380,
      "æĲ¬åĬ¨": 7381,
      "ĠæĿĲæĸĻå®īåħ¨æķ°æį®è¡¨": 7382,
      "Ġå±±ä¸ľ": 7383,
      "Ġå±±ä¸ľçľģ": 7384,
      "æī¹åĩĨçļĦ": 7385,
      "éģµå®Īæĵįä½ľ": 7386,
      "Desmodur": 7387,
      "ydro": 7388,
      "è¿Łåıĳ": 7389,
      "ĠâĹİ": 7390,
      "çººç»ĩåĵģ": 7391,
      "Ġæµ·åĲįæĸ¯": 7392,
      "ĠåĲ¸åħ¥æĢ§H": 7393,
      "èĭ¥åıĳçĶŁåĳķåĲĲ": 7394,
      "çĶ¨å¤§éĩıçļĦæ°´åĨ²æ´Ĺçľ¼çĿĽèĩ³å°ĳ": 7395,
      "Ġç¾ŁåŁº": 7396,
      "Ġç¢ĺ": 7397,
      "æ³¥çŃīè¦ĨçĽĸ": 7398,
      "æĪĸéĩįå¤įæİ¥è§¦": 7399,
      "åį±éĻ©çļĦåĪĨè§£äº§çī©": 7400,
      "ĠTechnolog": 7401,
      "åıĸä¸ĭéļĲå½¢çľ¼éķľ": 7402,
      "ç¦ģæŃ¢ä½¿çĶ¨æĺĵäº§çĶŁçģ«èĬ±çļĦ": 7403,
      "æİĴæ°ĶéĢļé£İ": 7404,
      "ĠUnidisp": 7405,
      "Ġå®¹åĻ¨åĴĮæİ¥æĶ¶è®¾å¤ĩæİ¥åľ°": 7406,
      "FICATION": 7407,
      "Ġåħ·å¤ĩ": 7408,
      "Ġä¿ĿæĮģéĢļé£İ": 7409,
      "ĠåĪĨè§£æ¸©åº¦": 7410,
      "Ġç£ħ": 7411,
      "æĺŁéĵĤèģĶéĽħæĢĿè¾¾é¢ľæĸĻ": 7412,
      "å¦ĤåĲ¸åħ¥ä¼ļå½±åĵįèº«ä½ĵåģ¥åº·": 7413,
      "ĠéĿŀæĮ¥åıĳåĪĨ": 7414,
      "é©¬æĿ¥éħ¸": 7415,
      "Ġå½¢æĢģ": 7416,
      "Ġçģ«çģ¾æĹ¶ä½¿çĶ¨": 7417,
      "ĠæĴĳå¼Ģçľ¼çĿĳ": 7418,
      "Butanol": 7419,
      "ĠéľĢ": 7420,
      "åĴĮçĪĨçĤ¸çļĦåį±éĻ©": 7421,
      "èĢĲåĪ®æĵ¦": 7422,
      "Ġé«ĺåº¦æĺĵçĩĥæ¶²ä½ĵåĴĮèĴ¸æ°Ķ": 7423,
      "ĠæĹłèī²èĩ³æ·¡é»Ħèī²": 7424,
      "ĠèģļéĨļæĶ¹æĢ§èģļäºĮçĶ²åŁºç¡ħæ°§çĥ·æº¶æ¶²": 7425,
      "è¾ĥä½İå¤Ħæī©æķ£åĪ°çĽ¸å½ĵè¿ľ": 7426,
      "ĠçŃĽåĪĨåĪĨæŀĲ": 7427,
      "ä½Ľå±±å¸Ĥé¡ºå¾·åĮº": 7428,
      "ç´§å¯Ĩè´´åĲĪ": 7429,
      "Ġè½¯åĮĸçĤ¹": 7430,
      "çĶ³è¯·": 7431,
      "Ġå¢ŀ": 7432,
      "åĪ¶å®ļæłĩåĩĨ": 7433,
      "å¦ĤæĹłåĳ¼åĲ¸": 7434,
      "å¦Ĥä»įè§īçľ¼åĪºæ¿Ģ": 7435,
      "æº¶åīĤé¢ĦåħĪæµ¸æ³¡": 7436,
      "ĠæºĲæĸĩä»¶åıĳå¸ĥæĹ¶éĹ´": 7437,
      "åĸ·æ°´æĪĸæ°´éĽ¾": 7438,
      "Ġåı¯èĥ½å¯¼èĩ´çļ®èĤ¤è¿ĩæķıåıįåºĶ": 7439,
      "å¤ļåħĥéĨĩ": 7440,
      "ä»ħéĢĤçĶ¨äºİå¤§çģ«": 7441,
      "éľĢè¦ģæĽ´éķ¿çļĦæµ¸æ³¡æĹ¶éĹ´": 7442,
      "åĤ¨åŃĺåľ¨å¹²çĩ¥éĢļé£İå¤Ħ": 7443,
      "lycol": 7444,
      "åĲ¸æ²¹éĩı": 7445,
      "äºĮçĶ²éħ¸äºĮ": 7446,
      "èĩ´è¿ĩæķıæĢ§åıįåºĶ": 7447,
      "èĢĲçĩĥçī©æĸĻå¦Ĥæ²Ļ": 7448,
      "æīĢè½½ä¿¡æģ¯": 7449,
      "å¼Ĥä¸ģåŁºéħ®": 7450,
      "ĠRegulation": 7451,
      "Ġå¤ĸçĬ¶": 7452,
      "æĭ¿å¤§": 7453,
      "ĠçĶ¨æ°´åĨ²æ´Ĺåı£èħĶ": 7454,
      "ç¾ŁçĶ²åŁºä¸Ļçĥ·": 7455,
      "åĪºæ¿ĢæĢ§æ°Ķä½ĵåĴĮèĴ¸æ°Ķ": 7456,
      "æĿ¡ä»¶ä¸ĭåĤ¨åŃĺç¨³å®ļ": 7457,
      "ĠYasida": 7458,
      "æĺİç¤ºæĪĸæļĹç¤ºçļĦ": 7459,
      "23498189": 7460,
      "IECSC": 7461,
      "UCAT": 7462,
      "ĤæīĢæľīå®īåħ¨éĺ²èĮĥæİªæĸ½ä¹ĭåīįåĪĩåĭ¿æĲ¬åĬ¨": 7463,
      "Ġç«ĭåĪ»": 7464,
      "åĴ³åĹ½": 7465,
      "åı¯æĬĹæº¶åīĤçļĦä¿ĿæĬ¤æīĭå¥Ĺ": 7466,
      "æĪĸåıįå¤įåĲ¸åħ¥": 7467,
      "èĥ½åľ¨è¾ĥä½İå¤Ħæī©æķ£åĪ°çĽ¸å½ĵè¿ľ": 7468,
      "äºİå¤ĸæ³Ħä½įç½®": 7469,
      "æĹ¶çļĦéĢļé£İæĥħåĨµ": 7470,
      "86501755": 7471,
      "åĮºåºĶå¤ĩæľī": 7472,
      "ĠGermany": 7473,
      "ĠGlidd": 7474,
      "è§£å°ģæ¸©åº¦": 7475,
      "ĠNANOS": 7476,
      "ĠBelgium": 7477,
      "ĠManufacturing": 7478,
      "ĠAPPLI": 7479,
      "Ġå®¢æĪ·æľįåĬ¡": 7480,
      "ä¿ĿæĬ¤æĸ½æķĳèĢħçļĦå¿łåĳĬ": 7481,
      "çĹĩçĬ¶åı¯èĥ½ä¼ļå»¶åĲİåıĳçĶŁ": 7482,
      "åĪĩæĸŃçģ«æºĲ": 7483,
      "çĶ¨å¤§éĩıèĤ¥çļĤåĴĮæ°´æ¸ħæ´Ĺ": 7484,
      "ç§ĳæħķåħ¬åı¸": 7485,
      "ESTANAT": 7486,
      "Ġä¸Ĭæµ·åĮĸåŃ¦å·¥ä¸ļåĮºæĻ®å·¥è·¯": 7487,
      "æĢ»å±ĢåĮĸåŃ¦åĵģçĻ»è®°ä¸Ńå¿ĥ": 7488,
      "ä¸ģåŁºæº¶çº¤åīĤ": 7489,
      "åĪĩåĭ¿åĲ¸åħ¥æīĢéĩĬæĶ¾ä¹ĭæ°Ķä½ĵ": 7490,
      "æľºæ¢°è®¾å¤ĩåĴĮå·¥åħ·": 7491,
      "èŃ¦åĳĬè®¯æģ¯": 7492,
      "Ġå·¥ä¸ļæĪĸåķĨä¸ļåºĶçĶ¨ä¸Ń": 7493,
      "ppearance": 7494,
      "Ġæ³¨æĦıæĵįä½ľåıĬè´®åŃĺæĹ¶çļĦéĢļé£İæĥħåĨµ": 7495,
      "çłĤåľŁæīĳæķĳ": 7496,
      "è¯»æĩĤæīĢæľīå®īåħ¨éĺ²èĮĥæİªæĸ½ä¹ĭåīįåĪĩåĭ¿æĲ¬åĬ¨": 7497,
      "æĵįä½ľæĹ¶è¯·åĭ¿é¥®é£Ł": 7498,
      "å°Ĩå®¹åĻ¨ä»İçģ«åľºç§»èĩ³ç©ºæĹ·å¤Ħ": 7499,
      "æ³¥çŃīè¦ĨçĽĸäºİå¤ĸæ³Ħä½įç½®": 7500,
      "ç¦ģæŃ¢ä½¿çĶ¨æĺĵäº§çĶŁçģ«èĬ±çļĦæľºæ¢°è®¾å¤ĩåĴĮå·¥åħ·": 7501,
      "èĥ½åľ¨è¾ĥä½İå¤Ħæī©æķ£åĪ°çĽ¸å½ĵè¿ľçļĦåľ°æĸ¹": 7502,
      "(âĦĥ)": 7503,
      ")ãĢģ": 7504,
      "021": 7505,
      "398": 7506,
      "423": 7507,
      "473": 7508,
      "576": 7509,
      "5361": 7510,
      "691": 7511,
      "703": 7512,
      "837": 7513,
      "892": 7514,
      "8000": 7515,
      "928": 7516,
      "9088": 7517,
      "BPA": 7518,
      "CE": 7519,
      "CI": 7520,
      "Can": 7521,
      "Dra": 7522,
      "EQ": 7523,
      "EPOKUKDO": 7524,
      "Kg": 7525,
      "KCS": 7526,
      "LS": 7527,
      "LAMMA": 7528,
      "Mail": 7529,
      "MTREC": 7530,
      "No": 7531,
      "NCO": 7532,
      "NAL": 7533,
      "ON": 7534,
      "OCH": 7535,
      "OID": 7536,
      "OPO": 7537,
      "PC": 7538,
      "SE": 7539,
      "SR": 7540,
      "Sp": 7541,
      "TY": 7542,
      "UV": 7543,
      "UX": 7544,
      "Vestolit": 7545,
      "bia": 7546,
      "de": 7547,
      "do": 7548,
      "ee": 7549,
      "ff": 7550,
      "gen": 7551,
      "iv": 7552,
      "ive": 7553,
      "mL": 7554,
      "mer": 7555,
      "op": 7556,
      "omo": 7557,
      "resist": 7558,
      "rhechem": 7559,
      "so": 7560,
      "ues": 7561,
      "wb": 7562,
      "wh": 7563,
      "wt": 7564,
      "xwb": 7565,
      "ye": 7566,
      "yang": 7567,
      "yeong": 7568,
      "zol": 7569,
      "zho": 7570,
      "¤åĮº": 7571,
      "§åħī": 7572,
      "©åº¦": 7573,
      "ª¬": 7574,
      "°æĸ°æĿĲæĸĻç§ĳæĬĢæľīéĻĲåħ¬åı¸": 7575,
      "´æ³¡èģļåĲĪçī©": 7576,
      "¸ı": 7577,
      "ºåŁŁ": 7578,
      "æ¢°": 7579,
      "æ¾Ħæ¸ħ": 7580,
      "æª¬": 7581,
      "èĲ": 7582,
      "éī´": 7583,
      "ĊĊ": 7584,
      "ĠéĨĩ": 7585,
      "ĠçĶµ": 7586,
      "Ġéĩį": 7587,
      "Ġ0000": 7588,
      "Ġè¯¥": 7589,
      "Ġèĥº": 7590,
      "ĠéĻĲåĢ¼": 7591,
      "Ġä½ľä¸º": 7592,
      "ĠåıįåºĶæĢ§": 7593,
      "Ġä»ħ": 7594,
      "ĠèĦ±æİī": 7595,
      "ĠOH": 7596,
      "Ġè¶ħ": 7597,
      "Ġas": 7598,
      "ĠèŃ¦ç¤ºè¯į": 7599,
      "ĠåĲĪæĪĲ": 7600,
      "Ġèº«ä½ĵ": 7601,
      "Ġä½İæ¸©": 7602,
      "ĠèĦĤèĤªæĹı": 7603,
      "Ġä¿ĿåŃĺåľ¨": 7604,
      "Ġè¡¨éĿ¢åĬ©åīĤ": 7605,
      "Ġæ°¨åŁºæłĳèĦĤ": 7606,
      "Ġä½ľä¸ļåĲİå½»åºķæ¸ħæ´Ĺ": 7607,
      "Ġåıĳå¸ĥæĹ¥æľŁ": 7608,
      "ĠçĶ³è¯·": 7609,
      "Ġxwb": 7610,
      "Ģä»ĭ": 7611,
      "ĤåķĨ": 7612,
      "Ħç§¯": 7613,
      "ĩåįİ": 7614,
      "Īļ": 7615,
      "īè´": 7616,
      "īåıĬ": 7617,
      "ĭäºĪ": 7618,
      "Ĳæ°´": 7619,
      "ĳŀ": 7620,
      "ķè¾": 7621,
      "ĸıæķ£": 7622,
      "ĻåĮ»çĶŁ": 7623,
      "łæĥ¯": 7624,
      "łæª¬": 7625,
      "--:|:--------": 7626,
      "ãĢĢ": 7627,
      "ä¸¤": 7628,
      "åı³": 7629,
      "ĠæīĢ": 7630,
      "Ġæ£Ģæµĭ": 7631,
      "å®Ŀ": 7632,
      "ï¼Ī[": 7633,
      "ï¼īâĢĶ": 7634,
      "Ġç®": 7635,
      "ĠçĹ": 7636,
      "Ġç±³": 7637,
      "Ġçĸıæķ£": 7638,
      "æĢ§çļĦ": 7639,
      "æĢ§å¥½": 7640,
      "çļĦåį±å®³": 7641,
      "çļĦå±Ĥ": 7642,
      "çļĦé¢Ħéĺ²æİªæĸ½": 7643,
      "çļĦå®¹åĻ¨ä¸Ń": 7644,
      "çļĦçī©æĸĻ": 7645,
      "çļĦçº¸": 7646,
      "çļĦæľīåħ³": 7647,
      "çļĦåĩĨç¡®": 7648,
      "çļĦè®¤è¯Ĩ": 7649,
      "çļĦåľ°çĤ¹": 7650,
      "æĪĴ": 7651,
      "çĶ¨æ¸©æ°´": 7652,
      "çĶ¨å¹²æ²Ļ": 7653,
      "éĢĢ": 7654,
      "æİ§": 7655,
      "æİĪæĿĥ": 7656,
      "Ġ116": 7657,
      "Ġ155": 7658,
      "Ġ176": 7659,
      "Ġ13463": 7660,
      "åĵģåĴĮ": 7661,
      "åĵģç§į": 7662,
      "åĵģçīĮ": 7663,
      "æ¶īåıĬ": 7664,
      "éĺ²å°ĺ": 7665,
      "éĺ²æ²»": 7666,
      "çģ¯": 7667,
      "æľīå¼ķèµ·çĩĥçĥ§": 7668,
      "æľīå¸¸çĨŁ": 7669,
      "çī©æĢ§": 7670,
      "æķĻåĮ»çĶŁ": 7671,
      "åĲ¸å°ĺ": 7672,
      "äº§ä¸ļ": 7673,
      "Ġé¡": 7674,
      "Ġéī´": 7675,
      "æ°´ä»½": 7676,
      "æ°´é¢Ĺç²Ĵ": 7677,
      "åĴĮé«ĺ": 7678,
      "åĴĮåºĶæĢ¥": 7679,
      "åĴĮå»ºè®®": 7680,
      "åĴĮä¸įéĢĤ": 7681,
      "åĴĮé£Łåĵģ": 7682,
      "åĴĮçº¸": 7683,
      "åĴĮèĢĲç£¨": 7684,
      "åĴĮåĲĦç§į": 7685,
      "åĴĮèĬ³é¦ĻæĹı": 7686,
      "åĴĮè§ĨåĬĽæ¨¡ç³Ĭ": 7687,
      "åĴĮèĤ¥çļĤåĨ²æ´Ĺ": 7688,
      "åĴĮå®¶åħ·æ¶ĤæĸĻ": 7689,
      "åı¯èĩ´": 7690,
      "åı¯æıĲä¾Ľ": 7691,
      "åı¯æıĲåıĸ": 7692,
      "20120": 7693,
      "æĸĻä¸Ń": 7694,
      "|------|------|------|": 7695,
      "|------|-----": 7696,
      "åĲĪèĤ¥": 7697,
      "åīĤçļĦ": 7698,
      "å¼¥": 7699,
      "èĤł": 7700,
      "çģ«ä¼ļ": 7701,
      "æĪĸæįŁå®³": 7702,
      "æĪĸçĪĨçĤ¸åį±éĻ©": 7703,
      "æĪĸåĬłéĩį": 7704,
      "åºĶåľ¨": 7705,
      "åºĶçĶ¨äºİ": 7706,
      "åºĶä¸İæ°§åĮĸåīĤ": 7707,
      "èĥ½å½¢æĪĲçĪĨçĤ¸æĢ§æ··åĲĪçī©": 7708,
      "ä¸įå¯¹": 7709,
      "ä¸įæİĴ": 7710,
      "ä¸įå¿ħè¦ģ": 7711,
      "ä¸įä½¿çĶ¨æĹ¶": 7712,
      "ä¸įè¢«åĪĨç±»ä¸º": 7713,
      "ä¸įæī¿æĭħä»»ä½ķ": 7714,
      "äº§åĵģåı¯": 7715,
      "äº§åĵģåľ¨": 7716,
      "äº§åĵģåıĬçĶŁäº§åķĨèµĦæĸĻ": 7717,
      "äº§åĵģä¸įè¢«åĪĨç±»ä¸º": 7718,
      "013": 7719,
      "018": 7720,
      "æ°Ķå¼ıåĳ¼åĲ¸åĻ¨": 7721,
      "Ġ24": 7722,
      "Ġ29": 7723,
      "Ġ260": 7724,
      "Ġ265": 7725,
      "å®¹çī©": 7726,
      "æµĵ": 7727,
      "168": 7728,
      "èĦ²": 7729,
      "ä¸ŃåĴĮ": 7730,
      "ä¸Ńäº§çĶŁ": 7731,
      "ä¸ŃéĹ´": 7732,
      "çļ®çĤİ": 7733,
      "æĪĲèĨľ": 7734,
      "éĺ²æĬ¤æ¶Ĥå±Ĥ": 7735,
      "å¤Ħåľ¨": 7736,
      "æĢ¥æĢ§åĴĮ": 7737,
      "æĺİç¡®": 7738,
      "ä¹°": 7739,
      "ä¹±": 7740,
      "ä¹İ": 7741,
      "ä¹Ĳ": 7742,
      "ä¹łæĥ¯": 7743,
      "åĻ¨æ¢°": 7744,
      "1995": 7745,
      "1996": 7746,
      "IRENOL": 7747,
      "æĮĸ": 7748,
      "æ´¥": 7749,
      "177": 7750,
      "1745": 7751,
      "DSL": 7752,
      "åı¯èĥ½æľī": 7753,
      "åı¯èĥ½ä¸į": 7754,
      "åı¯èĥ½äº§çĶŁ": 7755,
      "åı¯èĥ½åĩºçİ°": 7756,
      "éĥ¨åıĳ": 7757,
      "éĥ¨éĹ¨": 7758,
      "ä¸ģéħ®": 7759,
      "Ġ301": 7760,
      "ä½¿çĶ¨åĴĮ": 7761,
      "ä½¿çĶ¨æĿ¡ä»¶": 7762,
      "ä½¿çĶ¨åĲĪéĢĤçļĦ": 7763,
      "åĮ»å¸": 7764,
      "èµĶ": 7765,
      "èµĭäºĪ": 7766,
      "ä¸İæ°´": 7767,
      "ä¸İåħ¶ä»ĸ": 7768,
      "ä¸İä¿Ŀè´¨æľŁ": 7769,
      "ä¸İé«ĺåĪĨåŃĲéĩıçİ¯æ°§æłĳèĦĤ": 7770,
      "|-----------|": 7771,
      "ä½ĵç³»çļĦ": 7772,
      "åĢį": 7773,
      "æ··åĲĪæº¶åīĤ": 7774,
      "085": 7775,
      "åıĬéĺ´åĩī": 7776,
      "åıĬæłĩå¿Ĺ": 7777,
      "åı·æ¥¼": 7778,
      "ĠCon": 7779,
      "ĠCRAYVALLAC": 7780,
      "ĠPE": 7781,
      "ĠPOL": 7782,
      "ĠPhenolic": 7783,
      "ĠPigment": 7784,
      "åľ¨äº§åĵģçļĦ": 7785,
      "åĪ¶åº¦": 7786,
      "åĮĸåŃ¦åĲįç§°": 7787,
      "åĮĸåŃ¦æĬ¤çĽ®éķľ": 7788,
      "åĮĸåŃ¦äºĭæķħåºĶæĢ¥åĴ¨è¯¢çĶµè¯Ŀ": 7789,
      "Ġ054": 7790,
      "æ²ī": 7791,
      "åŀĭéĺ²æĬ¤è¡£": 7792,
      "éĢļåĪĻ": 7793,
      "éĢļæ±Łä¸Ńè·¯": 7794,
      "æ¼Ĥ": 7795,
      "ä¸Ģæ¬¡": 7796,
      "ä¸Ģç³»åĪĹ": 7797,
      "ä¸ĢæĹ¦": 7798,
      "æĹ¶åºĶçĶ¨": 7799,
      "æĹ¶éĩıå¹³åĿĩå®¹è®¸æµĵåº¦": 7800,
      "åħ¬è·¯": 7801,
      "åĲ¸åħ¥çĥŁéĽ¾": 7802,
      "ç©¶": 7803,
      "äººéĢł": 7804,
      "ä¿¡æģ¯å¹¶éĿŀ": 7805,
      "æ¸ħåįķ": 7806,
      "8621": 7807,
      "èī²çļĦ": 7808,
      "èī²æ¼Ĩ": 7809,
      "è£ķè¾": 7810,
      "Ġ530": 7811,
      "Ġ556": 7812,
      "Ġ5317": 7813,
      "Ġ5225": 7814,
      "å¦ĤçĶ²èĭ¯": 7815,
      "å¦Ĥå¤±åİ»çŁ¥è§ī": 7816,
      "è¡¨ç¤º": 7817,
      "åħ¬åı¸ä¿¡æģ¯": 7818,
      "åħ¬åı¸åĲįç§°": 7819,
      "éĩįå¤§": 7820,
      "ĠHMIS": 7821,
      "ĠHegman": 7822,
      "å¤§å¤ļæķ°": 7823,
      "å®īåħ¨æķ°æį®": 7824,
      "å®īåħ¨æĵįä½ľ": 7825,
      "å®īåħ¨æ·ĭæµ´": 7826,
      "å®īåħ¨æ³Ħ": 7827,
      "å®īåħ¨è§Ħç¨ĭ": 7828,
      "æĸĩåĲįç§°": 7829,
      "æ¶²ä½ĵæ²¹å¢¨": 7830,
      "368": 7831,
      "è£ħé¥°": 7832,
      "55887": 7833,
      "Ġ(Â°": 7834,
      "èľ¡åĴĮ": 7835,
      "èĴ¸åıĳ": 7836,
      "èĴ¸çħ®": 7837,
      "æĸ°è·¯": 7838,
      "æĸ°åĮĹ": 7839,
      "æĸ°è¿ľç§ĳæĬĢ": 7840,
      "ĠåĮºåŁŁ": 7841,
      "åĿĳ": 7842,
      "Ġäº§åĵģè§Ħæł¼": 7843,
      "é¢ĺ": 7844,
      "æľīéĻĲæĪĸ": 7845,
      "å¯¹åºĶ": 7846,
      "å¯¹çī¹å®ļ": 7847,
      "å¯¹èº«ä½ĵ": 7848,
      "åĽ½åĽºä½ĵ": 7849,
      "ä¾Ľæ°Ķå¼ıåĳ¼åĲ¸åĻ¨": 7850,
      "åħ·åį±éĻ©æĢ§": 7851,
      "å®¹åĻ¨åĨħ": 7852,
      "å®¹åĻ¨æ¸Ĺæ¼ı": 7853,
      "é«ĺåħīæ³½": 7854,
      "é«ĺåīªåĪĩåĬĽ": 7855,
      "Ġ41": 7856,
      "Ġ46": 7857,
      "281": 7858,
      "è¾¹": 7859,
      "ç½®äºİéĺ´åĩī": 7860,
      "å°±åĮ»æ²»çĸĹ": 7861,
      "èĴ¸æ°Ķä¸İç©ºæ°Ķ": 7862,
      "èĴ¸æ°Ķä¸İç©ºæ°Ķå½¢æĪĲçĪĨçĤ¸æĢ§æ··åĲĪçī©": 7863,
      "åį³åı¯": 7864,
      "éĿ¢éĥ¨": 7865,
      "Ġ760": 7866,
      "Ġ7000": 7867,
      "Ġ7691": 7868,
      "Ġmon": 7869,
      "ĠSX": 7870,
      "ĠSh": 7871,
      "ĠShe": 7872,
      "èµ·å§ĭ": 7873,
      "ä¼ļæįŁå®³åĻ¨å®ĺ": 7874,
      "309": 7875,
      "æĹłéĻĲ": 7876,
      "æĹłåĳ³": 7877,
      "æĹłåħ³": 7878,
      "æĹłç»ĵåĿĹ": 7879,
      "æº¶åīĤæ²¹": 7880,
      "åħ¶ä¿Ŀæļĸä¼ĳæģ¯": 7881,
      "ĠåĮĸåŃ¦åį±éĻ©çī©åĵģ": 7882,
      "æĬĢæľ¯æĿ¡ä»¶": 7883,
      "çĥŃåĽºæĢ§": 7884,
      "èĩ³å®īåħ¨": 7885,
      "å¹²åĮĸåŃ¦": 7886,
      "éĢļé£İåıĬéĺ´åĩī": 7887,
      "2002": 7888,
      "èĢĲæ²¹": 7889,
      "èĢĲåıĹ": 7890,
      "227": 7891,
      "ç£·éħ¸çĽĲ": 7892,
      "ä»¥éĺ²æŃ¢": 7893,
      "olub": 7894,
      "åĮºéĢļæ±Łä¸Ńè·¯": 7895,
      "æ¯ĴæĢ§éĿŀå¸¸": 7896,
      "æĪ´åĮĸåŃ¦å®īåħ¨éĺ²æĬ¤çľ¼éķľ": 7897,
      "Ġ612": 7898,
      "Ġ6162": 7899,
      "Ġ8002": 7900,
      "Ġ8547": 7901,
      "ĠGr": 7902,
      "ĠGyeong": 7903,
      "ere": 7904,
      "eriliz": 7905,
      "å¼ķèĩ´è¿ĩæķıæĢ§åıįåºĶ": 7906,
      "onic": 7907,
      "ĠNV": 7908,
      "Ġåį±éĻ©è´§çī©": 7909,
      "æīĢä½¿çĶ¨çļĦ": 7910,
      "æīĢåĮħåĲ«çļĦä¿¡æģ¯æĺ¯": 7911,
      "ĠBPA": 7912,
      "ĠButyl": 7913,
      "ä¿ĿæĮģå¯Ĩå°ģ": 7914,
      "å¤Ħç½®ç¨ĭåºı": 7915,
      "æĶ¾ç½®": 7916,
      "æĶ¾åĩº": 7917,
      "ĠMor": 7918,
      "åĪ°å®īåħ¨åĮºåŁŁ": 7919,
      "|---------|-------|": 7920,
      "èµĦæĸĻæīĢæıĲä¾ĽçļĦ": 7921,
      "ĠDa": 7922,
      "ĠDES": 7923,
      "ĠDorf": 7924,
      "åĩºå·¥ä½ľ": 7925,
      "ĠTitanium": 7926,
      "ç±»åŀĭèģļéħ¯": 7927,
      "Ġ203": 7928,
      "Ġ2021": 7929,
      "å¤§éĩıæ¸ħæ°´": 7930,
      "å¤§éĩıæ°´åĨ²æ´Ĺèĩ³å°ĳ": 7931,
      "å¤§éĩıåĴĮç»ı": 7932,
      "çİ¯å¢ĥé¢Ħéĺ²æİªæĸ½": 7933,
      "çİ¯å¢ĥäº§çĶŁæľīå®³": 7934,
      "çİ¯å¢ĥæľīå®³çī©è´¨": 7935,
      "çİ¯å¢ĥéĺ²æ²»": 7936,
      "éģ¿åħįçİ¯å¢ĥ": 7937,
      "éģ¿åħįéĩĬæĶ¾åĪ°çİ¯å¢ĥä¸Ń": 7938,
      "ĠåĮĸåŃ¦åĵģåĲį": 7939,
      "ç¼ĸåĨĻ": 7940,
      "alues": 7941,
      "ĠIN": 7942,
      "ĠINF": 7943,
      "Â®ãĢģ": 7944,
      "è¿ľå¤Ħ": 7945,
      "æ±¡æŁĵåĮº": 7946,
      "æ±¡æŁĵéĥ¨ä½į": 7947,
      "æ±¡æŁĵçİ¯å¢ĥéĺ²æ²»": 7948,
      "3481": 7949,
      "æµģéĩıçļĦ": 7950,
      "æıĲèµ·": 7951,
      "ĠæĹ¶": 7952,
      "ĠAquatic": 7953,
      "373": 7954,
      "èį§åħī": 7955,
      "éĵ¸": 7956,
      "éĵħ": 7957,
      "éļı": 7958,
      "èĦ±ä¸ĭ": 7959,
      "ĠRA": 7960,
      "ĠRes": 7961,
      "äººåĳĺæĪ´": 7962,
      "åĮĸåŃ¦åĵģè§Ħå®ļ": 7963,
      "åĮĸåŃ¦åĵģä¸İåİĤåķĨèµĦæĸĻ": 7964,
      "è·µ": 7965,
      "å½ĵæ³ķè§Ħ": 7966,
      "042": 7967,
      "æ¼Ĩéħįæĸ¹": 7968,
      "èĩªåĬ¨": 7969,
      "èĩªæĲº": 7970,
      "ĠæĹłéľĢ": 7971,
      "ĠæĹłåĳ³": 7972,
      "ĠæĹłGHSåį±å®³": 7973,
      "å·¥ä¸ļåį«çĶŁ": 7974,
      "çĸ¾": 7975,
      "å½±åĵįæĪĸæįŁå®³": 7976,
      "æľªè¢«": 7977,
      "æľªå¢ŀå¡ĳ": 7978,
      "æµ·è¿Ĳ": 7979,
      "é¡¾": 7980,
      "ĠæµĨ": 7981,
      "Ġ9003": 7982,
      "Ġå®¡æł¸": 7983,
      "éĩĳçº¢": 7984,
      "ç¤ºæ": 7985,
      "Ġæķ´åĲĪ": 7986,
      "56104": 7987,
      "Ġpropert": 7988,
      "ä¸ĻäºĮéĨĩçĶ²éĨļ": 7989,
      "031": 7990,
      "åĻ¨å®ĺéĢłæĪĲæįŁå®³": 7991,
      "ety": 7992,
      "etone": 7993,
      "æ¶Īéĺ²åºĶæĢ¥çĶµè¯Ŀ": 7994,
      "éĻĦè¿ĳ": 7995,
      "èħ¹": 7996,
      "ĠKOLO": 7997,
      "éĺ²æŃ¢åĮħè£ħ": 7998,
      "éĺ²æŃ¢éĺ³åħī": 7999,
      "éĺ²æŃ¢å®¹åĻ¨æ¸Ĺæ¼ı": 8000,
      "åĮ»çĶŁæĮĩå¯¼": 8001,
      "éĹ´æİ¥": 8002,
      "åİŁæĿĲæĸĻ": 8003,
      "åıĹæ±¡æŁĵè¡£çī©": 8004,
      "è½¬çľ¼çĿĳ": 8005,
      "å»ºè®®æĪĸ": 8006,
      "å»ºè®®åºĶæĢ¥å¤ĦçĲĨ": 8007,
      "çģ«èĬ±åĴĮæĺİçģ«": 8008,
      "è¯·ä½¿çĶ¨": 8009,
      "è¯·æķĻåĮ»çĶŁ": 8010,
      "é»Ħåıĺ": 8011,
      "ĠæĬĢæľ¯éĥ¨": 8012,
      "ç¦ģå¿Į": 8013,
      "IALS": 8014,
      "å¸¸å·ŀå¸Ĥ": 8015,
      "8425": 8016,
      "éĻ¤åİ»": 8017,
      "éĻ¤å¤§éĩıåĴĮç»ı": 8018,
      "çĶŁäº§è¿ĩç¨ĭ": 8019,
      "å¹²çĩ¥çļĦçİ¯å¢ĥ": 8020,
      "ĠçĶ¨èĢĲçĩĥçī©æĸĻå¦Ĥæ²Ļ": 8021,
      "åħ·æľīä»¥ä¸ĭ": 8022,
      "æĥħè¯·æŁ¥éĺħ": 8023,
      "è¿Ĳè¾ĵåĮħè£ħ": 8024,
      "00050": 8025,
      "åĬ¨çī©": 8026,
      "æ³¡æ²«çģŃçģ«åĻ¨": 8027,
      "éĢĤçĶ¨æ³ķè§Ħ": 8028,
      "æ°°éħ¸éħ¯": 8029,
      "æ°°åĮĸæ°¢": 8030,
      "äºĮæ°§åĮĸç¢³çģŃçģ«åĻ¨": 8031,
      "å¼Ģè£Ĥ": 8032,
      "æĽĿ": 8033,
      "åĮĸå·¥èĤ¡ä»½æľīéĻĲåħ¬åı¸": 8034,
      "èŃ¦æĪĴ": 8035,
      "Ġåı¯æº¶äºİ": 8036,
      "ĠåĲ¸åħ¥åı¯èĥ½å¯¼èĩ´è¿ĩæķıæĪĸåĵ®åĸĺçĹħçĹĩçĬ¶æĪĸåĳ¼åĲ¸åĽ°éļ¾": 8037,
      "åģ¥åº·åĴĮå®īåħ¨": 8038,
      "Ġç«ĭåį³å°±åĮ»": 8039,
      "ä»»ä½ķä¸ĵåĪ©": 8040,
      "è¿Ľè¡Įæ²»çĸĹ": 8041,
      "è¢«è®¤ä¸º": 8042,
      "TERIALS": 8043,
      "åıĳçĶŁçģ«çģ¾": 8044,
      "Ġglycol": 8045,
      "ĠFO": 8046,
      "ĠFe": 8047,
      "ĠFLAMMA": 8048,
      "çľŁç©º": 8049,
      "ä¸ªäººä¿ĿæĬ¤": 8050,
      "ä¸ªäººæ³¨æĦıäºĭé¡¹": 8051,
      "åĪĹæĺİ": 8052,
      "åİĭåĬĽ": 8053,
      "åİĭè£ħç½®": 8054,
      "ä¹Ļçĥ¯åŁº": 8055,
      "éĩĳå±ŀæ°§åĮĸçī©": 8056,
      "é¡»å°±åĮ»": 8057,
      "çħ§é¡¾": 8058,
      "éĿŀåı¯çĩĥæĢ§": 8059,
      "Ġå¯¹åĻ¨å®ĺéĢłæĪĲæįŁå®³": 8060,
      "ĠåĤ¬": 8061,
      "èĭ¥å·²": 8062,
      "æıĲä¾Ľä¸ĢèĪ¬": 8063,
      "54240": 8064,
      "ĠæĢ¥æĢ§åĲ¸åħ¥": 8065,
      "åĲŀåĴ½åıĬè¿Ľåħ¥åĳ¼åĲ¸éģĵåı¯èĥ½èĩ´åĳ½": 8066,
      "PRO": 8067,
      "Ġ[%]": 8068,
      "Ġcon": 8069,
      "Ġcps": 8070,
      "æ°¯ä¹Ļçĥ·": 8071,
      "Ġçļ®èĤ¤åĴĮ": 8072,
      "Ġçļ®èĤ¤è¿ĩæķı": 8073,
      "æİ¨èįĲçĶ¨äºİ": 8074,
      "éĻĦçĿĢæĢ§": 8075,
      "ĠVESTANAT": 8076,
      "Ġä½¿çĶ¨æľ¬äº§åĵģæĹ¶": 8077,
      "ĠçĽĲæ°´": 8078,
      "åĪĨè§£çī©": 8079,
      "åľºåľ°": 8080,
      "Ġå®īåħ¨ä¸İ": 8081,
      "åıĮæīĭ": 8082,
      "åıĮç»ĦåĪĨ": 8083,
      "ç»ĵåĲĪ": 8084,
      "å¦ĤæŀľåĪºæ¿ĢæĮģç»Ń": 8085,
      "æĢ§è´¨ä¸įä½ľ": 8086,
      "å¯Ĩå°ģæīĭå¥Ĺ": 8087,
      "éŁ³": 8088,
      "éĤ®ç®±": 8089,
      "ANCO": 8090,
      "éĢĤçĶ¨äºİæº¶åīĤåŀĭ": 8091,
      "è½»åº¦": 8092,
      "åĽºä½ĵæłĳèĦĤ": 8093,
      "åĽºä½ĵåĲ«éĩı": 8094,
      "åĽºä½ĵä»½": 8095,
      "æĦŁåı¹åı·": 8096,
      "å±±è·¯": 8097,
      "æİĴé£İ": 8098,
      "çĶ²åŁºèĭ¯éħļ": 8099,
      "ä½©æĪ´åĲĪéĢĤçļĦ": 8100,
      "åĲĪéĢĤçļĦæĶ¶å®¹": 8101,
      "Ġä¹ĻéĨĩ": 8102,
      "Ġæĵįä½ľä¸İåĤ¨åŃĺ": 8103,
      "æĪ·å¤ĸ": 8104,
      "ä¸Ĭæµ·å·¥åİĤ": 8105,
      "ower": 8106,
      "æ¶Īæ¯Ĵ": 8107,
      "æ¶ĪéĻ¤æīĢæľīçģ«æºĲ": 8108,
      "ĠWK": 8109,
      "åıĺæĽ´": 8110,
      "è½¬ç§»èĩ³": 8111,
      "Ġçī©è´¨åĲįç§°": 8112,
      "åŃĺæĶ¾åľ¨": 8113,
      "éĺ²çĪĨåŀĭ": 8114,
      "æķ´ä¸ª": 8115,
      "éĵĿç²ī": 8116,
      "éĵĿçīĩ": 8117,
      "å¿ħé¡»é©¬ä¸Ĭ": 8118,
      "å£°éŁ³": 8119,
      "çī¹åĪ«æĮĩç¤º": 8120,
      "çŁ³åŀĭ": 8121,
      "Ġre": 8122,
      "Ġæµĭè¯ķæĿ¡ä»¶": 8123,
      "Ġwax": 8124,
      "Ġé«ĺæ¸©": 8125,
      "Ġé«ĺæµģéĩıçļĦ": 8126,
      "531": 8127,
      "æŀģä½İ": 8128,
      "èĦ±åİ»æ±¡æŁĵçļĦè¡£çĿĢ": 8129,
      "å¼Ĥæ°°éħ¸éħ¯èĴ¸æ°ĶåĴĮ": 8130,
      "æ²¾æŁĵè¡£æľį": 8131,
      "åį°æĹ¥æľŁ": 8132,
      "åıįåºĶæĢ§åıĬå®īåħ¨": 8133,
      "Ġç»ĦåĪĨåĲįç§°": 8134,
      "è´®åŃĺåıĬæĵįä½ľå¤ĦçĲĨ": 8135,
      "å®¹åĻ¨ä¸Ńå¤ĦçĲĨ": 8136,
      "5709": 8137,
      "èĢĮè¢«çĤ¹çĩĥ": 8138,
      "å¾·åĽ½": 8139,
      "Ġçī¹å¼ĤæĢ§éĿ¶åĻ¨å®ĺæľīæ¯Ĵ": 8140,
      "å½»åºķåĨ²æ´Ĺæ±¡æŁĵéĥ¨ä½į": 8141,
      "åħħè¡Ģ": 8142,
      "ä¸ŃçļĦç§¯ç´¯": 8143,
      "ä¸ŃçļĦå»ºè®®æĪĸ": 8144,
      "ĠIntern": 8145,
      "ç«¯": 8146,
      "Ġ1500": 8147,
      "ELCR": 8148,
      "éĩįéĩıçļĦ": 8149,
      "ational": 8150,
      "ĠGHSåĪĨç±»": 8151,
      "ĠGHSæłĩçŃ¾è¦ģç´ł": 8152,
      "æĸ°é²ľç©ºæ°ĶåĮº": 8153,
      "ç²Ĵå¾ĦåĪĨå¸ĥ": 8154,
      "ĠèĴ¸æ°Ķåı¯èĥ½": 8155,
      "å®ĥå¯¹çī¹å®ļ": 8156,
      "å¢ŀçĻ½åīĤ": 8157,
      "åĮħæĭ¬å¤±æĺİ": 8158,
      "å®ŀè·µ": 8159,
      "Ġæłĩè¯Ĩ": 8160,
      "ä¸įå¾Ĺè¯±å¯¼åĳķåĲĲ": 8161,
      "åı¯èĥ½éĢłæĪĲåĳ¼åĲ¸éģĵåĪºæ¿Ģ": 8162,
      "ä¸ĢèĪ¬æĮĩå¯¼": 8163,
      "åŁºäºİåľ¨äº§åĵģçļĦ": 8164,
      "éĩĬæĶ¾åĩº": 8165,
      "éĩĬæĶ¾åĪºæ¿ĢæĢ§æ°Ķä½ĵåĴĮèĴ¸æ°Ķ": 8166,
      "Ġçī©çĲĨåĴĮ": 8167,
      "Ġ1280": 8168,
      "Ġè¿Ĳè¾ĵæ³¨æĦıäºĭé¡¹": 8169,
      "Ġè¿Ĳè¾ĵåį±éĻ©çŃīçº§": 8170,
      "Ġçģ°": 8171,
      "å¤©çĦ¶": 8172,
      "ĠæĪ´çĭ¬": 8173,
      "æķ´çĲĨèĩª": 8174,
      "ĠçĻ¾åĪĨæ¯Ķ": 8175,
      "åĳ¼åĲ¸éĺ²æĬ¤åħ·": 8176,
      "çĽ¸åħ³è¦ģæ±Ĥ": 8177,
      "çĽ¸åħ³ç¡®å®ļçĶ¨éĢĶ": 8178,
      "éĩĩçĶ¨éĺ²çĪĨåŀĭ": 8179,
      "æ£ĢæŁ¥": 8180,
      "åĪ©çĶ¨": 8181,
      "åĲĮæĹ¶": 8182,
      "åıĮéħļAåŀĭ": 8183,
      "å°±è¯Ĭçľ¼ç§ĳåĮ»çĶŁ": 8184,
      "ĠXIV": 8185,
      "åı¯èĥ½å¯¼èĩ´éĩĬæĶ¾åĪºæ¿ĢæĢ§æ°Ķä½ĵåĴĮèĴ¸æ°Ķ": 8186,
      "ĠOEL": 8187,
      "çī©åĵģåĲįç§°": 8188,
      "çī©åĵģä¸İåİĤåķĨèµĦæĸĻ": 8189,
      "ĠåħŃäºļçĶ²åŁº": 8190,
      "rizol": 8191,
      "åı¯çĶ¨æ³¡æ²«": 8192,
      "ä½ľä¸ļå®īåħ¨è§Ħç¨ĭ": 8193,
      "åľ¨éĢļé£İèī¯å¥½å¤Ħ": 8194,
      "ä¹Łåı¯ä»¥": 8195,
      "åįİäººæ°ĳ": 8196,
      "è®¸åı¯": 8197,
      "åħ·ä½ĵçļĦ": 8198,
      "åħ·ä½ĵä¿¡æģ¯": 8199,
      "çĥŃè¡¨éĿ¢åĴĮçĤ¹çģ«æºĲ": 8200,
      "åºĶéģ¿åħįçī©åĵģ": 8201,
      "æµİåįĹ": 8202,
      "æ³Ħæ¼ıçī©åı¯èĥ½å¯¹": 8203,
      "ĠåĽºä½ĵä»½": 8204,
      "ä¸įåĲ«VOC": 8205,
      "Ġ7110": 8206,
      "ified": 8207,
      "Ġéĺ²æĬ¤ç±»åĪ«": 8208,
      "Ġéĺ²æĬ¤é¡¹çĽ®": 8209,
      "ä¸»è¦ģçĹĩçĬ¶": 8210,
      "ç«ĭåį³åĳ¼åı«æĢ¥æķĳä¸Ńå¿ĥ": 8211,
      "ç¡®ä¿ĿåħħåĪĨ": 8212,
      "Ġåı¯èĥ½éĢłæĪĲåĳ¼åĲ¸éģĵåĪºæ¿Ģ": 8213,
      "å¡ĳæĸĻæ¡¶": 8214,
      "å¡ĳæĸĻäºĭä¸ļ": 8215,
      "Ġåħ¶ä»ĸä¿¡æģ¯": 8216,
      "Ġåħ¶ä»ĸåį±å®³": 8217,
      "ĠçĨĶèŀį": 8218,
      "åĽĽç¡ħæ°§çĥ·": 8219,
      "è´§çĽĺ": 8220,
      "Ġ50176": 8221,
      "|---|---|---|---|---|": 8222,
      "éĺ²æŃ¢éĿĻçĶµç§¯èģļ": 8223,
      "é£Łåĵģæİ¥è§¦çļĦçº¸": 8224,
      "ä¼ĳæģ¯åīį": 8225,
      "æµ®èī²": 8226,
      "è§£æ¯Ĵä¸Ńå¿ĥ": 8227,
      "Ġæīĭéĥ¨": 8228,
      "Ġæ¶ĤæĸĻçĶ¨": 8229,
      "Ġè¿ľç¦»æĺİçģ«": 8230,
      "çĶ¨æµģåĬ¨æ¸ħæ°´æ¸ħæ´Ĺ": 8231,
      "åĽ¾å½¢": 8232,
      "åŃĺåĤ¨æĿ¡ä»¶": 8233,
      "Ġä¸Ńåº¦æ°¢éĶ®åŁºæº¶åīĤ": 8234,
      "Ġä¸Ńåįİäººæ°ĳ": 8235,
      "ĠåİĤåķĨ": 8236,
      "ĠåŁºæľ¬": 8237,
      "åħ¶å®ĥä¿¡æģ¯": 8238,
      "Ġåħ«çĶ²åŁºçİ¯": 8239,
      "Ġå¼Ĥæ°°éħ¸éħ¯": 8240,
      "Ġå¾·": 8241,
      "è¿Ļä¸įæİĴ": 8242,
      "ç»´æĮģ": 8243,
      "Ġæ¯ĴæĢ§": 8244,
      "éĶĢåĶ®è§Ħæł¼": 8245,
      "Ġæ¶²ä½ĵåĴĮèĴ¸æ°Ķæĺĵçĩĥ": 8246,
      "åħįè´¹": 8247,
      "å®ľè´®åŃĺäºİ": 8248,
      "ĠéĤ»": 8249,
      "Ġæ²¸çĤ¹èĮĥåĽ´": 8250,
      "Ġå°ĨæĤ£èĢħè½¬ç§»åĩºæ±¡æŁĵåĮº": 8251,
      "ORM": 8252,
      "ult": 8253,
      "åį±éĻ©åĵģå®£åĳĬ": 8254,
      "æĸ°æĿĲæĸĻæľīéĻĲåħ¬åı¸": 8255,
      "åłĨ": 8256,
      "æ¶Ĥè£ħä½ľä¸ļå®īåħ¨è§Ħç¨ĭ": 8257,
      "éĢļé£İèī¯å¥½å¤Ħæĵįä½ľ": 8258,
      "è½»å¾®çļ®èĤ¤åĪºæ¿Ģ": 8259,
      "Ġæ¸ħéĻ¤æīĢæľīçĤ¹çģ«æºĲ": 8260,
      "ĠçĶŁäº§éĥ¨": 8261,
      "åį«çĶŁæİªæĸ½": 8262,
      "ç²¾æ²¹": 8263,
      "éĥ½åĮĸå·¥": 8264,
      "Ġ3219": 8265,
      "å¯¹æ°´çĶŁçĶŁçī©æľīæ¯Ĵå¹¶åħ·æľīéķ¿æľŁæĮģç»Ńå½±åĵį": 8266,
      "Ġæ±ŁèĭıçľģæĺĨå±±å¸Ĥ": 8267,
      "ĠçĪĨçĤ¸çķĮ": 8268,
      "æĢĢçĸĳåı¯éĢłæĪĲéģĹä¼łæĢ§ç¼ºéĻ·": 8269,
      "æĿ¯æ°´": 8270,
      "|-----------|---------|": 8271,
      "çĿĢèī²åĬĽ": 8272,
      "çļĦéĢļé£İç³»ç»Ł": 8273,
      "æ°´åĸ·æ´Ĵ": 8274,
      "ç³ĬæłĳèĦĤ": 8275,
      "æ¶ĤæĸĻä½ĵç³»ä¸Ń": 8276,
      "ä½ıåıĭçĶµæľ¨é«ĺæĢ§èĥ½": 8277,
      "æĥ°æĢ§åĲ¸æĶ¶æĿĲæĸĻ": 8278,
      "Ġæł¹æį®GHSæłĩåĩĨ": 8279,
      "çĽ´æİ¥æİ¥è§¦": 8280,
      "Ġç½Ĳå¤´": 8281,
      "Ġå¾®ç²ī": 8282,
      "Ġ1813": 8283,
      "Ġ1812": 8284,
      "åĲĪè§Ħä¿¡æģ¯": 8285,
      "æĿ¿ç»ĦåĪĨ": 8286,
      "éĢļçĶ¨å·¥ä¸ļæ¶ĤæĸĻ": 8287,
      "éĢļçĶ¨æĬĢæľ¯æĿ¡ä»¶": 8288,
      "åºŁçī©æ±¡æŁĵçİ¯å¢ĥéĺ²æ²»": 8289,
      "ä»įçĦ¶": 8290,
      "å¿«éĢŁ": 8291,
      "æİĴåħ¥æİĴæ°´æ²Ł": 8292,
      "Ġä¹Ļéħ¸æŃ£ä¸ģéħ¯": 8293,
      "sia": 8294,
      "çĶŁæĢģèµĦæĸĻ": 8295,
      "æĿĲæĸĻåĲ¸æĶ¶æº¢åĩºçī©": 8296,
      "Ġå®īå®ļ": 8297,
      "Ġå¹¿ä¸ľçľģ": 8298,
      "åŁºæĿĲæ¶¦æ¹¿": 8299,
      "ä¿ĿåŃĺæľŁ": 8300,
      "Ġåı¯èĥ½å¼ķèµ·æľºæ¢°æĢ§åĪºæ¿Ģ": 8301,
      "çĶ±äºİåıĹçĥŃ": 8302,
      "è¶³å¤Łé«ĺçļĦ": 8303,
      "Ġé£Łåĵģæİ¥è§¦æ³ķè§Ħ": 8304,
      "Ġcoating": 8305,
      "ĠèĦ±åİ»æ±¡æŁĵè¡£æľį": 8306,
      "Ġéĩįéĩıä»½": 8307,
      "èģļåĲĪåıįåºĶ": 8308,
      "çº³ç±³": 8309,
      "å¹¶åı¯å¼ķèĩ´è¿ĩæķıæĢ§åıįåºĶ": 8310,
      "Ġçļ®èĤ¤èĩ´æķıçī©": 8311,
      "Ġä¹ĻäºĮéĨĩä¹ĻéĨļ": 8312,
      "Ġä½©å¸¦åı¯æĬĹæº¶åīĤçļĦä¿ĿæĬ¤æīĭå¥Ĺ": 8313,
      "æĢ§åıĬåıįåºĶæĢ§": 8314,
      "ä¸įçĽ¸å®¹çī©è´¨": 8315,
      "Ġå¹²çĩ¥": 8316,
      "Ġå¹²ç²īæľ«": 8317,
      "æ°´åĴĮèĤ¥çļĤå½»åºķåĨ²æ´Ĺæ±¡æŁĵéĥ¨ä½į": 8318,
      "è¯Ħä¼°è¿ĻäºĽ": 8319,
      "ç«ĭä¾Ľæ°Ķå¼ıåĳ¼åĲ¸åĻ¨": 8320,
      "Ġâĸ³": 8321,
      "ä¾µåħ¥": 8322,
      "Ġç«ĭåį³èĦ±åİ»æīĢæľīè¢«æ±¡æŁĵçļĦè¡£çī©": 8323,
      "æ°´çĶŁåį±å®³ç±»åĪ«": 8324,
      "åĳ¨åĽ´çİ¯å¢ĥä¸Ń": 8325,
      "OSS": 8326,
      "Ġéĺ²æ¸ĹéĢı": 8327,
      "æ°ĳéĽĦ": 8328,
      "éĺ²æĬ¤è£ħå¤ĩåĴĮåºĶæĢ¥": 8329,
      "åĤ¨åŃĺäºİå¯ĨéĹŃå®¹åĻ¨ä¸Ń": 8330,
      "é«ĺåº¦æĺĵçĩĥæ¶²ä½ĵåĴĮèĴ¸æ°Ķ": 8331,
      "åħ¶èĴ¸æ°Ķæ¯Ķç©ºæ°Ķéĩį": 8332,
      "æĵįä½ľæĹ¶åĪĩåĭ¿åĲ¸çĥŁ": 8333,
      "ç»ĻäºĪåĲ¸æ°§": 8334,
      "éĿŀå¸¸å¥½çļĦ": 8335,
      "Ġcontain": 8336,
      "å¢ŀå¡ĳåīĤ": 8337,
      "èİ·åıĸçī¹åĪ«æĮĩç¤º": 8338,
      "TIC": 8339,
      "èĦ¸éĥ¨éĺ²æĬ¤": 8340,
      "Ġæ²¹æ¼Ĩ": 8341,
      "å¦Ĥæľīä¸įéĢĤå°±åĮ»": 8342,
      "ĠåİŁæĸĻ": 8343,
      "ĠåİŁæĸĩä»¶": 8344,
      "ĠCHEMTREC": 8345,
      "ä¿ĿæĮģåĳ¼åĲ¸èĪĴéĢĤä½ĵä½į": 8346,
      "ubrizol": 8347,
      "çĵ·": 8348,
      "Ġvalues": 8349,
      "Ġåħ¬åı¸åĲįç§°": 8350,
      "ĠæŁłæª¬": 8351,
      "èĢĲåĮĸåŃ¦åĵģæĢ§": 8352,
      "ĠæĺĨå±±å¸Ĥ": 8353,
      "éķ¿æĹ¶éĹ´åĨ²æ´Ĺ": 8354,
      "Ġé«ĺåĪĨåŃĲéĩıèģļéħ¯": 8355,
      "ĠæıĲé«ĺèī¯å¥½": 8356,
      "ĠæıĲé«ĺæ¶ĤèĨľ": 8357,
      "Ġéĩĩåıĸéĺ²æŃ¢éĿĻçĶµæĶ¾çĶµçļĦæİªæĸ½": 8358,
      "Ġ12463": 8359,
      "ĠHYC": 8360,
      "èĢĲæº¶åīĤæĢ§": 8361,
      "Ġå¤§éĩıæ³Ħæ¼ı": 8362,
      "Ġå®Įåħ¨çĽ¸å®¹": 8363,
      "Ġæº¶äºİæľīæľºæº¶åīĤ": 8364,
      "ĠæĮīçħ§": 8365,
      "æľ¨åĻ¨åĴĮå®¶åħ·æ¶ĤæĸĻ": 8366,
      "Ġå°ĨæĤ£èĢħç§»èĩ³æĸ°é²ľç©ºæ°ĶåĮº": 8367,
      "Ġæ´»æĢ§å®ĺèĥ½åĽ¢": 8368,
      "EAA": 8369,
      "YLOID": 8370,
      "æ§½è½¦": 8371,
      "çļĦåĪĨç±»åıĬæłĩå¿Ĺ": 8372,
      "éħ¸äºĮçĶ²éħ¯": 8373,
      "æ¶ĤæĸĻçļĦåĽºåĮĸåīĤ": 8374,
      "ĠçĶ¨æ°´å°ıå¿ĥåĨ²æ´ĹåĩłåĪĨéĴŁ": 8375,
      "æ°¯åĮĸæ°¢": 8376,
      "Ġçİ»çĴĥåĮĸ": 8377,
      "åį°åĪ·æ²¹å¢¨åĴĮ": 8378,
      "Ġå¸¸å·ŀè¯ºå½©åĮĸå·¥æľīéĻĲåħ¬åı¸": 8379,
      "Desmophen": 8380,
      "PHA": 8381,
      "Ġåıªèĥ½ä½¿çĶ¨ä¸įäº§çĶŁçģ«èĬ±çļĦå·¥åħ·": 8382,
      "åĪĴä¼¤": 8383,
      "éĺ»æŃ¢": 8384,
      "è¿ĺåİŁ": 8385,
      "è´Ńä¹°": 8386,
      "åĢ¾åĢĴ": 8387,
      "æ²³æµģ": 8388,
      "æīĢæıĲä¾ĽçļĦä¸ĢèĪ¬æĮĩå¯¼": 8389,
      "ĠåĲ¸åħ¥æĢ§åį±å®³": 8390,
      "Ġå¼ºåº¦æ°¢éĶ®åŁºæº¶åīĤ": 8391,
      "Ġæº¶è§£åº¦åıĤæķ°": 8392,
      ":|:-------------:|:---": 8393,
      "61075": 8394,
      "Ġç¿»å¼Ģä¸Ĭä¸ĭçľ¼çĿĳ": 8395,
      "Ġç¿»è½¬çľ¼çĿĳ": 8396,
      "åį±éĻ©åĮĸåŃ¦åĵģçļĦåĪĨç±»åıĬæłĩå¿Ĺ": 8397,
      "ĠTSY": 8398,
      "ĠAluminum": 8399,
      "ĠåĽ½å®¶": 8400,
      "æ°¯ä¸ģæ©¡èĥ¶": 8401,
      "Ġæ·»åĬłéĩı": 8402,
      "Ġä¸Ĭæµ·å¸ĤæĿ¾æ±Ł": 8403,
      "æģĴè£ķè¾": 8404,
      "Ġç³»åĪĹäº§åĵģ": 8405,
      "afety": 8406,
      "Ġè½»èĬ³çĥĥæº¶åīĤçŁ³èĦĳæ²¹": 8407,
      "åı¦æľīå¸¸çĨŁ": 8408,
      "Ġçł´æ³¡èģļåĲĪçī©": 8409,
      "ä¸įä½ľä¸ºåį±éĻ©åĵģ": 8410,
      "ĠMSPI": 8411,
      "Ġ201507": 8412,
      "ä¸¥éĩįçļĦçľ¼çĿĽåĪºæ¿Ģ": 8413,
      "åıĤè§ģç¬¬": 8414,
      "é¦ıåĪĨ": 8415,
      "çłĶç£¨æĸĻä¸Ń": 8416,
      "BCF": 8417,
      "Chinese": 8418,
      "__(": 8419,
      "èĵĦç§¯": 8420,
      "åħģè®¸æĹ¶": 8421,
      "åı¯éĿłçļĦ": 8422,
      "ä¸įå®ľè¶ħè¿ĩ": 8423,
      "å·¦åı³": 8424,
      "åľ¨æŃ£å¸¸æĿ¡ä»¶ä¸ĭåĤ¨åŃĺç¨³å®ļ": 8425,
      "Ġä¸įåı¯åĤ¬åĲĲ": 8426,
      "ĠæĹ¥æľ¬": 8427,
      "Ġ9685": 8428,
      "ĠæŃ£ä¸ģåŁºéĨļåĮĸ": 8429,
      "èĩªç»Ļå¼ıåĳ¼åĲ¸è£ħç½®": 8430,
      "åıĹå®³èĢħä¿Ŀæļĸ": 8431,
      "å¯»æ±ĤåĮ»çĸĹæķĳæĬ¤": 8432,
      "ĠåĵģçīĮæĸ¹": 8433,
      "çģ«èĬ±æĪĸçģ«çĦ°èĢĮè¢«çĤ¹çĩĥ": 8434,
      "ĠåĲĮä¹ī": 8435,
      "ä»ĵåºĵ": 8436,
      "åĬ³éĥ¨åıĳ": 8437,
      "è´Łè´£": 8438,
      "æ²¸ç¨ĭ": 8439,
      "éĢłæĪĲä¸¥éĩįçļ®èĤ¤çģ¼ä¼¤åĴĮçľ¼æįŁä¼¤": 8440,
      "æĹłåı¯çĶ¨ä¿¡æģ¯": 8441,
      "ç¼ĵåĴĮ": 8442,
      "ä¿®æĶ¹æĹ¥æľŁ": 8443,
      "|---------|:-------------------": 8444,
      "Ġwith": 8445,
      "å¹¿ä¸ľçľģä½Ľå±±å¸Ĥé¡ºå¾·åĮº": 8446,
      "åĲ¦åĪĻä¼ļå¼ķèµ·çģ«åĬ¿èĶĵå»¶": 8447,
      "Ġå·¥ä½ľåľºæīĢå®īåħ¨ä½¿çĶ¨": 8448,
      "åĤ¨åŃĺåĴĮä½¿çĶ¨ä¸ŃçļĦç§¯ç´¯": 8449,
      "213031": 8450,
      "±¼ç±»": 8451,
      "æļ´æĻĴ": 8452,
      "Ġèĭ±å¯¸": 8453,
      "Ġä¹³éħ¸": 8454,
      "è§ĴèĨľ": 8455,
      "åĴĮèģļç¡ħæ°§çĥ·æº¶æ¶²": 8456,
      "å°¿ç´ł": 8457,
      "èĤĿèĦı": 8458,
      "æĪĸä»İå®īåħ¨æ³Ħ": 8459,
      "åħ¨éĿ¢éĢļé£İ": 8460,
      "å¹¶ä½¿åħ¶ä¿Ŀæļĸä¼ĳæģ¯": 8461,
      "å¸¸çļĦæ³Ħæ¼ıçī©åı¯èĥ½å¯¹": 8462,
      "è¿Ĳè¾ĵåĴĮæĵįä½ľ": 8463,
      "Ġç»ĦæĪĲ": 8464,
      "å½¢æĪĲåı¯çĩĥç²īå°ĺ": 8465,
      "Ġå¼±åº¦æ°¢éĶ®åŁºæº¶åīĤ": 8466,
      "ECKOPO": 8467,
      "åħ±åĴĮåĽ½åĽºä½ĵ": 8468,
      "Ġåİ»ç¦»åŃĲæ°´": 8469,
      "è¿Ľè¡Įäººå·¥åĳ¼åĲ¸æĪĸç»Ļæ°§": 8470,
      "Ġç¡®ä¿Ŀ": 8471,
      "ĠJinan": 8472,
      "ĠJiangsu": 8473,
      "ĠçĶŁæ®ĸç»Ĩèĥŀèĩ´çªģåıĺæĢ§": 8474,
      "åĽ½éĻħè§Ħç«łå¤Ħç½®åĨħè£ħçī©": 8475,
      "çī©çĲĨåıĬåĮĸåŃ¦å±ŀæĢ§": 8476,
      "ĠRHEBL": 8477,
      "Ġçº³ç±³æ°§åĮĸéĵģçº¢æµĨ": 8478,
      "çģ«åľºä¸ŃçļĦå®¹åĻ¨èĭ¥å·²": 8479,
      "ĠçĪ±æķ¬åĮĸåŃ¦æłªå¼ıä¼ļç¤¾": 8480,
      "vPvBçī©è´¨": 8481,
      "Ġthis": 8482,
      "Ġè¯¦æĥħè¯·æŁ¥éĺħ": 8483,
      "Ġåĸ·": 8484,
      "Ġæ£ĢéªĮ": 8485,
      "åľ°æĸ¹æ³ķè§Ħ": 8486,
      "éķ¿åħ´æĿĲæĸĻå·¥ä¸ļ": 8487,
      "ä¼ļçł´åĿı": 8488,
      "ĠMATERIALS": 8489,
      "ĠDesmodur": 8490,
      "åĪĨç±»åĴĮæłĩçŃ¾": 8491,
      "èĩªåĲ¸è¿ĩæ»¤å¼ıéĺ²æ¯ĴéĿ¢åħ·": 8492,
      "ç²ĺè¿ŀæĢ§èĥ½": 8493,
      "å¸¸çĶ¨åį±éĻ©åĮĸåŃ¦åĵģçļĦåĪĨç±»åıĬæłĩå¿Ĺ": 8494,
      "ä¿®è¡¥æ¼Ĩ": 8495,
      "ç©¿å¯ĨéĹŃåŀĭéĺ²æĬ¤è¡£": 8496,
      "Ġåį±å®³çī©è´¨æĪĲåĪĨ": 8497,
      "åıĺèī²æĪĸä»İå®īåħ¨æ³Ħ": 8498,
      "æŃ¤ä»½èµĦæĸĻæīĢæıĲä¾ĽçļĦ": 8499,
      "åĪ©äºİåĳ¼åĲ¸": 8500,
      "Ġå±ıä¸ľåİ¿æŀĭå¯®ä¹¡å±ıåįĹå·¥ä¸ļåĮºå±ıåįĹè·¯": 8501,
      "Ġç«ĭåį³çĶ¨å¤§éĩıçļĦæ°´åĴĮèĤ¥çļĤå½»åºķåĨ²æ´Ĺæ±¡æŁĵéĥ¨ä½į": 8502,
      "Ġæ¹ĸåĮĹ": 8503,
      "èĤ¿èĥĢåĴĮè§ĨåĬĽæ¨¡ç³Ĭ": 8504,
      "Ġä½©å¸¦èĢĲæº¶åīĤä¿ĿæĬ¤æīĭå¥Ĺ": 8505,
      "izeè¯ķéªĮ": 8506,
      "ç´«å¤ĸçº¿": 8507,
      "Ġchloride": 8508,
      "Ġçİ»çĴĥè½¬åĮĸçĤ¹": 8509,
      "Ġç¢ĺèī²": 8510,
      "ĠTechnology": 8511,
      "Ġåħ·å¤ĩèī¯å¥½": 8512,
      "ç´§å¯Ĩè´´åĲĪçļĦéĺ²æĬ¤çľ¼ç½©": 8513,
      "åĮºåºĶå¤ĩæľīæ³Ħæ¼ıåºĶæĢ¥å¤ĦçĲĨ": 8514,
      "Ġå·¥ä¸ļæĪĸåķĨä¸ļåºĶçĶ¨ä¸Ńæ¶ĤæĸĻçļĦåĽºåĮĸåīĤ": 8515,
      "4738": 8516,
      "5762": 8517,
      "Draizeè¯ķéªĮ": 8518,
      "resistant": 8519,
      "zhou": 8520,
      "ĠéĨĩæº¶": 8521,
      "ĩåįİåĮĸåŃ¦": 8522,
      "īè´¤åĮº": 8523,
      "çļĦæľīåħ³åģ¥åº·åĴĮå®īåħ¨": 8524,
      "çļĦè®¤è¯ĨæīĢæıĲä¾ĽçļĦä¸ĢèĪ¬æĮĩå¯¼": 8525,
      "çĶ¨æ¸©æ°´éķ¿æĹ¶éĹ´åĨ²æ´Ĺ": 8526,
      "åĴĮçº¸æĿ¿ç»ĦåĪĨ": 8527,
      "åĴĮèĬ³é¦ĻæĹıæº¶åīĤ": 8528,
      "äº§åĵģä¸įè¢«åĪĨç±»ä¸ºçİ¯å¢ĥæľīå®³çī©è´¨": 8529,
      "ä¸Ńäº§çĶŁå£°éŁ³": 8530,
      "å¤Ħåľ¨çģ«åľºä¸ŃçļĦå®¹åĻ¨èĭ¥å·²": 8531,
      "åĮ»å¸Ī": 8532,
      "æĹ¶åºĶçĶ¨æ°´åĸ·æ´Ĵ": 8533,
      "ä¿¡æģ¯å¹¶éĿŀäº§åĵģæĮĩæłĩ": 8534,
      "Ġ53177": 8535,
      "æĸ°åĮĹåĮºéĢļæ±Łä¸Ńè·¯": 8536,
      "æĸ°è¿ľç§ĳæĬĢèĤ¡ä»½æľīéĻĲåħ¬åı¸": 8537,
      "å¯¹èº«ä½ĵæľīå®³": 8538,
      "ĠSheet": 8539,
      "ĠåĮĸåŃ¦åį±éĻ©çī©åĵģå®īåħ¨ç®¡çĲĨæĿ¡ä¾ĭ": 8540,
      "éĢļé£İåıĬéĺ´åĩīåľ°åĮº": 8541,
      "æ¯ĴæĢ§éĿŀå¸¸å¤§": 8542,
      "erilization": 8543,
      "Ġåį±éĻ©è´§çī©è¿Ĳè¾ĵåĮħè£ħ": 8544,
      "æīĢåĮħåĲ«çļĦä¿¡æģ¯æĺ¯åŁºäºİåľ¨äº§åĵģçļĦ": 8545,
      "ĠMorr": 8546,
      "çİ¯å¢ĥäº§çĶŁæľīå®³å½±åĵįæĪĸæįŁå®³": 8547,
      "ĠINFORMATION": 8548,
      "èį§åħīå¢ŀçĻ½åīĤ": 8549,
      "å½ĵæ³ķè§Ħåħģè®¸æĹ¶": 8550,
      "æľªå¢ŀå¡ĳéħļéĨĽæłĳèĦĤ": 8551,
      "éĩĳçº¢çŁ³åŀĭ": 8552,
      "Ġæķ´åĲĪæĸĩæ¡£": 8553,
      "ĠKOLON": 8554,
      "éĺ²æŃ¢éĺ³åħīæļ´æĻĴ": 8555,
      "åĮ»çĶŁæĮĩå¯¼ä¸ĭ": 8556,
      "å¸¸å·ŀå¸Ĥæĸ°åĮĹåĮºéĢļæ±Łä¸Ńè·¯": 8557,
      "éĻ¤å¤§éĩıåĴĮç»ıå¸¸çļĦæ³Ħæ¼ıçī©åı¯èĥ½å¯¹": 8558,
      "ĠFLAMMABLE": 8559,
      "åİĭè£ħç½®ä¸Ńäº§çĶŁå£°éŁ³": 8560,
      "éĿŀåı¯çĩĥæĢ§æĿĲæĸĻåĲ¸æĶ¶æº¢åĩºçī©": 8561,
      "æıĲä¾Ľä¸ĢèĪ¬æĶ¯æĮģ": 8562,
      "æĢ§è´¨ä¸įä½ľæĭħä¿Ŀ": 8563,
      "åĲĪéĢĤçļĦæĶ¶å®¹æĿĲæĸĻ": 8564,
      "Ġé«ĺæµģéĩıçļĦæ°´åĸ·å°Ħ": 8565,
      "åıįåºĶæĢ§åıĬå®īåħ¨æĢ§": 8566,
      "ĠInternational": 8567,
      "ELCROSS": 8568,
      "å®ĥå¯¹çī¹å®ļæĢ§è´¨ä¸įä½ľæĭħä¿Ŀ": 8569,
      "ĠæĪ´çĭ¬ç«ĭä¾Ľæ°Ķå¼ıåĳ¼åĲ¸åĻ¨": 8570,
      "ç¡®ä¿ĿåħħåĪĨçļĦéĢļé£İ": 8571,
      "å¡ĳæĸĻäºĭä¸ļéĥ¨": 8572,
      "é£Łåĵģæİ¥è§¦çļĦçº¸åĴĮçº¸æĿ¿ç»ĦåĪĨ": 8573,
      "Ġä¸Ńåįİäººæ°ĳåħ±åĴĮåĽ½åĽºä½ĵ": 8574,
      "Ġåħ«çĶ²åŁºçİ¯åĽĽç¡ħæ°§çĥ·": 8575,
      "è¿Ļä¸įæİĴéĻ¤å¤§éĩıåĴĮç»ıå¸¸çļĦæ³Ħæ¼ıçī©åı¯èĥ½å¯¹": 8576,
[...]
